{
  "!": 6,
  "!!": 1267,
  "!!!": 3240,
  "!!!!": 6691,
  "!!!!!": 38203,
  "!!!!!!!!": 25400,
  "!!!!<|": 33816,
  "!!!<|": 13388,
  "!!<|": 31935,
  "!\"": 4156,
  "!\",": 20418,
  "!\".": 14894,
  "!)": 7829,
  "!))": 39960,
  "!)))": 42900,
  "!)))<|": 43921,
  "!))<|": 47963,
  "!),": 22331,
  "!).": 26334,
  "!)<|": 30788,
  "!-": 24776,
  "!.": 48258,
  "!..": 5486,
  "!...": 29322,
  "!<|": 2420,
  "!?": 22394,
  "!Â»": 6079,
  "!Â»,": 34536,
  "!Â».": 30893,
  "!âĢĿ": 35647,
  "\"": 7,
  "\"!": 14131,
  "\"\"": 27183,
  "\"(": 41117,
  "\")": 6674,
  "\"),": 11330,
  "\").": 9808,
  "\");": 32006,
  "\",": 891,
  "\",\"": 41109,
  "\"-": 21600,
  "\".": 849,
  "\"...": 11261,
  "\".<|": 10349,
  "\":": 7259,
  "\";": 10462,
  "\"<|": 11106,
  "\">": 15166,
  "\"?": 7215,
  "\"[": 23981,
  "#": 8,
  "##": 34204,
  "$": 9,
  "$,": 32227,
  "$-": 39227,
  "$.": 31540,
  "%": 10,
  "%)": 15580,
  "%),": 24725,
  "%).": 24732,
  "%,": 8037,
  "%-": 40975,
  "%.": 6135,
  "%;": 44268,
  "&": 11,
  "&#": 634,
  "'": 12,
  "''": 30313,
  "',": 15772,
  "'.": 26619,
  "'d": 22459,
  "'ll": 17210,
  "'m": 15195,
  "'re": 11553,
  "'s": 1544,
  "'t": 4423,
  "'ve": 15129,
  "(": 13,
  "(\"": 21166,
  "('": 34082,
  "((": 7960,
  "(((": 41935,
  "((((": 30226,
  "()": 15727,
  "();": 22063,
  ")": 14,
  ")!": 43422,
  ")\"": 27461,
  ")\".": 45999,
  ")$": 41644,
  ")(": 44027,
  "))": 757,
  ")))": 2811,
  "))))": 2408,
  ")))))": 23101,
  "))))))": 41804,
  "))))))))": 7354,
  "))))))))))))))))": 24416,
  "))))))<|": 46088,
  ")))))<|": 25531,
  "))))<|": 13057,
  ")))<|": 5125,
  ")).": 41312,
  "));": 41374,
  "))<|": 4892,
  "),": 999,
  ")-": 30728,
  ").": 873,
  ")...": 28781,
  ").<|": 11779,
  "):": 5931,
  ");": 3737,
  ")<|": 1814,
  ")?": 14991,
  ")[": 33602,
  "*": 15,
  "**": 2501,
  "***": 10752,
  "****": 6559,
  "********": 12924,
  "****************": 26249,
  "*,": 49638,
  "*.": 44586,
  "+": 16,
  "++": 7608,
  "+++": 42482,
  "++++": 28728,
  ",": 17,
  ",\"": 4964,
  ",'": 35449,
  ",,": 16545,
  ",-": 9019,
  ",--": 35992,
  ",...": 19242,
  ",<|": 43701,
  ",[": 33345,
  ",âĢĵ": 50231,
  ",âĢĶ": 21171,
  ",âĢĿ": 5118,
  "-": 18,
  "-\"": 23113,
  "-%": 49987,
  "-,": 33330,
  "--": 1285,
  "---": 22524,
  "----": 2456,
  "--------": 4388,
  "----------------": 8432,
  "--------------------------------": 18079,
  "----------------------------------------------------------------": 46605,
  "->": 31689,
  ".": 19,
  ".\"": 3042,
  ".\"<|": 32753,
  ".'": 25665,
  ".(": 27131,
  ".)": 3128,
  ".),": 10184,
  ".).": 7324,
  ".);": 36396,
  ".)<|": 27444,
  ".,": 2402,
  ".-": 6756,
  ".--": 46472,
  "..": 409,
  "..,": 42954,
  "...": 596,
  "...\"": 7577,
  "...\",": 46829,
  "...\".": 30660,
  "...)": 18127,
  "...)))": 49439,
  "...)))<|": 48243,
  "...)<|": 39046,
  "...,": 28190,
  "...-": 41956,
  "....": 1854,
  ".....": 20317,
  "......": 31716,
  "........": 7379,
  "................": 15158,
  "................................": 33913,
  "....<|": 9215,
  "...<|": 3080,
  "...?": 21401,
  "...Â»": 43025,
  "...âľĤ": 11144,
  "..<|": 9840,
  "..?": 28138,
  "./": 19767,
  ".:": 7243,
  ".;": 19157,
  ".<|": 719,
  ".?": 34848,
  ".[": 7176,
  ".\\": 27989,
  ".]": 8716,
  ".],": 28969,
  ".].": 14253,
  ".Â»": 30549,
  ".âĢĵ": 48209,
  ".âĢĶ": 23242,
  ".âĢĻ": 36780,
  ".âĢĿ": 4522,
  "/": 20,
  "/.": 26513,
  "//": 1471,
  "////": 20780,
  "////////": 36959,
  "/<|": 21423,
  "/?": 34913,
  "0": 21,
  "00": 606,
  "000": 2102,
  "0000": 9512,
  "00000000": 34667,
  "001": 37191,
  "01": 763,
  "02": 5123,
  "03": 5611,
  "04": 5378,
  "05": 5126,
  "06": 5552,
  "07": 5484,
  "08": 5679,
  "09": 5431,
  "1": 22,
  "10": 565,
  "100": 6049,
  "1000": 10961,
  "10000": 45508,
  "100000": 45142,
  "1001": 19325,
  "101": 24022,
  "1010": 15208,
  "1011": 26775,
  "10110": 31873,
  "102": 43428,
  "103": 45090,
  "104": 42409,
  "1040": 41078,
  "1042": 31652,
  "1048": 40882,
  "105": 35492,
  "1050": 38833,
  "1052": 49077,
  "1053": 37819,
  "1054": 42554,
  "1055": 34431,
  "1057": 33811,
  "1058": 48312,
  "106": 41403,
  "107": 1221,
  "1072": 3127,
  "1073": 10219,
  "1074": 4901,
  "1075": 10026,
  "1076": 6493,
  "1077": 2970,
  "1078": 14314,
  "1079": 10302,
  "108": 916,
  "1080": 3305,
  "1081": 11722,
  "1082": 5631,
  "1083": 5026,
  "1084": 6069,
  "1085": 3629,
  "1086": 2478,
  "1087": 7153,
  "1088": 4455,
  "1089": 4121,
  "109": 1868,
  "1090": 3544,
  "1091": 7134,
  "1092": 37517,
  "1093": 15002,
  "1094": 25023,
  "1095": 11068,
  "1096": 18131,
  "1097": 30272,
  "1099": 8589,
  "11": 1967,
  "110": 3252,
  "1100": 7920,
  "11000": 46809,
  "1101": 29938,
  "1102": 18668,
  "1103": 8652,
  "111": 30810,
  "1111": 19982,
  "112": 37397,
  "114": 41775,
  "115": 38324,
  "116": 47149,
  "117": 47592,
  "119": 47359,
  "12": 2141,
  "120": 26628,
  "123": 44551,
  "125": 37187,
  "128": 48759,
  "13": 3292,
  "130": 32410,
  "135": 46639,
  "14": 3107,
  "140": 39570,
  "15": 2794,
  "150": 20360,
  "16": 2820,
  "160": 9501,
  "17": 3039,
  "170": 47467,
  "171": 31492,
  "18": 2622,
  "180": 39013,
  "187": 30823,
  "19": 1700,
  "1945": 37677,
  "1980": 48636,
  "1990": 40318,
  "1991": 42901,
  "1992": 45571,
  "1993": 46515,
  "1994": 49952,
  "1995": 45959,
  "1996": 46625,
  "1997": 45618,
  "1998": 42495,
  "1999": 41924,
  "2": 23,
  "20": 2247,
  "200": 3675,
  "2000": 22068,
  "2001": 33277,
  "2002": 32882,
  "2003": 30583,
  "2004": 28689,
  "2005": 26445,
  "2006": 21201,
  "2007": 19254,
  "2008": 16861,
  "2009": 15650,
  "201": 2000,
  "2010": 12873,
  "2011": 11437,
  "2012": 9844,
  "2013": 8998,
  "2014": 7727,
  "2015": 6405,
  "2016": 8460,
  "2017": 17658,
  "2018": 18672,
  "2019": 22797,
  "21": 5042,
  "22": 3966,
  "220": 44361,
  "23": 4314,
  "24": 4044,
  "240": 48987,
  "25": 3468,
  "250": 27603,
  "26": 4587,
  "27": 4497,
  "28": 4716,
  "29": 4681,
  "3": 24,
  "30": 2535,
  "300": 14199,
  "31": 6473,
  "32": 6247,
  "320": 48205,
  "33": 4537,
  "3333": 40245,
  "34": 5287,
  "35": 4648,
  "350": 41097,
  "36": 5266,
  "37": 4952,
  "375": 49079,
  "38": 5187,
  "39": 4709,
  "4": 25,
  "40": 3826,
  "400": 18258,
  "41": 8145,
  "42": 7286,
  "43": 6917,
  "430": 40754,
  "435": 43331,
  "44": 5716,
  "45": 4958,
  "450": 47453,
  "46": 7151,
  "47": 6488,
  "48": 6356,
  "49": 5022,
  "495": 13872,
  "499": 35072,
  "5": 26,
  "50": 2435,
  "500": 11656,
  "51": 10096,
  "52": 8888,
  "53": 8886,
  "54": 8837,
  "55": 5199,
  "56": 7270,
  "57": 6944,
  "58": 7915,
  "59": 7968,
  "6": 27,
  "60": 3939,
  "600": 22943,
  "61": 13002,
  "62": 11752,
  "63": 11924,
  "64": 10792,
  "65": 10419,
  "66": 6872,
  "6666": 49524,
  "67": 10618,
  "68": 11239,
  "69": 11375,
  "7": 28,
  "70": 7220,
  "700": 27227,
  "71": 13667,
  "72": 11944,
  "73": 13163,
  "74": 11707,
  "75": 8257,
  "76": 8558,
  "77": 6704,
  "78": 9253,
  "79": 11648,
  "8": 29,
  "80": 4385,
  "800": 16174,
  "81": 10509,
  "812": 33202,
  "82": 7029,
  "8211": 40535,
  "8212": 34597,
  "83": 11511,
  "84": 11782,
  "85": 9782,
  "86": 8774,
  "87": 10175,
  "88": 7554,
  "89": 10390,
  "9": 30,
  "90": 7137,
  "900": 32622,
  "91": 12405,
  "92": 10575,
  "93": 12165,
  "94": 12213,
  "95": 8525,
  "96": 8374,
  "97": 9830,
  "98": 9185,
  "99": 5765,
  "9999": 34596,
  ":": 31,
  ":\"": 15550,
  ":)": 10430,
  ":))": 38084,
  ":)))": 45761,
  ":)<|": 23335,
  ":-": 17118,
  "://": 1773,
  "::": 21382,
  ":<|": 10294,
  ";": 32,
  ";&#": 687,
  ";)": 41866,
  ";,": 9130,
  ";-": 29748,
  ";.": 11799,
  ";.&#": 31564,
  ";;": 6176,
  ";}": 32670,
  "<": 33,
  "</": 10174,
  "</s>": 3,
  "<mask>": 5,
  "<pad>": 0,
  "<s>": 2,
  "<unk>": 4,
  "<|": 482,
  "<|endoftext|>": 1,
  "=": 34,
  "=\"": 6209,
  "=-": 41580,
  "==": 3122,
  "====": 5651,
  "========": 10216,
  "================": 20123,
  "================================": 45663,
  ">": 35,
  ">>": 38233,
  "?": 36,
  "?!": 3839,
  "?\"": 5730,
  "?\",": 31974,
  "?\".": 23446,
  "?)": 4116,
  "?))": 7545,
  "?)))": 7434,
  "?),": 41414,
  "?).": 43292,
  "?)<|": 31376,
  "?-": 23405,
  "?.": 41978,
  "?..": 6700,
  "?...": 14566,
  "?:)": 45394,
  "?<|": 3063,
  "??": 1863,
  "??))": 45397,
  "???": 4815,
  "???)))": 38270,
  "???<|": 44748,
  "????": 15160,
  "?Â»": 7838,
  "?Â».": 49303,
  "?âĢĿ": 24525,
  "@": 37,
  "A": 38,
  "AA": 21404,
  "AB": 39200,
  "AC": 13142,
  "AD": 14353,
  "AF": 34140,
  "AG": 34130,
  "AL": 12220,
  "AM": 14367,
  "AN": 8988,
  "AND": 43132,
  "AP": 16150,
  "AR": 8788,
  "ART": 44376,
  "AS": 9623,
  "AT": 9575,
  "ATE": 50146,
  "AV": 39405,
  "Ab": 38096,
  "Acc": 27147,
  "According": 29378,
  "Ad": 14290,
  "Advertisement": 36082,
  "After": 19411,
  "Al": 13982,
  "All": 22275,
  "Although": 47104,
  "Am": 34817,
  "Americ": 29913,
  "American": 38091,
  "An": 7022,
  "And": 12271,
  "Another": 46853,
  "App": 31690,
  "Ar": 15798,
  "Art": 49958,
  "As": 10903,
  "At": 16058,
  "B": 39,
  "BA": 18934,
  "BB": 42660,
  "BC": 11586,
  "BD": 42042,
  "BE": 33379,
  "BI": 26481,
  "BM": 31879,
  "BN": 39100,
  "BO": 32118,
  "BS": 20976,
  "Be": 20621,
  "Bl": 22192,
  "Book": 47057,
  "Br": 47755,
  "But": 10303,
  "By": 22763,
  "C": 40,
  "CC": 23626,
  "CD": 29410,
  "CE": 43863,
  "CH": 20654,
  "CO": 39913,
  "COM": 44354,
  "CP": 49885,
  "Cal": 39975,
  "Can": 39196,
  "Car": 40905,
  "Ch": 10566,
  "Char": 49693,
  "Che": 48339,
  "Cl": 17484,
  "Class": 43114,
  "Co": 39449,
  "Col": 33434,
  "Com": 18768,
  "Con": 18776,
  "Cont": 30687,
  "D": 41,
  "DA": 22861,
  "DC": 47407,
  "DP": 38644,
  "DR": 37158,
  "DS": 36642,
  "Data": 46536,
  "De": 23005,
  "Def": 48800,
  "Des": 29769,
  "Do": 30571,
  "Don": 24276,
  "Donald": 43826,
  "Dr": 42387,
  "During": 36945,
  "E": 42,
  "EA": 35763,
  "EC": 14572,
  "ECT": 46014,
  "ED": 14149,
  "EE": 39901,
  "EF": 46283,
  "EG": 20500,
  "EL": 14507,
  "EM": 20680,
  "EN": 11117,
  "ENT": 35644,
  "EO": 17147,
  "EP": 35159,
  "ER": 6962,
  "ERS": 39958,
  "ES": 10564,
  "ESS": 50108,
  "EST": 47753,
  "ET": 14334,
  "EW": 16489,
  "EWS": 20718,
  "EX": 26393,
  "Ed": 37862,
  "El": 38672,
  "En": 15325,
  "Enter": 36634,
  "Even": 45638,
  "Every": 44269,
  "Ex": 17449,
  "Exception": 46647,
  "F": 43,
  "FA": 29793,
  "FC": 22562,
  "FF": 31821,
  "FL": 21705,
  "FO": 49417,
  "Fi": 24249,
  "First": 44180,
  "Fl": 44441,
  "For": 13739,
  "Form": 47444,
  "Fr": 32713,
  "From": 31971,
  "G": 44,
  "GA": 50040,
  "GB": 28478,
  "GC": 45321,
  "Ge": 40267,
  "Get": 28645,
  "Gl": 49337,
  "Go": 31431,
  "Gr": 34045,
  "Gu": 49222,
  "H": 45,
  "HA": 47066,
  "HD": 45038,
  "HL": 34266,
  "HO": 49809,
  "HP": 41556,
  "HS": 44955,
  "HT": 47739,
  "He": 7691,
  "Her": 44427,
  "Here": 35096,
  "His": 38184,
  "How": 18733,
  "However": 35844,
  "Hz": 46163,
  "I": 46,
  "IA": 18304,
  "IC": 12766,
  "ID": 13105,
  "IF": 23055,
  "IG": 23546,
  "II": 3196,
  "III": 8651,
  "IK": 44396,
  "IL": 18029,
  "IM": 18464,
  "IN": 8790,
  "ING": 25608,
  "IO": 45901,
  "ION": 28950,
  "IP": 16439,
  "IR": 24484,
  "IS": 10035,
  "IT": 12026,
  "IV": 18342,
  "IX": 30570,
  "Id": 44296,
  "If": 13044,
  "Im": 23754,
  "Image": 36639,
  "In": 3517,
  "Ind": 36968,
  "Internet": 24936,
  "Is": 24918,
  "It": 6803,
  "J": 47,
  "John": 36522,
  "Just": 40755,
  "K": 48,
  "L": 49,
  "LA": 27639,
  "LC": 36405,
  "LE": 24919,
  "LS": 32814,
  "La": 40678,
  "Last": 43063,
  "Le": 18307,
  "Let": 38251,
  "List": 36811,
  "M": 50,
  "MA": 22871,
  "MC": 38966,
  "MI": 49241,
  "ML": 46559,
  "MP": 39260,
  "MS": 13373,
  "Man": 31137,
  "Many": 46914,
  "Mar": 33067,
  "May": 49331,
  "Me": 27372,
  "Mod": 43339,
  "More": 40209,
  "Most": 48491,
  "Mr": 32938,
  "Mso": 43754,
  "My": 22631,
  "N": 51,
  "NA": 25923,
  "NC": 45419,
  "NN": 25195,
  "NS": 37654,
  "NUM": 49445,
  "Name": 31409,
  "Ne": 29116,
  "Net": 45157,
  "New": 27235,
  "News": 30380,
  "No": 16764,
  "Not": 31326,
  "Now": 28129,
  "O": 52,
  "OC": 25771,
  "OD": 26499,
  "OG": 47053,
  "OK": 43705,
  "OL": 18228,
  "OM": 13967,
  "ON": 9664,
  "OP": 18026,
  "OR": 9879,
  "ORE": 48150,
  "OS": 10674,
  "OT": 15831,
  "OV": 33456,
  "OW": 28855,
  "Ob": 34839,
  "Of": 34907,
  "Oh": 39127,
  "On": 10398,
  "One": 20755,
  "Or": 36401,
  "Other": 48086,
  "Our": 42220,
  "Over": 41229,
  "P": 53,
  "PA": 23768,
  "PC": 33860,
  "PD": 22007,
  "PG": 35526,
  "PL": 44480,
  "PM": 41146,
  "PR": 24331,
  "PS": 12550,
  "PU": 37649,
  "Par": 41741,
  "Pe": 28235,
  "Per": 43611,
  "Ph": 11517,
  "Phone": 18399,
  "Photo": 42152,
  "Pl": 23778,
  "Pol": 48606,
  "Pr": 29987,
  "Pres": 46210,
  "Press": 39884,
  "Pro": 19096,
  "Q": 54,
  "QL": 34739,
  "Qu": 29384,
  "R": 55,
  "RA": 21825,
  "RC": 39288,
  "RE": 22024,
  "RL": 43115,
  "RO": 38474,
  "RS": 43207,
  "RT": 45117,
  "RU": 17508,
  "Re": 11522,
  "Read": 42085,
  "Rec": 50249,
  "Rep": 43538,
  "Res": 33041,
  "Rob": 47971,
  "Ru": 14948,
  "S": 56,
  "SA": 24961,
  "SC": 28909,
  "SD": 28975,
  "SE": 30714,
  "SI": 44135,
  "SL": 39537,
  "SM": 27686,
  "SP": 22729,
  "SS": 17219,
  "ST": 18940,
  "Sc": 22814,
  "Script": 19665,
  "Se": 29337,
  "Sec": 46325,
  "Ser": 47072,
  "Sh": 14953,
  "She": 20691,
  "Since": 41475,
  "Sm": 42471,
  "So": 18359,
  "Some": 30291,
  "Sp": 26271,
  "Spe": 50099,
  "St": 7294,
  "Star": 46895,
  "Ste": 33633,
  "String": 44308,
  "T": 57,
  "TA": 25005,
  "TC": 25291,
  "TE": 37343,
  "TER": 26080,
  "TH": 31254,
  "TM": 19822,
  "TML": 33710,
  "TP": 32740,
  "TR": 29123,
  "TS": 26362,
  "TV": 22110,
  "Te": 25911,
  "Th": 5364,
  "That": 17802,
  "The": 1729,
  "Then": 45137,
  "There": 12613,
  "These": 35818,
  "They": 20669,
  "This": 9010,
  "Time": 45488,
  "To": 18101,
  "Tr": 26378,
  "Tru": 34537,
  "Trump": 45450,
  "Tube": 20556,
  "Two": 45781,
  "Type": 45168,
  "U": 58,
  "UL": 28807,
  "UM": 26177,
  "UN": 28368,
  "UP": 46337,
  "UPD": 38784,
  "UR": 16879,
  "US": 11600,
  "UT": 20864,
  "Un": 20050,
  "Uni": 49091,
  "Up": 33141,
  "Us": 47653,
  "V": 59,
  "VD": 21863,
  "VI": 29770,
  "Val": 41513,
  "View": 41778,
  "W": 60,
  "We": 6550,
  "Well": 40866,
  "Wh": 8425,
  "What": 15927,
  "When": 16334,
  "While": 24959,
  "Why": 39402,
  "Will": 47227,
  "With": 21776,
  "X": 61,
  "XV": 37515,
  "XX": 23680,
  "Y": 62,
  "Yes": 42949,
  "You": 12590,
  "Z": 63,
  "[": 64,
  "\\": 65,
  "\\\\": 2222,
  "]": 66,
  "],": 10392,
  "].": 3905,
  "]:": 42299,
  "];": 40478,
  "]<|": 36165,
  "][": 13145,
  "]]": 50005,
  "^": 67,
  "^{": 26338,
  "_": 68,
  "__": 1519,
  "___": 35752,
  "____": 2712,
  "________": 5012,
  "________________": 10291,
  "________________________________": 27718,
  "_{": 24106,
  "`": 69,
  "a": 70,
  "aa": 45052,
  "ab": 1401,
  "abase": 44004,
  "abb": 45438,
  "abe": 44031,
  "abel": 41552,
  "abeth": 50195,
  "abil": 40595,
  "abilities": 40463,
  "ability": 11640,
  "abin": 39007,
  "abit": 30948,
  "able": 2903,
  "abled": 39930,
  "ables": 21137,
  "ably": 9772,
  "abor": 20456,
  "abs": 47505,
  "aby": 24522,
  "ac": 775,
  "acc": 43549,
  "ace": 2393,
  "acebook": 9113,
  "aced": 12163,
  "aces": 11154,
  "ach": 3096,
  "ache": 29898,
  "ached": 15865,
  "acher": 21574,
  "aches": 22990,
  "acing": 19750,
  "acity": 28626,
  "ack": 1815,
  "acked": 44681,
  "acking": 40277,
  "acks": 34337,
  "acle": 28407,
  "act": 2387,
  "acted": 24980,
  "acter": 40503,
  "action": 14493,
  "actions": 27187,
  "active": 35908,
  "actor": 50052,
  "acy": 10602,
  "ad": 839,
  "ada": 11797,
  "add": 13857,
  "adding": 38361,
  "ade": 3553,
  "aded": 27620,
  "adel": 42765,
  "adem": 18456,
  "ademy": 32502,
  "ader": 25757,
  "ades": 15810,
  "adi": 44157,
  "ading": 23227,
  "adium": 35034,
  "ado": 22925,
  "ador": 38693,
  "adow": 34033,
  "ads": 35941,
  "ady": 16946,
  "ae": 13238,
  "ael": 17714,
  "af": 11336,
  "aff": 12353,
  "after": 47828,
  "ag": 1161,
  "aga": 43104,
  "agan": 42887,
  "age": 2223,
  "aged": 12433,
  "agement": 18186,
  "agen": 29635,
  "ager": 14675,
  "agers": 46655,
  "ages": 7233,
  "aging": 18563,
  "agn": 31216,
  "ago": 20822,
  "agon": 19968,
  "agram": 21164,
  "ags": 28142,
  "ague": 10702,
  "agues": 41140,
  "ah": 5310,
  "ai": 8879,
  "aid": 13851,
  "aign": 11141,
  "ail": 2453,
  "ails": 41129,
  "aily": 16411,
  "aim": 9258,
  "ain": 1485,
  "aine": 34747,
  "ained": 10713,
  "aining": 16848,
  "ains": 9862,
  "aint": 19624,
  "aints": 43892,
  "air": 5683,
  "airs": 21598,
  "ait": 35352,
  "aj": 6456,
  "ajor": 9057,
  "ak": 1843,
  "aka": 37687,
  "ake": 2959,
  "aked": 30847,
  "aken": 11634,
  "aker": 17887,
  "akers": 23386,
  "akes": 8168,
  "akh": 42650,
  "aki": 48659,
  "aking": 5688,
  "aks": 21250,
  "al": 521,
  "ala": 24314,
  "aland": 40302,
  "alax": 21240,
  "alaxies": 49588,
  "alaxy": 28111,
  "ald": 10952,
  "ale": 5728,
  "aled": 20185,
  "ales": 11534,
  "alex": 32181,
  "alf": 10516,
  "ali": 33184,
  "aling": 24154,
  "ality": 10163,
  "alk": 6514,
  "all": 1641,
  "alle": 31187,
  "alled": 21249,
  "alls": 36182,
  "ally": 2165,
  "alo": 36460,
  "als": 5186,
  "alse": 20544,
  "alt": 13737,
  "alth": 7783,
  "alty": 46233,
  "aly": 16767,
  "am": 804,
  "ama": 8637,
  "amb": 18249,
  "amber": 45918,
  "ame": 2057,
  "amed": 11888,
  "ament": 21790,
  "amental": 41745,
  "amer": 15568,
  "ames": 6166,
  "amework": 35603,
  "ami": 39711,
  "amily": 19769,
  "amin": 37385,
  "aming": 26954,
  "amm": 36997,
  "amma": 40147,
  "amp": 3616,
  "ampion": 38227,
  "ampions": 17337,
  "ampionship": 21031,
  "ample": 10327,
  "ams": 13659,
  "amsung": 24999,
  "an": 492,
  "ana": 10701,
  "anc": 4047,
  "ance": 3077,
  "anced": 19316,
  "ances": 11666,
  "anch": 19956,
  "anches": 37088,
  "ancial": 17124,
  "ancing": 35123,
  "ancy": 26399,
  "and": 1249,
  "anda": 28696,
  "ander": 18608,
  "andex": 25520,
  "andom": 26157,
  "andon": 34020,
  "ands": 12683,
  "andy": 44017,
  "ane": 8138,
  "anes": 40313,
  "ang": 3165,
  "ange": 5296,
  "anged": 36682,
  "anger": 17891,
  "angers": 45187,
  "anges": 47389,
  "anging": 34805,
  "angu": 13101,
  "anguage": 50246,
  "ani": 28492,
  "anish": 32468,
  "ank": 5234,
  "anks": 15936,
  "ann": 6278,
  "anna": 35766,
  "anned": 23565,
  "annel": 22594,
  "anny": 47666,
  "ano": 22283,
  "ans": 2140,
  "ansas": 40240,
  "ansion": 32553,
  "ant": 1597,
  "anta": 25534,
  "anted": 13026,
  "antic": 26999,
  "antly": 40321,
  "ants": 7983,
  "anwhile": 44178,
  "any": 6014,
  "ao": 39300,
  "ap": 1915,
  "apan": 15817,
  "ape": 12947,
  "aped": 38498,
  "aper": 10840,
  "apers": 34393,
  "app": 8368,
  "apped": 42048,
  "apping": 39837,
  "appy": 42977,
  "aps": 10880,
  "apse": 46964,
  "apt": 22555,
  "apter": 36216,
  "ar": 525,
  "ara": 15528,
  "aran": 31044,
  "arch": 5718,
  "ard": 1709,
  "arden": 34403,
  "ards": 10148,
  "are": 2980,
  "ared": 7246,
  "ares": 24302,
  "aret": 39793,
  "arg": 4825,
  "arge": 6782,
  "argin": 19764,
  "ari": 6421,
  "arian": 22799,
  "aries": 20958,
  "ariju": 37896,
  "arijuana": 37926,
  "arily": 21291,
  "aring": 13896,
  "ario": 27530,
  "ark": 3390,
  "arks": 36076,
  "arm": 7790,
  "arn": 10879,
  "arning": 25413,
  "arp": 31022,
  "arr": 20920,
  "arrow": 33925,
  "arry": 49092,
  "ars": 5111,
  "arsh": 31094,
  "art": 1587,
  "arter": 18205,
  "arters": 40006,
  "article": 42883,
  "artment": 12118,
  "arts": 40260,
  "ary": 2473,
  "as": 591,
  "asc": 20761,
  "ase": 3206,
  "ased": 4553,
  "aser": 35891,
  "ases": 9755,
  "ash": 5800,
  "asha": 48363,
  "ashed": 44792,
  "ashing": 13240,
  "ashington": 14912,
  "ashion": 28195,
  "asing": 15257,
  "asion": 28463,
  "ask": 14322,
  "asks": 47520,
  "ason": 5206,
  "asons": 18722,
  "asp": 35266,
  "ass": 2417,
  "ast": 1969,
  "aste": 28805,
  "asted": 45810,
  "aster": 10007,
  "astern": 32836,
  "astic": 21253,
  "asty": 48499,
  "asure": 36518,
  "asy": 28217,
  "at": 514,
  "ata": 5752,
  "atal": 23484,
  "atch": 6030,
  "atched": 39363,
  "ate": 934,
  "ated": 2229,
  "ateg": 16553,
  "ategy": 29982,
  "atell": 41934,
  "ately": 8941,
  "ater": 5056,
  "aterial": 16364,
  "ates": 3555,
  "atest": 33568,
  "atever": 29730,
  "atform": 23074,
  "ath": 4350,
  "athan": 44688,
  "athe": 40891,
  "ather": 6397,
  "ati": 30726,
  "atic": 8433,
  "atically": 32326,
  "atin": 27779,
  "ating": 4992,
  "ation": 968,
  "ational": 4113,
  "ations": 2847,
  "ative": 4939,
  "atives": 18943,
  "ato": 25545,
  "ator": 8102,
  "ators": 12435,
  "atory": 19443,
  "atre": 36559,
  "ats": 8346,
  "att": 10386,
  "atter": 14783,
  "attle": 13571,
  "atur": 16809,
  "atural": 17039,
  "aturday": 26342,
  "ature": 7410,
  "atures": 33535,
  "atus": 34188,
  "au": 9187,
  "aug": 10278,
  "augh": 17157,
  "aught": 22608,
  "aughter": 22834,
  "aul": 12834,
  "ault": 12904,
  "aur": 19512,
  "aus": 3568,
  "ause": 4319,
  "aut": 12759,
  "av": 2405,
  "ava": 11790,
  "aval": 32328,
  "avas": 45776,
  "ave": 5999,
  "aven": 41105,
  "aver": 43049,
  "aves": 19806,
  "avid": 47705,
  "avig": 43325,
  "aving": 18790,
  "avor": 44638,
  "avy": 16031,
  "aw": 5487,
  "awa": 40722,
  "awn": 39765,
  "ax": 4704,
  "ay": 889,
  "aya": 22654,
  "ayer": 30483,
  "aylor": 45556,
  "ays": 3188,
  "az": 4666,
  "aza": 36567,
  "aze": 43696,
  "azi": 47270,
  "azine": 25645,
  "azing": 36705,
  "azon": 29022,
  "azz": 33928,
  "b": 71,
  "ba": 27107,
  "back": 11726,
  "bal": 40550,
  "ball": 9759,
  "ban": 31702,
  "band": 22006,
  "bar": 30536,
  "based": 18383,
  "bb": 27539,
  "be": 7033,
  "bec": 49723,
  "bed": 19456,
  "bel": 30502,
  "bell": 45262,
  "ber": 2357,
  "berg": 17160,
  "bers": 7650,
  "bert": 26988,
  "bes": 34528,
  "bi": 36820,
  "bit": 16956,
  "bl": 8161,
  "ble": 5367,
  "bling": 35717,
  "block": 50065,
  "blog": 26512,
  "bo": 11193,
  "board": 22287,
  "body": 18959,
  "bol": 35845,
  "bon": 25369,
  "book": 7429,
  "books": 49991,
  "bor": 13671,
  "born": 23752,
  "bour": 29408,
  "box": 20032,
  "br": 6549,
  "bra": 34083,
  "bre": 29941,
  "bridge": 42706,
  "bro": 38290,
  "bs": 9643,
  "bsite": 19064,
  "bum": 13774,
  "burg": 21591,
  "burgh": 47668,
  "bury": 49891,
  "bus": 45373,
  "but": 26335,
  "by": 7854,
  "c": 72,
  "ca": 28768,
  "cal": 37034,
  "called": 42940,
  "can": 34643,
  "car": 36282,
  "care": 43108,
  "cast": 16526,
  "cat": 44475,
  "cc": 16955,
  "ce": 1044,
  "cean": 34044,
  "ced": 7192,
  "cedes": 35457,
  "ceed": 18922,
  "ceived": 48332,
  "cel": 23175,
  "cember": 15711,
  "cent": 7169,
  "center": 41233,
  "centr": 34804,
  "cept": 6789,
  "cepted": 38824,
  "ception": 17748,
  "cer": 24905,
  "ces": 7815,
  "cess": 3886,
  "ch": 1028,
  "chan": 19613,
  "change": 24145,
  "che": 10635,
  "ched": 11721,
  "chen": 31207,
  "cher": 13265,
  "chers": 24748,
  "ches": 13384,
  "chi": 49660,
  "chie": 18078,
  "chn": 9118,
  "cho": 38262,
  "chool": 6325,
  "ci": 22505,
  "cial": 6451,
  "cil": 16337,
  "cing": 33351,
  "cious": 36607,
  "ck": 6290,
  "cks": 31707,
  "cl": 2607,
  "claim": 38401,
  "class": 25813,
  "cle": 18968,
  "cles": 37017,
  "clud": 4226,
  "clus": 17035,
  "clusion": 33485,
  "clusive": 40424,
  "cm": 28243,
  "co": 2846,
  "code": 9921,
  "cohol": 46882,
  "coin": 28070,
  "col": 19962,
  "color": 40505,
  "com": 1996,
  "come": 7465,
  "comes": 24324,
  "coming": 18657,
  "comm": 13452,
  "comp": 19864,
  "compl": 41084,
  "con": 6304,
  "conom": 9647,
  "cons": 37306,
  "cont": 19459,
  "content": 45249,
  "core": 50223,
  "covered": 22794,
  "cr": 45465,
  "craft": 20730,
  "cript": 12029,
  "cription": 46910,
  "ct": 947,
  "cted": 6149,
  "ction": 2905,
  "ctions": 12390,
  "ctor": 7986,
  "ctors": 29972,
  "cul": 18665,
  "cut": 47380,
  "cy": 27002,
  "d": 73,
  "da": 17356,
  "data": 47756,
  "date": 20516,
  "day": 4724,
  "dden": 35962,
  "de": 6477,
  "dec": 49703,
  "ded": 40287,
  "def": 33353,
  "del": 41092,
  "den": 15021,
  "der": 2412,
  "dered": 31141,
  "des": 31951,
  "df": 33223,
  "di": 41920,
  "dimensional": 41838,
  "ding": 34992,
  "dis": 31107,
  "div": 19332,
  "do": 16866,
  "doc": 35712,
  "dom": 18270,
  "don": 38023,
  "down": 19954,
  "dr": 32063,
  "draw": 41715,
  "dro": 33346,
  "du": 4734,
  "duc": 6487,
  "duce": 22335,
  "duced": 11451,
  "ducing": 41015,
  "duct": 19856,
  "ducted": 37305,
  "duction": 22869,
  "dy": 39483,
  "e": 74,
  "eah": 44207,
  "ear": 1775,
  "earch": 22495,
  "ears": 29238,
  "eb": 10658,
  "ec": 3228,
  "ecause": 23933,
  "ecess": 50008,
  "ech": 17486,
  "eck": 28658,
  "ect": 2653,
  "ected": 13442,
  "ection": 28318,
  "ed": 567,
  "eder": 11190,
  "ederal": 14163,
  "edia": 24638,
  "eds": 36063,
  "edy": 25859,
  "ee": 15851,
  "eed": 27408,
  "ees": 26454,
  "ef": 13969,
  "ek": 5236,
  "eks": 17823,
  "el": 900,
  "ela": 45350,
  "eld": 45230,
  "ele": 13863,
  "elebr": 24739,
  "eler": 35714,
  "eless": 33220,
  "elf": 4696,
  "eline": 30151,
  "ell": 2092,
  "ella": 33836,
  "elled": 32631,
  "eller": 43923,
  "elling": 20325,
  "ello": 46466,
  "ellow": 32570,
  "elly": 40650,
  "els": 7639,
  "elt": 15687,
  "em": 1806,
  "eman": 46174,
  "ember": 19484,
  "eme": 47803,
  "en": 377,
  "ena": 15174,
  "enc": 4009,
  "ence": 2541,
  "enced": 21856,
  "ences": 10330,
  "ench": 34550,
  "encies": 24109,
  "encing": 48097,
  "ency": 7823,
  "end": 463,
  "enda": 46856,
  "ended": 10662,
  "ender": 14049,
  "ending": 10855,
  "endment": 47385,
  "endof": 483,
  "endoftext": 484,
  "ends": 15458,
  "ene": 6877,
  "ened": 12551,
  "ener": 4562,
  "eneral": 16046,
  "eness": 25042,
  "eng": 8754,
  "enge": 23558,
  "enger": 36973,
  "ength": 18789,
  "ening": 17277,
  "enn": 9434,
  "ennis": 47878,
  "enny": 46854,
  "ens": 2864,
  "ense": 7447,
  "enses": 39582,
  "ension": 19008,
  "ensity": 24160,
  "ensive": 13401,
  "ensus": 31362,
  "ent": 703,
  "enta": 43304,
  "ental": 13369,
  "ented": 10033,
  "enter": 9704,
  "enth": 42493,
  "ential": 9001,
  "ention": 10745,
  "ently": 6042,
  "ents": 3521,
  "enty": 25389,
  "enz": 31265,
  "ep": 2553,
  "epend": 13353,
  "ependent": 18244,
  "eph": 33513,
  "equ": 27849,
  "er": 459,
  "era": 35167,
  "erc": 17505,
  "ered": 11513,
  "eren": 46205,
  "erg": 35318,
  "ergy": 11332,
  "ering": 12555,
  "erm": 21632,
  "erman": 10678,
  "ern": 6646,
  "ero": 19267,
  "erry": 31051,
  "ers": 1317,
  "ersey": 41762,
  "erson": 6358,
  "ert": 4986,
  "ertain": 10576,
  "erv": 3513,
  "erve": 22095,
  "erved": 35837,
  "erves": 48786,
  "ery": 11491,
  "es": 529,
  "esc": 44337,
  "ese": 17393,
  "ess": 1525,
  "ession": 21916,
  "essions": 43492,
  "est": 1456,
  "ested": 17487,
  "estern": 17022,
  "estic": 31899,
  "estival": 28992,
  "et": 802,
  "eta": 25188,
  "eth": 19457,
  "ether": 40580,
  "etic": 34740,
  "etime": 49440,
  "etro": 29578,
  "ets": 6797,
  "ett": 31526,
  "ette": 33348,
  "ety": 8663,
  "eum": 26882,
  "ev": 10037,
  "ever": 6189,
  "everal": 49828,
  "evin": 47164,
  "ew": 1377,
  "ework": 31520,
  "ews": 8484,
  "ex": 4695,
  "ey": 14717,
  "ez": 45504,
  "f": 75,
  "fa": 46957,
  "face": 14896,
  "facebook": 46702,
  "family": 25884,
  "fare": 37930,
  "fe": 9282,
  "fect": 18125,
  "fee": 38161,
  "fer": 3466,
  "ference": 12713,
  "ff": 2287,
  "ffect": 39302,
  "ffic": 13819,
  "fficient": 39612,
  "fic": 13040,
  "ficult": 16850,
  "field": 17993,
  "fig": 43043,
  "fil": 42941,
  "fin": 30580,
  "fire": 44329,
  "fl": 15171,
  "font": 14706,
  "for": 9949,
  "force": 22849,
  "forcement": 34997,
  "ford": 17407,
  "fore": 4821,
  "form": 3634,
  "formation": 8914,
  "fort": 16719,
  "fortun": 36653,
  "fortunately": 44409,
  "fox": 47793,
  "fr": 21496,
  "free": 35877,
  "friend": 32702,
  "from": 34958,
  "front": 48901,
  "ft": 4766,
  "fter": 3235,
  "ful": 5106,
  "fully": 17225,
  "function": 39144,
  "g": 76,
  "ga": 15298,
  "gal": 47045,
  "game": 46889,
  "gan": 5476,
  "gar": 29458,
  "gas": 40573,
  "ge": 1818,
  "ged": 14653,
  "gel": 47244,
  "gen": 20651,
  "gener": 47220,
  "gent": 41990,
  "ger": 7552,
  "gers": 33791,
  "ges": 20550,
  "gest": 23397,
  "get": 6307,
  "gether": 13538,
  "gg": 7676,
  "ghan": 37570,
  "gi": 49951,
  "gin": 10318,
  "ging": 20194,
  "gl": 24131,
  "gmail": 46983,
  "gment": 39004,
  "gn": 30909,
  "go": 12229,
  "going": 35137,
  "gor": 19666,
  "gorith": 26414,
  "got": 44802,
  "gov": 39250,
  "gr": 4148,
  "grade": 43184,
  "gram": 7699,
  "greg": 40033,
  "gress": 13264,
  "ground": 17081,
  "group": 44974,
  "gs": 39414,
  "gu": 25028,
  "gun": 49134,
  "gy": 7427,
  "gypt": 34816,
  "h": 77,
  "ha": 15934,
  "ham": 14062,
  "han": 18798,
  "hand": 32823,
  "haps": 19333,
  "hat": 32461,
  "he": 369,
  "head": 13785,
  "heast": 45375,
  "hed": 3522,
  "hel": 14678,
  "hem": 21298,
  "hen": 4619,
  "hens": 35153,
  "her": 1280,
  "here": 10145,
  "hern": 13861,
  "hes": 5654,
  "hest": 22547,
  "het": 39362,
  "hi": 30068,
  "hib": 19372,
  "hing": 4524,
  "hip": 5889,
  "hire": 47860,
  "hist": 49187,
  "ho": 37558,
  "hod": 10420,
  "hol": 29325,
  "hold": 18815,
  "hood": 17930,
  "hor": 46072,
  "host": 34158,
  "house": 25220,
  "how": 33938,
  "hr": 41282,
  "ht": 1175,
  "htm": 35427,
  "html": 5468,
  "http": 4038,
  "https": 10739,
  "hus": 49376,
  "hy": 27458,
  "i": 78,
  "ia": 1926,
  "iable": 36942,
  "ial": 1903,
  "ially": 30011,
  "iam": 9543,
  "ian": 2618,
  "iana": 34318,
  "iance": 25298,
  "iano": 43170,
  "ians": 10436,
  "iant": 23203,
  "ias": 29897,
  "iat": 38261,
  "iation": 26305,
  "ib": 2685,
  "iber": 15703,
  "ibility": 15979,
  "ible": 5693,
  "ibly": 22998,
  "ibr": 17175,
  "ibrary": 25837,
  "ibri": 41433,
  "ic": 589,
  "ica": 16252,
  "icago": 27956,
  "ical": 2700,
  "ically": 7444,
  "ican": 41163,
  "icated": 25102,
  "ice": 2343,
  "iced": 29757,
  "ices": 7303,
  "ich": 1900,
  "icial": 50199,
  "icide": 41807,
  "icing": 48372,
  "icious": 41502,
  "icit": 26521,
  "ick": 3586,
  "icket": 30437,
  "icks": 24925,
  "icle": 10825,
  "icles": 18681,
  "ico": 19357,
  "icon": 35887,
  "ics": 4476,
  "ict": 3891,
  "icted": 30730,
  "iction": 17682,
  "ictions": 41051,
  "ictor": 29156,
  "icy": 33625,
  "id": 785,
  "ida": 20723,
  "idae": 47623,
  "iday": 18021,
  "idd": 10816,
  "idden": 33358,
  "iddle": 16165,
  "ide": 2150,
  "ided": 9301,
  "idel": 41108,
  "idence": 12194,
  "ident": 4202,
  "idents": 20938,
  "ideo": 10704,
  "ideos": 38357,
  "ider": 8478,
  "idered": 18452,
  "iders": 29389,
  "ides": 9659,
  "idge": 16247,
  "idi": 37820,
  "iding": 17368,
  "ids": 14765,
  "idth": 20450,
  "ie": 2211,
  "ied": 4405,
  "ief": 12838,
  "iel": 5314,
  "ield": 6263,
  "ien": 23761,
  "ience": 7431,
  "iences": 40394,
  "iency": 42170,
  "iens": 50117,
  "ient": 6749,
  "ients": 18267,
  "ier": 5590,
  "iers": 20756,
  "ies": 1636,
  "iest": 49515,
  "iet": 13869,
  "iev": 44471,
  "iew": 4898,
  "if": 1271,
  "ife": 5339,
  "ifer": 44840,
  "iff": 23215,
  "ific": 5167,
  "ification": 17477,
  "ified": 10281,
  "iform": 40182,
  "ift": 15408,
  "iful": 27937,
  "ify": 11426,
  "ifying": 32457,
  "ig": 882,
  "igan": 33374,
  "igen": 39834,
  "iger": 35942,
  "igh": 3794,
  "ight": 1707,
  "ighted": 39932,
  "ighter": 34666,
  "ighters": 45486,
  "ights": 15702,
  "igital": 20693,
  "igma": 48839,
  "ign": 2641,
  "igned": 25393,
  "igor": 48518,
  "igr": 14842,
  "ih": 23861,
  "ii": 17552,
  "ij": 17481,
  "ik": 4479,
  "ika": 27046,
  "ike": 2770,
  "iki": 24551,
  "ikipedia": 46584,
  "il": 695,
  "ila": 35529,
  "ilar": 11827,
  "ild": 3818,
  "ile": 2940,
  "iled": 25935,
  "iler": 42542,
  "iles": 19808,
  "ili": 15401,
  "iliar": 37207,
  "ilies": 22988,
  "iling": 30975,
  "ilities": 17870,
  "ility": 5799,
  "ill": 1230,
  "illa": 24401,
  "ille": 16684,
  "illed": 23849,
  "iller": 29364,
  "illing": 31634,
  "illion": 7007,
  "ills": 15012,
  "illy": 37582,
  "ilos": 33100,
  "ils": 25866,
  "ilt": 12961,
  "ilton": 38615,
  "ilty": 48359,
  "ily": 4968,
  "im": 843,
  "ima": 29294,
  "imal": 17466,
  "imate": 12606,
  "imately": 20706,
  "imation": 48177,
  "imb": 35310,
  "ime": 2528,
  "imens": 23616,
  "imensional": 32307,
  "iment": 30622,
  "imes": 5629,
  "img": 27452,
  "imir": 49807,
  "imp": 34705,
  "import": 33076,
  "imum": 21203,
  "in": 376,
  "ina": 6277,
  "inal": 8243,
  "inally": 14951,
  "inary": 20086,
  "inate": 32265,
  "inated": 21907,
  "ination": 12199,
  "inations": 49371,
  "inc": 10537,
  "ince": 5411,
  "includ": 42022,
  "inct": 28183,
  "ind": 2320,
  "inder": 37003,
  "index": 30490,
  "inding": 43490,
  "indows": 9461,
  "inds": 47898,
  "ine": 2050,
  "ined": 7490,
  "inem": 37384,
  "inent": 38068,
  "iner": 45994,
  "ines": 6701,
  "inese": 22939,
  "iness": 7973,
  "inf": 16467,
  "info": 24524,
  "ing": 532,
  "inger": 24591,
  "ingly": 30826,
  "ings": 3584,
  "ingu": 34381,
  "ini": 20940,
  "ining": 10580,
  "inity": 45714,
  "ink": 3868,
  "inks": 22195,
  "inn": 28067,
  "inner": 38719,
  "ino": 12482,
  "inos": 39345,
  "ins": 5211,
  "inson": 44895,
  "inst": 38381,
  "int": 3226,
  "inte": 32050,
  "inted": 17307,
  "intend": 44614,
  "inter": 22157,
  "inton": 16500,
  "ints": 43065,
  "iny": 25959,
  "io": 4415,
  "iod": 12919,
  "iol": 11602,
  "ion": 630,
  "ional": 7665,
  "ione": 44223,
  "ions": 2206,
  "ior": 8768,
  "ios": 22929,
  "iot": 39170,
  "ious": 4024,
  "ip": 2336,
  "ipal": 31027,
  "ipe": 35820,
  "ipedia": 45709,
  "ipl": 38146,
  "iple": 17201,
  "iples": 45325,
  "ipment": 37293,
  "ipp": 12235,
  "ipped": 33903,
  "ipping": 43348,
  "ips": 15746,
  "ique": 40363,
  "ir": 995,
  "ira": 34821,
  "irc": 12842,
  "ird": 8784,
  "irds": 37164,
  "ire": 2763,
  "irect": 47256,
  "ired": 7802,
  "ires": 18292,
  "iring": 28198,
  "irk": 47763,
  "irl": 11590,
  "irm": 15690,
  "irmed": 29643,
  "iro": 31031,
  "iron": 12301,
  "irst": 3242,
  "irt": 16446,
  "irth": 24000,
  "irty": 38888,
  "is": 498,
  "isa": 29891,
  "isation": 31465,
  "isc": 12324,
  "isco": 27329,
  "ise": 4505,
  "ised": 8943,
  "iser": 30196,
  "ises": 18434,
  "isf": 29540,
  "ish": 3040,
  "ished": 7009,
  "isher": 30293,
  "ishes": 39234,
  "ishing": 20213,
  "ishop": 43231,
  "ising": 10951,
  "ision": 6521,
  "isions": 22781,
  "isk": 14592,
  "isl": 18502,
  "ism": 6216,
  "isms": 41028,
  "ison": 10233,
  "iss": 3962,
  "issan": 42976,
  "ission": 9114,
  "ist": 1322,
  "ista": 41954,
  "istan": 21587,
  "isted": 16744,
  "ister": 10157,
  "istered": 41952,
  "isters": 39775,
  "istic": 14133,
  "istics": 27752,
  "istr": 9500,
  "istration": 17422,
  "istrict": 21987,
  "istry": 26248,
  "ists": 6285,
  "it": 516,
  "ita": 21769,
  "itable": 32497,
  "ital": 7416,
  "itar": 36105,
  "itary": 12414,
  "itation": 23003,
  "itch": 20552,
  "ite": 2496,
  "itect": 25132,
  "ited": 7651,
  "itely": 31380,
  "iter": 26947,
  "ites": 23879,
  "ith": 1036,
  "ither": 11474,
  "iti": 40867,
  "ities": 5242,
  "iting": 12463,
  "ition": 3280,
  "itional": 19798,
  "itions": 10410,
  "itive": 11811,
  "itiz": 19924,
  "itle": 41284,
  "itled": 49428,
  "itness": 29848,
  "ito": 41570,
  "itor": 17202,
  "itors": 44121,
  "its": 5444,
  "itt": 30317,
  "ittle": 8162,
  "itude": 23613,
  "ity": 1458,
  "itz": 26571,
  "ium": 8852,
  "ius": 19415,
  "iv": 1676,
  "iva": 45866,
  "ival": 14833,
  "ive": 1421,
  "ived": 8999,
  "ively": 14744,
  "iven": 46164,
  "iveness": 49048,
  "iver": 9422,
  "ivered": 44325,
  "iverse": 33506,
  "ives": 7003,
  "ivid": 12672,
  "ividual": 14180,
  "ivil": 15272,
  "iving": 11986,
  "ivity": 20309,
  "ix": 5068,
  "ixed": 20386,
  "ixt": 28304,
  "iy": 26189,
  "iya": 33679,
  "iz": 2244,
  "ization": 9093,
  "izations": 29465,
  "ize": 6893,
  "ized": 7008,
  "izer": 49541,
  "izes": 30203,
  "izing": 18802,
  "izz": 42130,
  "j": 79,
  "ja": 26654,
  "je": 46073,
  "ject": 4717,
  "jected": 31029,
  "jo": 34363,
  "journal": 7598,
  "joy": 21954,
  "jpg": 34226,
  "js": 35591,
  "ju": 27834,
  "just": 28577,
  "k": 80,
  "ka": 8260,
  "ke": 1326,
  "keep": 47315,
  "ken": 22051,
  "ker": 32295,
  "kes": 35054,
  "ket": 39895,
  "key": 15242,
  "kh": 35917,
  "ki": 9406,
  "kin": 22876,
  "king": 36750,
  "kins": 34534,
  "kl": 31890,
  "km": 37141,
  "kn": 20628,
  "know": 33915,
  "known": 26007,
  "ko": 19862,
  "kov": 37948,
  "ks": 2972,
  "kswagen": 44499,
  "kt": 49536,
  "ky": 8173,
  "kz": 44279,
  "l": 81,
  "la": 14921,
  "lad": 28739,
  "lam": 16098,
  "lan": 41796,
  "land": 4936,
  "lands": 23900,
  "las": 40293,
  "lav": 46412,
  "law": 38162,
  "ld": 1327,
  "le": 615,
  "lean": 45625,
  "lear": 8218,
  "lease": 24306,
  "lect": 4994,
  "lected": 48969,
  "lection": 38762,
  "led": 6415,
  "ledge": 21247,
  "leep": 25057,
  "left": 35349,
  "leg": 8789,
  "lem": 29955,
  "lement": 16078,
  "len": 44285,
  "ler": 11284,
  "les": 4471,
  "less": 8732,
  "let": 9211,
  "lets": 40484,
  "lev": 15201,
  "level": 28353,
  "levision": 22414,
  "lex": 12790,
  "ley": 8689,
  "li": 13041,
  "liam": 25946,
  "liament": 26326,
  "lib": 39790,
  "lic": 3348,
  "lick": 27959,
  "lier": 16483,
  "life": 33975,
  "lig": 35263,
  "light": 22862,
  "like": 15282,
  "lim": 15849,
  "lin": 13722,
  "line": 7747,
  "lines": 45174,
  "ling": 10022,
  "link": 36211,
  "lish": 10992,
  "lished": 22153,
  "list": 32772,
  "live": 7345,
  "livejournal": 7852,
  "lj": 29475,
  "ll": 2668,
  "llig": 19880,
  "lligence": 23912,
  "lo": 9101,
  "load": 16726,
  "lock": 47930,
  "log": 31563,
  "long": 39719,
  "look": 32665,
  "lor": 29270,
  "ls": 43332,
  "lu": 13696,
  "ly": 786,
  "lying": 20014,
  "lymp": 28356,
  "lyn": 29080,
  "lywood": 41587,
  "m": 82,
  "ma": 10773,
  "mad": 47304,
  "mag": 46958,
  "mail": 6609,
  "makers": 46996,
  "mal": 47169,
  "man": 3833,
  "mann": 34689,
  "mar": 17206,
  "margin": 37604,
  "mark": 22221,
  "mas": 30629,
  "mat": 42760,
  "mates": 48834,
  "math": 24384,
  "max": 41366,
  "mb": 16284,
  "mber": 9091,
  "me": 6483,
  "med": 7293,
  "medi": 16690,
  "men": 18035,
  "ment": 1455,
  "ments": 5050,
  "mer": 2931,
  "mercial": 25687,
  "meric": 5082,
  "mers": 47829,
  "mes": 40465,
  "met": 14323,
  "min": 5940,
  "mine": 27529,
  "ming": 20370,
  "mir": 31064,
  "miss": 28869,
  "mission": 27066,
  "mit": 8766,
  "mitted": 25607,
  "mittee": 27519,
  "ml": 4978,
  "mm": 27872,
  "mo": 44432,
  "mod": 31463,
  "mon": 18420,
  "mond": 36049,
  "more": 21528,
  "mosp": 40346,
  "most": 11385,
  "mp": 5524,
  "ms": 4592,
  "mus": 48828,
  "my": 9312,
  "n": 83,
  "na": 11501,
  "nam": 40395,
  "name": 28688,
  "nar": 41716,
  "nb": 24225,
  "nbsp": 27804,
  "nd": 26842,
  "ne": 3406,
  "nect": 13014,
  "nected": 31696,
  "ned": 17849,
  "nel": 28795,
  "ner": 7089,
  "ners": 17953,
  "nes": 15842,
  "nesday": 25108,
  "ness": 7926,
  "net": 8951,
  "netic": 25791,
  "never": 49470,
  "new": 31771,
  "news": 12207,
  "ney": 10173,
  "ng": 33861,
  "ni": 3528,
  "nic": 39410,
  "night": 28266,
  "nik": 21275,
  "ning": 4510,
  "no": 17898,
  "noon": 44182,
  "not": 12735,
  "nov": 20387,
  "now": 13468,
  "ns": 36276,
  "ny": 14658,
  "o": 84,
  "ob": 2043,
  "obal": 14291,
  "obby": 34582,
  "obe": 27364,
  "ober": 13685,
  "obile": 19708,
  "obs": 50124,
  "oc": 1403,
  "oca": 47953,
  "ocal": 24263,
  "ocation": 40320,
  "occ": 9135,
  "occer": 49812,
  "och": 24199,
  "oci": 6891,
  "ocial": 9933,
  "ociety": 16089,
  "ock": 4368,
  "ocked": 27739,
  "ocket": 40419,
  "ockey": 42912,
  "ocking": 43307,
  "ocks": 26107,
  "ocol": 36656,
  "ocr": 10492,
  "ocus": 12810,
  "od": 1202,
  "oda": 34925,
  "oday": 24603,
  "odd": 24342,
  "ode": 4895,
  "odes": 21707,
  "odies": 35755,
  "ody": 7839,
  "oe": 11667,
  "oes": 34526,
  "of": 395,
  "off": 11089,
  "offee": 42006,
  "oft": 7576,
  "og": 1889,
  "ogen": 45231,
  "ogether": 48147,
  "ogle": 8342,
  "ogn": 15025,
  "ogo": 36745,
  "ograp": 41964,
  "ograph": 13620,
  "ographer": 49186,
  "ographic": 41869,
  "ography": 27155,
  "ogue": 32733,
  "oh": 6221,
  "ohn": 8391,
  "oid": 16014,
  "oint": 11034,
  "ointed": 29399,
  "oj": 40132,
  "ok": 1877,
  "oke": 17869,
  "oked": 49392,
  "oken": 38880,
  "oker": 50204,
  "okes": 22124,
  "okia": 40700,
  "oking": 45817,
  "ol": 819,
  "ola": 21341,
  "olar": 38293,
  "olars": 49064,
  "old": 3144,
  "older": 20202,
  "olds": 48637,
  "ole": 10335,
  "oles": 25704,
  "olf": 23568,
  "olic": 20983,
  "olit": 23170,
  "oll": 3452,
  "ollow": 6186,
  "ollowing": 39231,
  "olog": 4998,
  "ological": 15415,
  "ologies": 32971,
  "ologist": 47729,
  "ology": 8499,
  "ols": 17798,
  "olute": 26293,
  "olution": 11796,
  "olve": 48922,
  "olved": 35994,
  "oly": 22090,
  "om": 633,
  "oma": 30052,
  "oman": 14372,
  "omb": 15938,
  "ome": 2344,
  "omen": 21304,
  "omet": 6103,
  "ometimes": 50047,
  "omin": 35828,
  "oms": 28522,
  "on": 411,
  "ona": 20829,
  "ond": 3034,
  "onda": 43851,
  "ondon": 15649,
  "one": 2322,
  "ones": 11983,
  "oney": 8824,
  "ong": 2133,
  "onic": 26100,
  "only": 47165,
  "onna": 47266,
  "onom": 32215,
  "ons": 3591,
  "onse": 20330,
  "ont": 3776,
  "onto": 35202,
  "ony": 10269,
  "onym": 35436,
  "onymous": 49816,
  "oo": 10822,
  "ood": 4355,
  "ook": 2672,
  "ool": 4738,
  "oom": 22047,
  "oon": 13075,
  "oor": 22127,
  "oot": 6688,
  "ootball": 37543,
  "ooth": 27706,
  "op": 1098,
  "ope": 10045,
  "oper": 20884,
  "oph": 14845,
  "opher": 47050,
  "ophy": 44071,
  "ople": 3563,
  "ops": 15533,
  "opy": 48608,
  "or": 476,
  "ora": 26767,
  "orage": 36696,
  "oral": 39065,
  "oration": 34061,
  "ord": 2723,
  "ordan": 46766,
  "order": 15829,
  "orders": 43373,
  "ording": 8120,
  "ords": 19414,
  "ore": 1386,
  "ored": 11907,
  "orer": 42401,
  "ores": 23534,
  "org": 9540,
  "orge": 18963,
  "ori": 39539,
  "orial": 27149,
  "ories": 11541,
  "oring": 21139,
  "ork": 5057,
  "orks": 18565,
  "orld": 8335,
  "orm": 2761,
  "ormal": 17097,
  "orn": 5529,
  "ornia": 18970,
  "orough": 49158,
  "orph": 39434,
  "orpor": 36409,
  "orrow": 31123,
  "orry": 47532,
  "ors": 3410,
  "ort": 1632,
  "orted": 9172,
  "orter": 27368,
  "orters": 24842,
  "orth": 7822,
  "orthern": 24289,
  "ortion": 43795,
  "orts": 13357,
  "ory": 3309,
  "os": 1086,
  "osa": 50129,
  "osc": 19753,
  "oscow": 30892,
  "ose": 2933,
  "osed": 13127,
  "osen": 39431,
  "oses": 44234,
  "osh": 17730,
  "osing": 26945,
  "osis": 46398,
  "osm": 29136,
  "osp": 12840,
  "ospital": 22630,
  "oss": 9344,
  "ost": 1979,
  "osted": 14176,
  "oster": 38826,
  "osti": 46626,
  "oston": 31319,
  "ot": 795,
  "ota": 17395,
  "otal": 40241,
  "ote": 6178,
  "oted": 26295,
  "otel": 21256,
  "otes": 33408,
  "oth": 4920,
  "other": 2381,
  "oti": 31614,
  "otic": 30114,
  "oting": 27682,
  "otion": 31606,
  "oto": 11211,
  "ots": 11733,
  "ott": 9508,
  "ottom": 23443,
  "ou": 523,
  "oub": 39265,
  "ouble": 28896,
  "ouch": 18096,
  "oud": 13948,
  "oug": 2195,
  "ough": 2757,
  "ought": 6500,
  "oul": 18909,
  "ould": 1750,
  "oun": 1328,
  "ound": 2182,
  "ounded": 36406,
  "ounds": 13947,
  "oung": 10646,
  "ounger": 43693,
  "ount": 3250,
  "ounted": 42050,
  "oup": 4492,
  "our": 1228,
  "ource": 11010,
  "ources": 15057,
  "oured": 41247,
  "ourn": 5194,
  "ournal": 5791,
  "ournament": 34622,
  "ourney": 43161,
  "ours": 12186,
  "ous": 2318,
  "ouse": 5883,
  "ously": 22391,
  "ouston": 49058,
  "out": 1266,
  "outh": 7156,
  "outhern": 24736,
  "outs": 37894,
  "outube": 24529,
  "ov": 2613,
  "ova": 19030,
  "ove": 4128,
  "oved": 20261,
  "over": 1977,
  "overn": 5430,
  "overty": 48998,
  "overy": 25824,
  "oves": 43939,
  "oving": 39098,
  "ovo": 44117,
  "ow": 848,
  "owa": 44532,
  "owed": 44281,
  "ower": 5003,
  "owered": 47579,
  "owers": 24735,
  "owing": 45306,
  "owl": 32896,
  "own": 2276,
  "ows": 4784,
  "ox": 5937,
  "oy": 4060,
  "oyal": 21882,
  "oz": 15567,
  "p": 85,
  "pa": 29671,
  "padding": 47619,
  "page": 25523,
  "pan": 32692,
  "par": 8975,
  "parent": 42873,
  "part": 16392,
  "pass": 41458,
  "pat": 48720,
  "pe": 1584,
  "pecial": 13066,
  "pecially": 16755,
  "pect": 6231,
  "pected": 14311,
  "pective": 37205,
  "pects": 30147,
  "ped": 19755,
  "pen": 46705,
  "per": 2849,
  "perial": 49192,
  "pers": 39974,
  "person": 37454,
  "pert": 47222,
  "pet": 38312,
  "pg": 27664,
  "ph": 3523,
  "pha": 33327,
  "phas": 39180,
  "phone": 35788,
  "photo": 45017,
  "php": 22477,
  "pi": 44915,
  "ping": 26115,
  "pir": 22949,
  "pired": 40306,
  "pite": 16635,
  "pl": 2134,
  "place": 30414,
  "play": 11911,
  "ple": 9473,
  "ples": 15832,
  "ploy": 10517,
  "ply": 16187,
  "pm": 31183,
  "po": 19802,
  "pod": 43913,
  "point": 27940,
  "pol": 46156,
  "polit": 41038,
  "pon": 17854,
  "pool": 45158,
  "pop": 47602,
  "por": 10277,
  "porary": 33895,
  "port": 3328,
  "ports": 23149,
  "pos": 5278,
  "pose": 18855,
  "posed": 13159,
  "poses": 45736,
  "position": 38951,
  "poss": 32305,
  "possible": 37394,
  "post": 25450,
  "pot": 37032,
  "power": 46015,
  "pp": 1431,
  "pped": 17474,
  "pper": 34048,
  "pping": 31774,
  "pr": 5001,
  "prav": 44828,
  "pre": 21091,
  "pres": 39639,
  "press": 20653,
  "pret": 38459,
  "pri": 24806,
  "pril": 14415,
  "print": 28553,
  "prise": 48373,
  "pro": 10183,
  "prof": 31734,
  "ps": 8796,
  "pt": 2487,
  "pted": 18025,
  "ption": 17843,
  "pton": 40735,
  "pty": 42564,
  "public": 46355,
  "put": 14627,
  "px": 14387,
  "py": 38528,
  "q": 86,
  "qu": 1515,
  "quarters": 49342,
  "que": 9421,
  "ques": 26745,
  "quest": 43984,
  "quid": 43559,
  "r": 87,
  "ra": 1293,
  "rab": 16093,
  "ract": 10800,
  "racted": 43529,
  "rad": 19098,
  "rael": 15584,
  "raf": 35654,
  "raft": 11271,
  "rain": 12430,
  "raine": 34675,
  "ral": 6796,
  "ram": 10668,
  "ran": 14206,
  "range": 30632,
  "rant": 42853,
  "rap": 15886,
  "raph": 8626,
  "raq": 25569,
  "rary": 42876,
  "ras": 27114,
  "rast": 23179,
  "rat": 49901,
  "rav": 14000,
  "raw": 11250,
  "ray": 13617,
  "raz": 16624,
  "razy": 40831,
  "rc": 29953,
  "rd": 29652,
  "re": 421,
  "read": 6433,
  "ready": 10936,
  "real": 29275,
  "ream": 9335,
  "reat": 3947,
  "reate": 42956,
  "rec": 47029,
  "red": 1689,
  "redit": 47473,
  "ree": 2974,
  "reed": 19507,
  "reek": 29139,
  "reen": 8639,
  "rees": 30849,
  "reet": 11496,
  "ref": 24177,
  "reg": 12709,
  "rel": 13569,
  "reland": 35171,
  "related": 36541,
  "rell": 45414,
  "rely": 27892,
  "rem": 11791,
  "reme": 14872,
  "ren": 5592,
  "rench": 17260,
  "reng": 23659,
  "rer": 34366,
  "res": 1353,
  "resh": 25459,
  "resp": 23843,
  "respond": 27497,
  "ress": 2990,
  "ressed": 16688,
  "ression": 17686,
  "rest": 7133,
  "rested": 19397,
  "ret": 7099,
  "rete": 40466,
  "rew": 11341,
  "rey": 21953,
  "ri": 1144,
  "ria": 17956,
  "riage": 27333,
  "rial": 25977,
  "rian": 18647,
  "rib": 4439,
  "ribe": 32936,
  "rible": 43166,
  "ric": 5510,
  "rical": 44102,
  "rich": 34084,
  "rick": 34677,
  "rict": 20235,
  "rid": 37501,
  "rie": 30046,
  "ried": 9224,
  "rief": 24991,
  "riend": 8811,
  "rier": 31691,
  "ries": 9784,
  "rif": 34930,
  "riff": 35892,
  "rig": 23872,
  "right": 20896,
  "rim": 19803,
  "ring": 11974,
  "rip": 35120,
  "ript": 8376,
  "ris": 13991,
  "rist": 9182,
  "rit": 4201,
  "rite": 34461,
  "riter": 35048,
  "riv": 6179,
  "rive": 27665,
  "riving": 29014,
  "rix": 27689,
  "riz": 36824,
  "rizona": 47827,
  "rm": 24463,
  "ro": 726,
  "road": 29637,
  "roc": 46484,
  "rock": 42771,
  "rod": 49461,
  "rog": 30300,
  "roid": 12612,
  "rol": 8541,
  "roll": 13019,
  "rom": 1368,
  "rome": 31653,
  "ron": 6622,
  "rong": 17729,
  "ronic": 26590,
  "room": 21331,
  "rop": 9854,
  "roph": 42918,
  "ror": 10631,
  "rors": 46984,
  "ros": 9689,
  "rosoft": 14639,
  "ross": 7167,
  "rot": 44273,
  "rote": 14245,
  "rough": 4933,
  "round": 23701,
  "rovers": 32345,
  "row": 4074,
  "rowd": 25775,
  "rown": 13289,
  "roy": 20986,
  "rs": 23370,
  "ru": 1224,
  "ruary": 16962,
  "ruct": 8575,
  "ructed": 42431,
  "ruction": 16027,
  "ructure": 34108,
  "rug": 15194,
  "rum": 19500,
  "run": 32458,
  "rupt": 31175,
  "ruption": 45973,
  "rus": 23224,
  "ry": 2286,
  "s": 88,
  "sa": 45711,
  "sc": 7471,
  "scale": 49904,
  "scape": 49529,
  "sch": 47850,
  "se": 1338,
  "season": 40107,
  "sec": 16631,
  "see": 26532,
  "sel": 12575,
  "self": 9228,
  "selves": 14982,
  "sem": 41148,
  "semb": 30400,
  "sembly": 37463,
  "sen": 29252,
  "sequ": 17720,
  "ser": 17100,
  "set": 14807,
  "sex": 38819,
  "sey": 40470,
  "sh": 6967,
  "she": 41306,
  "ship": 37125,
  "shire": 48195,
  "side": 10740,
  "sim": 42072,
  "sis": 50201,
  "size": 27296,
  "sk": 16922,
  "ski": 39510,
  "sky": 45122,
  "sl": 29203,
  "sm": 26288,
  "so": 2459,
  "sole": 42805,
  "son": 7347,
  "source": 46569,
  "sp": 7539,
  "span": 45798,
  "spe": 33285,
  "ss": 4236,
  "st": 748,
  "stal": 46473,
  "stances": 41521,
  "stand": 10574,
  "standing": 39122,
  "stant": 28519,
  "star": 37568,
  "state": 30962,
  "ste": 35884,
  "ster": 33364,
  "stit": 13515,
  "stitute": 22688,
  "stitution": 31096,
  "ston": 21759,
  "stone": 37175,
  "stood": 44983,
  "str": 8222,
  "stra": 35777,
  "stream": 34017,
  "strong": 37273,
  "struction": 48100,
  "sts": 25761,
  "style": 22584,
  "su": 30575,
  "sub": 40554,
  "sv": 45335,
  "sw": 14395,
  "sy": 17805,
  "sych": 22827,
  "sylvania": 47035,
  "t": 89,
  "ta": 12630,
  "table": 40681,
  "tain": 8281,
  "tainment": 34150,
  "td": 24376,
  "te": 384,
  "tead": 13015,
  "ted": 1243,
  "tee": 15426,
  "teen": 31993,
  "tein": 26156,
  "tel": 18245,
  "tell": 40042,
  "tem": 3413,
  "tember": 14539,
  "ten": 6045,
  "ter": 812,
  "terday": 46100,
  "tered": 12636,
  "term": 30697,
  "tern": 3565,
  "ternal": 19569,
  "ternational": 9940,
  "ternet": 11256,
  "ters": 3537,
  "tery": 32314,
  "tes": 8700,
  "test": 16884,
  "tex": 44398,
  "text": 480,
  "th": 1446,
  "that": 27150,
  "the": 5173,
  "ther": 5049,
  "there": 47195,
  "thing": 9381,
  "this": 26710,
  "though": 12771,
  "ti": 11716,
  "tic": 14824,
  "tical": 35466,
  "ties": 19508,
  "til": 8869,
  "time": 14536,
  "ting": 5138,
  "tion": 30276,
  "tle": 5127,
  "tm": 19319,
  "tmso": 25387,
  "to": 2640,
  "ton": 5547,
  "top": 19451,
  "tor": 23652,
  "town": 35773,
  "tp": 1739,
  "tr": 9490,
  "tra": 27681,
  "trans": 39002,
  "trl": 28283,
  "tru": 24608,
  "true": 29293,
  "ts": 5603,
  "tt": 28218,
  "tv": 28282,
  "twitter": 32422,
  "ty": 4660,
  "type": 31068,
  "tÐĴ": 48375,
  "u": 90,
  "ua": 11423,
  "ual": 4291,
  "uality": 49239,
  "ually": 6468,
  "uan": 42464,
  "uary": 13690,
  "uate": 31407,
  "uated": 31565,
  "uation": 15811,
  "uations": 37802,
  "ub": 2119,
  "ube": 11153,
  "ubl": 9519,
  "ublic": 4535,
  "uc": 3009,
  "uced": 49235,
  "uch": 4961,
  "uck": 11369,
  "ucky": 35364,
  "uct": 25304,
  "ud": 1768,
  "udd": 30978,
  "ude": 17249,
  "udes": 49556,
  "udi": 25633,
  "udio": 40999,
  "ue": 2645,
  "ued": 10261,
  "uel": 17158,
  "uer": 40479,
  "ues": 5930,
  "uesday": 23524,
  "uf": 17676,
  "ufact": 25674,
  "uff": 12268,
  "ug": 3960,
  "uge": 15110,
  "uh": 36630,
  "ui": 39488,
  "uild": 26938,
  "uilding": 41901,
  "uing": 25708,
  "uit": 20154,
  "uj": 38487,
  "uk": 12470,
  "uke": 29617,
  "ul": 1078,
  "ula": 13681,
  "ular": 5139,
  "ulate": 31336,
  "ulated": 27136,
  "ulation": 9548,
  "ulations": 23152,
  "ule": 19984,
  "uled": 40845,
  "ules": 39787,
  "ulf": 40910,
  "ull": 5515,
  "uls": 32126,
  "ult": 2677,
  "ulted": 44547,
  "ultural": 44606,
  "ulture": 36451,
  "um": 1350,
  "uma": 46691,
  "uman": 25294,
  "umb": 16481,
  "umber": 33959,
  "ume": 17348,
  "ument": 12971,
  "uments": 22530,
  "umer": 41673,
  "umn": 26801,
  "ump": 15469,
  "un": 944,
  "una": 43530,
  "unch": 15010,
  "unction": 24846,
  "und": 5525,
  "undai": 47530,
  "under": 25873,
  "undred": 22074,
  "une": 9761,
  "unes": 41476,
  "ung": 9612,
  "unic": 21562,
  "unior": 42428,
  "unities": 41334,
  "unity": 16639,
  "unk": 19628,
  "unt": 17211,
  "unte": 42988,
  "uous": 32219,
  "up": 1867,
  "upp": 15387,
  "ups": 39829,
  "ur": 965,
  "ura": 24213,
  "ural": 8511,
  "urance": 30145,
  "uration": 33719,
  "urb": 14776,
  "urban": 35494,
  "urch": 10316,
  "urd": 31228,
  "ure": 2159,
  "ured": 9562,
  "ures": 5880,
  "urg": 11999,
  "uries": 31676,
  "uring": 4875,
  "urity": 10901,
  "url": 38415,
  "urn": 3923,
  "uro": 7578,
  "urr": 6624,
  "urrent": 38342,
  "urs": 9722,
  "ursday": 25201,
  "urt": 23884,
  "urther": 12164,
  "ury": 8519,
  "us": 885,
  "usal": 47897,
  "use": 15364,
  "used": 16441,
  "user": 40061,
  "uses": 33620,
  "ush": 9609,
  "usiness": 27078,
  "using": 40074,
  "usion": 26581,
  "uss": 4860,
  "ussia": 30464,
  "ussian": 38012,
  "ust": 1949,
  "uster": 27936,
  "ustom": 14635,
  "ustr": 31887,
  "ut": 993,
  "utation": 36242,
  "utch": 37262,
  "ute": 5452,
  "uted": 14763,
  "uten": 49684,
  "uter": 18916,
  "uters": 19837,
  "utes": 13640,
  "uth": 7113,
  "uthor": 10244,
  "uthors": 42262,
  "uting": 32871,
  "ution": 5521,
  "utions": 14617,
  "utive": 19427,
  "utor": 47695,
  "utr": 47797,
  "uts": 38412,
  "uture": 12087,
  "uty": 23917,
  "ux": 11890,
  "uy": 32742,
  "uz": 15056,
  "uzz": 37177,
  "v": 91,
  "va": 20171,
  "val": 13283,
  "value": 49231,
  "van": 23779,
  "vant": 34176,
  "var": 32847,
  "vas": 43867,
  "ve": 740,
  "ved": 7047,
  "vel": 3216,
  "vell": 39996,
  "velop": 6391,
  "ven": 5338,
  "vent": 7937,
  "vention": 28124,
  "venue": 26458,
  "ver": 936,
  "vere": 33373,
  "vered": 21940,
  "vers": 3622,
  "versal": 32158,
  "verse": 23806,
  "versity": 8176,
  "vert": 12817,
  "vertise": 24746,
  "vertisement": 29374,
  "very": 3078,
  "ves": 8075,
  "vest": 22747,
  "vet": 36515,
  "vey": 20721,
  "vi": 39859,
  "via": 35195,
  "view": 7555,
  "ville": 23747,
  "vin": 30808,
  "ving": 8058,
  "vious": 9645,
  "viron": 15111,
  "vironment": 16524,
  "vis": 25315,
  "vk": 26769,
  "vo": 21693,
  "vol": 42591,
  "vy": 32086,
  "w": 92,
  "wa": 45544,
  "wagen": 43035,
  "wall": 45284,
  "wan": 43293,
  "war": 21859,
  "ward": 4900,
  "wards": 11526,
  "ware": 11093,
  "wart": 47830,
  "was": 37502,
  "watch": 30227,
  "water": 38933,
  "way": 5981,
  "ways": 9514,
  "we": 3514,
  "ween": 5506,
  "weet": 22972,
  "weight": 40343,
  "well": 24183,
  "west": 32652,
  "wh": 11149,
  "where": 21385,
  "which": 28970,
  "while": 29631,
  "who": 48736,
  "wide": 27823,
  "width": 40210,
  "win": 24858,
  "wing": 41544,
  "wise": 25141,
  "wit": 7821,
  "witch": 30399,
  "with": 24927,
  "witter": 10235,
  "wo": 3249,
  "wood": 20093,
  "word": 37477,
  "work": 10677,
  "works": 25489,
  "world": 35361,
  "worth": 45476,
  "ww": 2797,
  "www": 5272,
  "x": 93,
  "xa": 34880,
  "xb": 5792,
  "xbb": 45464,
  "xbd": 32972,
  "xbe": 23550,
  "xd": 4102,
  "xe": 32380,
  "xf": 38404,
  "xi": 49561,
  "xt": 474,
  "xx": 39050,
  "y": 94,
  "ya": 11167,
  "yan": 24957,
  "yandex": 29289,
  "yard": 46044,
  "ye": 28847,
  "year": 11870,
  "yer": 30973,
  "yes": 48062,
  "ying": 16898,
  "yl": 12596,
  "yle": 10002,
  "ylvan": 43829,
  "ylvania": 45425,
  "ym": 8314,
  "ymmet": 45218,
  "yn": 6556,
  "ynam": 17152,
  "yond": 22895,
  "you": 37126,
  "youtube": 31587,
  "yp": 37307,
  "ype": 22399,
  "yr": 13366,
  "yright": 28388,
  "ys": 2722,
  "ysis": 17513,
  "ystem": 5102,
  "z": 95,
  "za": 17067,
  "ze": 12845,
  "zen": 29499,
  "zer": 30057,
  "zh": 27618,
  "zy": 31668,
  "zz": 27950,
  "{": 96,
  "|": 97,
  "|>": 481,
  "}": 98,
  "}$": 22550,
  "}}": 45911,
  "~": 99,
  "~~": 25256,
  "¡": 100,
  "¢": 101,
  "£": 102,
  "¤": 103,
  "¥": 104,
  "¦": 105,
  "§": 106,
  "¨": 107,
  "©": 108,
  "ª": 109,
  "«": 110,
  "¬": 111,
  "®": 112,
  "¯": 113,
  "°": 114,
  "±": 115,
  "²": 116,
  "³": 117,
  "´": 118,
  "µ": 119,
  "¶": 120,
  "·": 121,
  "¸": 122,
  "¹": 123,
  "º": 124,
  "»": 125,
  "¼": 126,
  "½": 127,
  "¾": 128,
  "¿": 129,
  "À": 130,
  "Á": 131,
  "Â": 132,
  "Â©": 40922,
  "Â«": 639,
  "Â¬": 37075,
  "Â®": 30471,
  "Â°": 8968,
  "Â²": 29771,
  "Âµ": 42053,
  "Â·": 45339,
  "Â»": 640,
  "Â»!": 27813,
  "Â»)": 17584,
  "Â»),": 23087,
  "Â»).": 20819,
  "Â»,": 1449,
  "Â».": 1315,
  "Â».<|": 26281,
  "Â»:": 17400,
  "Â»;": 28525,
  "Â»?": 14155,
  "Â»[": 24223,
  "Â»âĢ¦": 25263,
  "Âł": 394,
  "ÂłÂł": 1924,
  "ÂłÂłÂł": 12376,
  "ÂłÂłÂłÂł": 4997,
  "ÂłÂłÂłÂłÂł": 36520,
  "ÂłÂłÂłÂłÂłÂł": 43308,
  "ÂłÂłÂłÂłÂłÂłÂł": 49443,
  "ÂłÂłÂłÂłÂłÂłÂłÂł": 13600,
  "ÂłÂłÂłÂłÂłÂłÂłÂłÂłÂłÂłÂłÂłÂłÂłÂł": 32514,
  "ÂłĊ": 24922,
  "ÂłĠ": 29303,
  "ÂłĠÂłĠ": 47645,
  "ÂŃ": 5803,
  "Ã": 133,
  "Ã¡": 23922,
  "Ã¤": 30192,
  "Ã©": 12154,
  "Ã°": 50182,
  "Ã³": 29049,
  "Ã¶": 34205,
  "Ã¼": 34243,
  "ÃĹ": 30103,
  "ÃŃ": 31277,
  "Ä": 134,
  "ÄĲ": 13900,
  "ÄĲÅ": 28615,
  "Å": 135,
  "Åĥ": 28521,
  "Æ": 136,
  "Ç": 137,
  "È": 138,
  "É": 139,
  "ÉĻ": 44867,
  "Ê": 140,
  "Ë": 141,
  "Ì": 142,
  "Ìģ": 4379,
  "ÌĦ": 32878,
  "ÌĪ": 23655,
  "ÌĮ": 42603,
  "Í": 143,
  "Î": 144,
  "Î±": 29639,
  "Îµ": 43220,
  "Î¹": 38748,
  "Î½": 33964,
  "Î¿": 31074,
  "Ï": 145,
  "Ïģ": 47519,
  "ÏĤ": 44007,
  "ÏĦ": 44494,
  "Ð": 146,
  "Ð¡": 530,
  "Ð¡Ð": 30356,
  "Ð¡Ð¡": 2576,
  "Ð¡Ð¡Ðĺ": 23369,
  "Ð¡Ð¡Ðł": 3597,
  "Ð¡Ð¢": 3531,
  "Ð¡Ð¢Ð¬": 15602,
  "Ð¡Ð¢ÐĲ": 17767,
  "Ð¡Ð¢ÐĴÐĲ": 44810,
  "Ð¡Ð¢ÐĴÐķÐĿ": 41507,
  "Ð¡Ð¢ÐĴÐŀ": 30835,
  "Ð¡Ð¢Ðĺ": 15784,
  "Ð¡Ð¢Ðŀ": 19779,
  "Ð¡Ð¢ÐłÐŀ": 47232,
  "Ð¡Ð£": 23796,
  "Ð¡Ð¨ÐĲ": 24085,
  "Ð¡Ð¬": 25865,
  "Ð¡Ð¯": 18843,
  "Ð¡Ð°": 13814,
  "Ð¡Ð°Ð´": 47751,
  "Ð¡Ð°Ð¹ÑĤ": 47758,
  "Ð¡Ð°Ð¼": 6843,
  "Ð¡Ð°Ð¼Ð°": 33826,
  "Ð¡Ð°Ð¼Ð°Ñı": 43740,
  "Ð¡Ð°Ð¼Ð¾": 45989,
  "Ð¡Ð°Ð¼Ð¾Ðµ": 28289,
  "Ð¡Ð°Ð¼ÑĭÐµ": 48142,
  "Ð¡Ð°Ð¼ÑĭÐ¹": 29217,
  "Ð¡Ð°Ð½": 34870,
  "Ð¡Ð°Ð½ÐºÑĤ": 32990,
  "Ð¡Ð°ÑĢÐ°": 41886,
  "Ð¡Ð±": 49489,
  "Ð¡Ð²ÐµÑĤ": 22778,
  "Ð¡Ð²Ð¾": 34270,
  "Ð¡Ð²Ð¾Ð±Ð¾Ð´": 42868,
  "Ð¡Ð²Ð¾Ð±Ð¾Ð´Ð°": 48757,
  "Ð¡Ð²Ñı": 38452,
  "Ð¡Ð´ÐµÐ»": 31592,
  "Ð¡Ðµ": 7533,
  "Ð¡ÐµÐ²": 46016,
  "Ð¡ÐµÐ²ÐµÑĢ": 21838,
  "Ð¡ÐµÐ³Ð¾Ð´Ð½Ñı": 9334,
  "Ð¡ÐµÐ¹ÑĩÐ°Ñģ": 11056,
  "Ð¡ÐµÐº": 33106,
  "Ð¡ÐµÐ¼": 20428,
  "Ð¡ÐµÑĢ": 11148,
  "Ð¡ÐµÑĢÐ³ÐµÐ¹": 24923,
  "Ð¡ÐµÑĢÐ´ÑĨÐµ": 44847,
  "Ð¡ÐµÑĢÐµ": 43250,
  "Ð¡Ð¸": 12598,
  "Ð¡Ð¸Ð±Ð¸ÑĢ": 41523,
  "Ð¡Ð¸Ð´": 43262,
  "Ð¡Ð¸Ð¼": 29565,
  "Ð¡Ð¸Ð½": 44344,
  "Ð¡Ð¸ÑģÑĤ": 31143,
  "Ð¡Ð¸ÑģÑĤÐµÐ¼Ð°": 43663,
  "Ð¡Ð¸ÑĤÐ¸": 44022,
  "Ð¡Ðº": 7301,
  "Ð¡ÐºÐ°": 10348,
  "Ð¡ÐºÐ°Ð¶Ð¸": 35347,
  "Ð¡ÐºÐ°Ð¶Ð¸ÑĤÐµ": 18925,
  "Ð¡ÐºÐ°Ð·": 28270,
  "Ð¡ÐºÐ¾": 15621,
  "Ð¡ÐºÐ¾Ð»ÑĮÐºÐ¾": 9770,
  "Ð¡ÐºÐ¾ÑĢÐµÐµ": 31120,
  "Ð¡ÐºÐ¾ÑĢÐ¾": 33751,
  "Ð¡Ð»": 18783,
  "Ð¡Ð»Ð°Ð²": 39511,
  "Ð¡Ð»Ð°Ð²Ð°": 35090,
  "Ð¡Ð»ÐµÐ´": 15813,
  "Ð¡Ð»Ð¾Ð²": 34600,
  "Ð¡Ð»Ð¾Ð²Ð°": 38461,
  "Ð¡Ð»Ð¾Ð²Ð¾": 38460,
  "Ð¡Ð»Ð¾Ð¶": 48120,
  "Ð¡Ð»ÑĥÑĪÐ°Ð¹": 36007,
  "Ð¡Ð»Ñĭ": 40901,
  "Ð¡Ð¼": 33941,
  "Ð¡Ð¼Ðµ": 32655,
  "Ð¡Ð¼ÐµÑĢÑĤÑĮ": 49372,
  "Ð¡Ð¼Ð¾ÑĤÑĢÐ¸": 39518,
  "Ð¡Ð¼Ð¾ÑĤÑĢÐ¸ÑĤÐµ": 45766,
  "Ð¡Ð¼Ð¾ÑĤÑĢÑı": 31509,
  "Ð¡Ð½Ð°ÑĩÐ°Ð»Ð°": 22959,
  "Ð¡Ð½Ð¾Ð²Ð°": 36171,
  "Ð¡Ð¾": 7589,
  "Ð¡Ð¾Ð±": 15192,
  "Ð¡Ð¾Ð±ÑģÑĤÐ²ÐµÐ½Ð½Ð¾": 44759,
  "Ð¡Ð¾Ð²": 11769,
  "Ð¡Ð¾Ð²ÐµÑĢÑĪÐµÐ½Ð½Ð¾": 42404,
  "Ð¡Ð¾Ð²ÐµÑĤ": 21221,
  "Ð¡Ð¾Ð²ÑĢÐµÐ¼ÐµÐ½": 28852,
  "Ð¡Ð¾Ð²ÑģÐµÐ¼": 42463,
  "Ð¡Ð¾Ð³Ð»Ð°Ñģ": 35703,
  "Ð¡Ð¾Ð³Ð»Ð°ÑģÐ½Ð¾": 28813,
  "Ð¡Ð¾Ð·": 28258,
  "Ð¡Ð¾Ðº": 44882,
  "Ð¡Ð¾Ð»": 18306,
  "Ð¡Ð¾Ð»Ð½ÑĨÐµ": 40778,
  "Ð¡Ð¾Ð½": 47261,
  "Ð¡Ð¾Ñģ": 42305,
  "Ð¡Ð¾ÑĤ": 40988,
  "Ð¡Ð¾ÑĨÐ¸Ð°Ð»ÑĮ": 49220,
  "Ð¡Ð¾ÑİÐ·": 30514,
  "Ð¡Ð¿": 8474,
  "Ð¡Ð¿Ð°ÑĢ": 24247,
  "Ð¡Ð¿Ð°ÑĢÑĤÐ°Ðº": 25887,
  "Ð¡Ð¿Ð°Ñģ": 43190,
  "Ð¡Ð¿Ð°ÑģÐ¸Ð±Ð¾": 9412,
  "Ð¡Ð¿Ðµ": 30101,
  "Ð¡Ð¿Ð¾ÑĢÑĤ": 38962,
  "Ð¡Ð¿Ð¾ÑģÐ¾Ð±": 39303,
  "Ð¡Ð¿ÑĢÐ°Ð²": 35485,
  "Ð¡Ð¿ÑĥÑģÑĤÑı": 45310,
  "Ð¡ÐĲ": 11804,
  "Ð¡ÐĲÐĵÐŀ": 38271,
  "Ð¡Ðķ": 23174,
  "Ð¡Ðĺ": 18377,
  "Ð¡Ðļ": 10374,
  "Ð¡ÐļÐĲ": 18832,
  "Ð¡ÐļÐĴÐĲ": 35799,
  "Ð¡ÐļÐŀ": 37415,
  "Ð¡ÐĽÐķ": 50057,
  "Ð¡Ðľ": 42570,
  "Ð¡Ðŀ": 10540,
  "Ð¡ÐŁ": 12147,
  "Ð¡Ðł": 12329,
  "Ð¡ÑĢÐ°Ð·Ñĥ": 38870,
  "Ð¡ÑĢÐµÐ´": 32363,
  "Ð¡ÑĢÐµÐ´Ð¸": 31086,
  "Ð¡ÑĤ": 6324,
  "Ð¡ÑĤÐ°": 9763,
  "Ð¡ÑĤÐ°Ð»": 34253,
  "Ð¡ÑĤÐ°Ð½": 35689,
  "Ð¡ÑĤÐ°ÑĢ": 29981,
  "Ð¡ÑĤÐ°ÑĢÐ¸Ðº": 47326,
  "Ð¡ÑĤÐ°ÑĢÑĭÐ¹": 47598,
  "Ð¡ÑĤÐ°ÑĤÑĮ": 32613,
  "Ð¡ÑĤÐ°ÑĤÑĮÑı": 45058,
  "Ð¡ÑĤÐ¸": 43040,
  "Ð¡ÑĤÐ¾": 12239,
  "Ð¡ÑĤÐ¾Ð¸ÑĤ": 20947,
  "Ð¡ÑĤÑĢÐ°": 14773,
  "Ð¡ÑĤÑĢÐ°Ð½": 23163,
  "Ð¡ÑĤÑĢÐ°Ð½Ð½Ð¾": 41600,
  "Ð¡ÑĤÑĢÐ¾": 34059,
  "Ð¡ÑĤÑĢÐ¾Ð¹": 37595,
  "Ð¡ÑĤÑĥÐ´": 45498,
  "Ð¡Ñĥ": 17936,
  "Ð¡ÑĥÐ´": 20802,
  "Ð¡ÑĥÐ´Ñı": 37626,
  "Ð¡ÑĥÑīÐµ": 31946,
  "Ð¡ÑĥÑīÐµÑģÑĤÐ²ÑĥÐµÑĤ": 43034,
  "Ð¡ÑĩÐ¸ÑĤÐ°": 47030,
  "Ð¡Ñĭ": 34568,
  "Ð¡ÑĭÐ½": 48250,
  "Ð¡Ñİ": 47635,
  "Ð¢": 667,
  "Ð¢Ð¡": 11347,
  "Ð¢Ð¡Ð¯": 43058,
  "Ð¢Ð£": 13212,
  "Ð¢Ð«": 21808,
  "Ð¢Ð¬": 7594,
  "Ð¢Ð¬Ð¡Ð¯": 47395,
  "Ð¢Ð°": 17113,
  "Ð¢Ð°Ð¹": 22955,
  "Ð¢Ð°Ðº": 3109,
  "Ð¢Ð°ÐºÐ°Ñı": 42813,
  "Ð¢Ð°ÐºÐ¶Ðµ": 26861,
  "Ð¢Ð°ÐºÐ¸Ðµ": 38738,
  "Ð¢Ð°ÐºÐ¸Ð¼": 23944,
  "Ð¢Ð°ÐºÐ¾Ðµ": 41913,
  "Ð¢Ð°ÐºÐ¾Ð¹": 37811,
  "Ð¢Ð°Ð¼": 12629,
  "Ð¢Ð°Ð½": 34385,
  "Ð¢Ð²Ð¾Ð¹": 49205,
  "Ð¢Ðµ": 5558,
  "Ð¢ÐµÐ±Ðµ": 20416,
  "Ð¢ÐµÐ±Ñı": 41691,
  "Ð¢ÐµÐº": 37636,
  "Ð¢ÐµÐºÑģÑĤ": 48609,
  "Ð¢ÐµÐ»Ðµ": 27623,
  "Ð¢ÐµÐ¼": 13924,
  "Ð¢ÐµÐ¿": 42695,
  "Ð¢ÐµÐ¿ÐµÑĢÑĮ": 9457,
  "Ð¢ÐµÑĢ": 26442,
  "Ð¢ÐµÑħ": 20808,
  "Ð¢ÐµÑħÐ½": 49800,
  "Ð¢Ð¸": 25253,
  "Ð¢Ð¸Ñħ": 29750,
  "Ð¢Ð¸ÑħÐ¾": 48288,
  "Ð¢Ð¾": 9584,
  "Ð¢Ð¾Ð³Ð´Ð°": 11540,
  "Ð¢Ð¾Ð¶Ðµ": 45686,
  "Ð¢Ð¾Ð»": 28822,
  "Ð¢Ð¾Ð»ÑĮÐºÐ¾": 9357,
  "Ð¢Ð¾Ð¼": 26426,
  "Ð¢Ð¾ÑĢ": 25440,
  "Ð¢Ð¾ÑĤ": 19705,
  "Ð¢Ð¾ÑĩÐ½Ð¾": 31047,
  "Ð¢ÐĲ": 6107,
  "Ð¢ÐĲÐ¡Ð¡": 30099,
  "Ð¢ÐĲÐł": 40246,
  "Ð¢Ðĳ": 27386,
  "Ð¢ÐĴ": 20578,
  "Ð¢Ðķ": 7508,
  "Ð¢ÐķÐĽÐ¬": 29907,
  "Ð¢ÐķÐĽÐ¬ÐĿÐŀ": 43586,
  "Ð¢ÐķÐł": 41344,
  "Ð¢Ðĺ": 8006,
  "Ð¢ÐĺÐĴ": 48555,
  "Ð¢Ðļ": 41216,
  "Ð¢ÐĿÐŀ": 42780,
  "Ð¢Ðŀ": 3234,
  "Ð¢ÐŀÐĴ": 46704,
  "Ð¢ÐŁ": 12452,
  "Ð¢Ðł": 17728,
  "Ð¢ÐłÐĲ": 49903,
  "Ð¢ÐłÐĺ": 48721,
  "Ð¢ÑĢÐ°Ð½": 26623,
  "Ð¢ÑĢÐ°Ð½Ñģ": 46430,
  "Ð¢ÑĢÐµ": 37836,
  "Ð¢ÑĢÐµÑĤÑĮ": 41273,
  "Ð¢ÑĢÐ¸": 15953,
  "Ð¢ÑĢÐ¾": 39215,
  "Ð¢ÑĢÑĥÐ´": 47540,
  "Ð¢ÑĢÑĥÐ´Ð½Ð¾": 49233,
  "Ð¢Ñĥ": 25152,
  "Ð¢ÑĥÑĢ": 31632,
  "Ð¢ÑĥÑĤ": 12643,
  "Ð¢Ñĭ": 3637,
  "Ð£": 919,
  "Ð£Ð£": 45455,
  "Ð£Ð²Ð°Ð¶Ð°": 30604,
  "Ð£Ð²Ð°Ð¶Ð°ÐµÐ¼ÑĭÐµ": 44057,
  "Ð£Ð²ÐµÑĢ": 48703,
  "Ð£Ð²Ð¸": 44704,
  "Ð£Ð²Ñĭ": 44218,
  "Ð£Ð´Ð¸Ð²": 41094,
  "Ð£Ð¶": 27882,
  "Ð£Ð¶Ðµ": 15589,
  "Ð£ÐºÑĢÐ°": 14781,
  "Ð£ÐºÑĢÐ°Ð¸Ð½Ð°": 25124,
  "Ð£Ð¼": 29097,
  "Ð£Ð¿": 49665,
  "Ð£Ð¿ÑĢÐ°Ð²Ð»ÐµÐ½Ð¸Ðµ": 40693,
  "Ð£ÐĹ": 21318,
  "Ð£ÐĿ": 48792,
  "Ð£ÑĢÐ°": 39714,
  "Ð£ÑĢÐ°Ð»": 35943,
  "Ð£ÑĢÐ°Ð»ÑĮ": 48905,
  "Ð£ÑģÐ¿": 31850,
  "Ð£ÑĤÑĢÐ¾Ð¼": 32618,
  "Ð£Ñĩ": 32751,
  "Ð¤": 1155,
  "Ð¤Ð¡": 47212,
  "Ð¤Ð¡Ðł": 22196,
  "Ð¤Ð°": 40935,
  "Ð¤Ð°Ðº": 40594,
  "Ð¤ÐµÐ´": 44345,
  "Ð¤ÐµÐ´ÐµÑĢÐ°": 47541,
  "Ð¤Ð¸": 39506,
  "Ð¤Ð¸Ð»": 46624,
  "Ð¤Ð¸Ð»Ð¸": 46461,
  "Ð¤Ð¸Ð»ÑĮ": 33917,
  "Ð¤Ð¸Ð»ÑĮÐ¼": 41945,
  "Ð¤Ð¾Ð½": 25950,
  "Ð¤Ð¾Ð½ÑĤÐ°Ð½": 33828,
  "Ð¤Ð¾ÑĢ": 23459,
  "Ð¤Ð¾ÑĤ": 20630,
  "Ð¤Ð¾ÑĤÐºÐ°Ñħ": 39258,
  "Ð¤Ð¾ÑĤÐ¾": 12953,
  "Ð¤ÐĲ": 21731,
  "Ð¤ÐĹ": 18036,
  "Ð¤Ðĺ": 22280,
  "Ð¤Ðļ": 44469,
  "Ð¤Ðŀ": 14943,
  "Ð¤Ðł": 33391,
  "Ð¤ÑĢÐ°Ð½": 16287,
  "Ð¤ÑĢÐ°Ð½ÑĨÐ¸ÑģÐºÐ¾": 45298,
  "Ð¥": 1496,
  "Ð¥Ð¥": 46926,
  "Ð¥Ð°": 20742,
  "Ð¥Ð°ÑĢ": 44548,
  "Ð¥Ð²Ð°ÑĤÐ¸ÑĤ": 46686,
  "Ð¥Ð¸": 45515,
  "Ð¥Ð¼": 41456,
  "Ð¥Ð¾": 20162,
  "Ð¥Ð¾Ð´": 45813,
  "Ð¥Ð¾Ð»": 39493,
  "Ð¥Ð¾Ð»Ð¾Ð´": 44893,
  "Ð¥Ð¾ÑĢÐ¾ÑĪ": 22793,
  "Ð¥Ð¾ÑĢÐ¾ÑĪÐ¸Ð¹": 45095,
  "Ð¥Ð¾ÑĢÐ¾ÑĪÐ¾": 11052,
  "Ð¥Ð¾ÑĤ": 21466,
  "Ð¥Ð¾ÑĤÐ¸ÑĤÐµ": 50247,
  "Ð¥Ð¾ÑĤÑĮ": 40806,
  "Ð¥Ð¾ÑĤÑı": 17889,
  "Ð¥Ð¾ÑĩÐµÑĪÑĮ": 42001,
  "Ð¥Ð¾ÑĩÑĥ": 17048,
  "Ð¥ÐĲ": 17488,
  "Ð¥Ðĺ": 43708,
  "Ð¥ÐĽ": 29468,
  "Ð¥Ðŀ": 15611,
  "Ð¥ÑĥÐ´": 38722,
  "Ð¦": 2533,
  "Ð¦Ð²ÐµÑĤ": 39796,
  "Ð¦ÐµÐ½ÑĤ": 16432,
  "Ð¦ÐµÐ½ÑĤÑĢ": 24995,
  "Ð¦ÐĲ": 26570,
  "Ð¦Ðķ": 38909,
  "Ð¦Ðĺ": 11812,
  "Ð¦ÐĺÐ¯": 30869,
  "Ð¦ÐĺÐĺ": 33945,
  "Ð¦ÐŁ": 48907,
  "Ð§": 1026,
  "Ð§Ð¡": 15540,
  "Ð§Ð¢Ðŀ": 41634,
  "Ð§Ð°": 11601,
  "Ð§Ð°Ð¹": 36177,
  "Ð§Ð°ÑģÑĤÐ¾": 44395,
  "Ð§Ð°ÑģÑĤÑĮ": 18470,
  "Ð§Ðµ": 41199,
  "Ð§ÐµÐ³Ð¾": 16676,
  "Ð§ÐµÐ»": 49842,
  "Ð§ÐµÐ»Ð¾Ð²ÐµÐº": 17193,
  "Ð§ÐµÐ¼": 8807,
  "Ð§ÐµÑĢ": 14483,
  "Ð§ÐµÑĢÐµÐ·": 12274,
  "Ð§ÐµÑĢÑĤ": 32959,
  "Ð§ÐµÑĤ": 39898,
  "Ð§Ð¸": 31351,
  "Ð§Ð¸ÑĤ": 21633,
  "Ð§Ð¸ÑĤÐ°ÑĤÑĮ": 31375,
  "Ð§ÐĲ": 17672,
  "Ð§Ðķ": 18702,
  "Ð§ÐķÐ¡": 26919,
  "Ð§ÐķÐľ": 40665,
  "Ð§ÐķÐĿÐ¬": 39130,
  "Ð§Ðĺ": 16050,
  "Ð§ÐĿÐŀ": 31583,
  "Ð§ÑĤÐ¾": 1848,
  "Ð§ÑĤÐ¾Ð±": 34177,
  "Ð§ÑĤÐ¾Ð±Ñĭ": 12226,
  "Ð§ÑĥÐ´": 35218,
  "Ð¨": 1460,
  "Ð¨Ð°ÑĢ": 48519,
  "Ð¨Ð°Ñħ": 43177,
  "Ð¨Ð¸": 37420,
  "Ð¨Ðº": 29484,
  "Ð¨ÐºÐ¾Ð»Ð°": 47079,
  "Ð¨ÐĲ": 2299,
  "Ð¨Ðķ": 19646,
  "Ð¨Ðĺ": 19040,
  "Ð¨Ðŀ": 41200,
  "Ð©": 7786,
  "Ð©ÐĲ": 48406,
  "Ð©Ðķ": 22515,
  "Ð©Ðĺ": 24990,
  "Ðª": 25797,
  "Ð«": 2637,
  "Ð¬": 2601,
  "Ð®": 3454,
  "Ð®Ð¢": 35486,
  "Ð¯": 1014,
  "Ð¯Ð½Ð´": 43147,
  "Ð¯ÑĢ": 46119,
  "Ð°": 265,
  "Ð°Ð°": 6429,
  "Ð°Ð°Ð°": 41131,
  "Ð°Ð°Ð°Ð°": 15962,
  "Ð°Ð°Ð°Ð°Ð°Ð°Ð°Ð°": 37616,
  "Ð°Ð±": 1424,
  "Ð°Ð±Ð¸Ð»Ð¸": 13587,
  "Ð°Ð²": 1222,
  "Ð°Ð²ÐºÐ°Ð·": 26994,
  "Ð°Ð²Ð»Ð¸": 12000,
  "Ð°Ð²Ð»Ð¾Ð²": 30419,
  "Ð°Ð²Ð¾Ðº": 28569,
  "Ð°Ð²ÑĤÐ¾": 44040,
  "Ð°Ð²ÑĤÐ¾Ð¼": 25739,
  "Ð°Ð²ÑĤÐ¾ÑĢ": 35635,
  "Ð°Ð²ÑĪÐµÐ³Ð¾": 46533,
  "Ð°Ð²ÑĪÐ¸ÑģÑĮ": 45351,
  "Ð°Ð³": 1346,
  "Ð°Ð³Ð°": 2904,
  "Ð°Ð³Ð°Ð½": 8142,
  "Ð°Ð³Ð¸": 5221,
  "Ð°Ð³Ð½Ð¸ÑĤ": 23007,
  "Ð°Ð³Ð½Ð¾ÑģÑĤÐ¸": 27828,
  "Ð°Ð³Ð½Ð¾ÑģÑĤÐ¸ÐºÐ°": 47980,
  "Ð°Ð´": 1190,
  "Ð°Ð´Ð°": 10989,
  "Ð°Ð´Ð¶Ð¸": 16943,
  "Ð°Ð´Ð¶Ð¸ÐºÐ¸": 28520,
  "Ð°Ð´Ð½Ð¾": 4888,
  "Ð°Ð´ÑĢÐµÑģ": 45115,
  "Ð°Ð´Ñĥ": 35149,
  "Ð°Ð´Ñĭ": 23727,
  "Ð°ÐµÑĤ": 19778,
  "Ð°Ð·": 706,
  "Ð°Ð·ÐµÐ»ÑĮ": 42770,
  "Ð°Ð·Ð¸": 31070,
  "Ð°Ð·Ð¸Ð°ÑĤ": 48827,
  "Ð°Ð¹": 647,
  "Ð°Ð¹ÑģÑı": 27857,
  "Ð°Ð¹ÑĤ": 8783,
  "Ð°Ð¹ÑĤÐµ": 3019,
  "Ð°Ð¹ÑĤÐµÑģÑĮ": 12177,
  "Ð°Ðº": 331,
  "Ð°ÐºÐ°": 2859,
  "Ð°ÐºÐ°Ð¼": 48692,
  "Ð°ÐºÐ°Ð¼Ð¸": 39204,
  "Ð°ÐºÐ°Ð½": 6266,
  "Ð°ÐºÐ°Ð½ÑĥÐ½Ðµ": 25409,
  "Ð°ÐºÐµ": 25493,
  "Ð°ÐºÐ¸": 3699,
  "Ð°ÐºÐ¸Ð¸": 34511,
  "Ð°ÐºÐ¾": 41833,
  "Ð°ÐºÐ¾Ð²": 3853,
  "Ð°ÐºÐ¾Ð²Ð°": 13629,
  "Ð°ÐºÐ¾Ð¼": 8098,
  "Ð°ÐºÐ¾Ð½": 28424,
  "Ð°ÐºÐ¾Ð½ÐµÑĨ": 7229,
  "Ð°ÐºÑģ": 2390,
  "Ð°ÐºÑģÐ¸Ð¼": 2957,
  "Ð°ÐºÑĥ": 5023,
  "Ð°ÐºÑĨÐ¸Ñı": 21493,
  "Ð°Ð»": 305,
  "Ð°Ð»Ð°": 489,
  "Ð°Ð»Ð°Ð¹": 19105,
  "Ð°Ð»Ð°Ð¼": 17963,
  "Ð°Ð»Ð°Ð¼Ð¸": 17026,
  "Ð°Ð»Ð°Ð½": 19907,
  "Ð°Ð»Ð°ÑģÑĮ": 1116,
  "Ð°Ð»Ð°Ñħ": 13333,
  "Ð°Ð»Ð°Ñı": 22543,
  "Ð°Ð»Ðµ": 1007,
  "Ð°Ð»ÐµÐµ": 6760,
  "Ð°Ð»ÐµÐ¹": 9274,
  "Ð°Ð»ÐµÐºÐ°": 22455,
  "Ð°Ð»ÐµÐºÐ¾": 9124,
  "Ð°Ð»ÐµÐ½": 5878,
  "Ð°Ð»ÐµÑĤ": 34916,
  "Ð°Ð»ÐµÑĨ": 47458,
  "Ð°Ð»Ð¸": 430,
  "Ð°Ð»Ð¸Ð·": 2795,
  "Ð°Ð»Ð¸Ð·Ð°": 18339,
  "Ð°Ð»Ð¸Ð·Ð°ÑĨÐ¸Ð¸": 10009,
  "Ð°Ð»Ð¸Ð·Ð°ÑĨÐ¸Ñİ": 32945,
  "Ð°Ð»Ð¸Ð·Ð°ÑĨÐ¸Ñı": 15184,
  "Ð°Ð»Ð¸Ð·Ð¸": 13394,
  "Ð°Ð»Ð¸Ð·Ð¸ÑĢÐ¾Ð²Ð°ÑĤÑĮ": 28694,
  "Ð°Ð»Ð¸Ð·Ð¼": 11651,
  "Ð°Ð»Ð¸Ð·Ð¼Ð°": 12611,
  "Ð°Ð»Ð¸Ð·Ð¼Ðµ": 49811,
  "Ð°Ð»Ð¸Ð·Ð¼Ð¾Ð¼": 47285,
  "Ð°Ð»Ð¸Ð·Ð¾Ð²": 33129,
  "Ð°Ð»Ð¸Ð¸": 22649,
  "Ð°Ð»Ð¸Ð¹": 15028,
  "Ð°Ð»Ð¸Ð½": 7140,
  "Ð°Ð»Ð¸Ð½Ð°": 8581,
  "Ð°Ð»Ð¸Ð¿": 30482,
  "Ð°Ð»Ð¸ÑģÑĤ": 26520,
  "Ð°Ð»Ð¸ÑģÑĤÐ¸": 14178,
  "Ð°Ð»Ð¸ÑģÑĤÐ¸ÑĩÐµÑģÐºÐ¾Ð¹": 43941,
  "Ð°Ð»Ð¸ÑģÑĤÐ¾Ð²": 21311,
  "Ð°Ð»Ð¸ÑģÑĤÑĭ": 27525,
  "Ð°Ð»Ð¸ÑģÑĮ": 1023,
  "Ð°Ð»Ð¸ÑĤ": 19483,
  "Ð°Ð»Ð¸ÑĤÐµÑĤ": 28682,
  "Ð°Ð»Ð¸ÑĤÐµÑĤÐ°": 43793,
  "Ð°Ð»Ð¸ÑĤÑĮ": 10709,
  "Ð°Ð»Ð¸Ñı": 18748,
  "Ð°Ð»ÐºÐ°": 15977,
  "Ð°Ð»ÐºÐµ": 38781,
  "Ð°Ð»ÐºÐ¸": 11439,
  "Ð°Ð»ÐºÐ¾Ð³": 40518,
  "Ð°Ð»ÐºÑĥ": 23079,
  "Ð°Ð»Ð»": 24962,
  "Ð°Ð»Ð»Ð¸": 19532,
  "Ð°Ð»Ð»ÑĥÑĢ": 44927,
  "Ð°Ð»Ð¾": 654,
  "Ð°Ð»Ð¾Ð²": 4644,
  "Ð°Ð»Ð¾Ð²Ð°": 42420,
  "Ð°Ð»Ð¾Ð³": 7360,
  "Ð°Ð»Ð¾Ð³Ð¸": 21864,
  "Ð°Ð»Ð¾Ð¼": 6817,
  "Ð°Ð»Ð¾ÑģÑĮ": 1016,
  "Ð°Ð»ÑģÑı": 845,
  "Ð°Ð»Ñĥ": 1829,
  "Ð°Ð»ÑĥÐ±Ðµ": 34395,
  "Ð°Ð»ÑĥÐ¹": 2720,
  "Ð°Ð»Ñĭ": 3540,
  "Ð°Ð»ÑĭÑĩ": 48053,
  "Ð°Ð»ÑĮ": 436,
  "Ð°Ð»ÑĮÐ±Ð¾Ð¼": 48242,
  "Ð°Ð»ÑĮÐ²Ð°": 30695,
  "Ð°Ð»ÑĮÐ´": 21843,
  "Ð°Ð»ÑĮÐ´Ð°": 45884,
  "Ð°Ð»ÑĮÐ½Ð°": 16580,
  "Ð°Ð»ÑĮÐ½Ð°Ñı": 2843,
  "Ð°Ð»ÑĮÐ½ÐµÐµ": 48845,
  "Ð°Ð»ÑĮÐ½Ð¸Ðº": 15779,
  "Ð°Ð»ÑĮÐ½Ð¾": 1331,
  "Ð°Ð»ÑĮÐ½Ð¾Ð³Ð¾": 1964,
  "Ð°Ð»ÑĮÐ½Ð¾Ðµ": 2702,
  "Ð°Ð»ÑĮÐ½Ð¾Ð¹": 1839,
  "Ð°Ð»ÑĮÐ½Ð¾Ð¼": 4414,
  "Ð°Ð»ÑĮÐ½Ð¾Ð¼Ñĥ": 9677,
  "Ð°Ð»ÑĮÐ½Ð¾ÑģÑĤÐ¸": 6026,
  "Ð°Ð»ÑĮÐ½Ð¾ÑģÑĤÑĮ": 5721,
  "Ð°Ð»ÑĮÐ½Ð¾ÑģÑĤÑĮÑİ": 18120,
  "Ð°Ð»ÑĮÐ½ÑĥÑİ": 4216,
  "Ð°Ð»ÑĮÐ½Ñĭ": 17797,
  "Ð°Ð»ÑĮÐ½ÑĭÐµ": 1859,
  "Ð°Ð»ÑĮÐ½ÑĭÐ¹": 1902,
  "Ð°Ð»ÑĮÐ½ÑĭÐ¼": 3277,
  "Ð°Ð»ÑĮÐ½ÑĭÐ¼Ð¸": 5810,
  "Ð°Ð»ÑĮÐ½ÑĭÑħ": 1858,
  "Ð°Ð»ÑĮÑĪÐµ": 7592,
  "Ð°Ð»ÑĮÑİ": 36208,
  "Ð°Ð»ÑĮÑıÐ½": 7306,
  "Ð°Ð»Ñı": 12085,
  "Ð°Ð»ÑıÐ¼Ð¸": 44287,
  "Ð°Ð¼": 398,
  "Ð°Ð¼Ð°": 2312,
  "Ð°Ð¼Ð±": 21261,
  "Ð°Ð¼Ðµ": 26062,
  "Ð°Ð¼ÐµÐ½": 22085,
  "Ð°Ð¼ÐµÑĢÐ¸": 15307,
  "Ð°Ð¼ÐµÑĢÐ¸ÐºÐ°Ð½": 16169,
  "Ð°Ð¼ÐµÑĤ": 8619,
  "Ð°Ð¼Ð¸": 988,
  "Ð°Ð¼Ð¸Ð»ÑĮ": 42667,
  "Ð°Ð¼Ð¸Ð½": 23863,
  "Ð°Ð¼Ñĥ": 45889,
  "Ð°Ð¼Ñĭ": 18481,
  "Ð°Ð¼ÑıÑĤ": 15186,
  "Ð°Ð¼ÑıÑĤÐ½Ð¸Ðº": 34340,
  "Ð°Ð½": 363,
  "Ð°Ð½Ð°": 2596,
  "Ð°Ð½Ð°Ð»": 27832,
  "Ð°Ð½Ð°Ð»Ð¸ÑĤÐ¸ÑĩÐµÑģÐº": 48257,
  "Ð°Ð½Ð°Ð¼": 38225,
  "Ð°Ð½Ð³": 6837,
  "Ð°Ð½Ð³ÐµÐ»ÑĮ": 17588,
  "Ð°Ð½Ð³Ð»": 26018,
  "Ð°Ð½Ð³Ð»Ð¸Ð¹": 27273,
  "Ð°Ð½Ð³Ð»Ð¸Ð¹ÑģÐºÐ¸": 35970,
  "Ð°Ð½Ð´": 1425,
  "Ð°Ð½Ð´Ð°": 36251,
  "Ð°Ð½Ð´ÐµÑĢ": 38439,
  "Ð°Ð½Ð´Ð¾Ð¹": 45547,
  "Ð°Ð½Ð´ÑĢ": 16350,
  "Ð°Ð½Ð´ÑĢÐ°": 24159,
  "Ð°Ð½Ðµ": 4658,
  "Ð°Ð½Ð¸": 10945,
  "Ð°Ð½Ðº": 2646,
  "Ð°Ð½ÐºÐ°": 7463,
  "Ð°Ð½ÐºÐµ": 35384,
  "Ð°Ð½ÐºÐ¸": 21039,
  "Ð°Ð½ÐºÑĤ": 5077,
  "Ð°Ð½ÐºÑĥ": 35116,
  "Ð°Ð½ÐºÑĨÐ¸Ð¾Ð½Ð¸": 40382,
  "Ð°Ð½Ð½Ð°": 24348,
  "Ð°Ð½Ð½Ð°Ñı": 5343,
  "Ð°Ð½Ð½Ð¾": 9086,
  "Ð°Ð½Ð½Ð¾Ð³Ð¾": 6484,
  "Ð°Ð½Ð½Ð¾Ðµ": 6202,
  "Ð°Ð½Ð½Ð¾Ð¹": 4558,
  "Ð°Ð½Ð½Ð¾Ð¼": 14413,
  "Ð°Ð½Ð½Ð¾Ð¼Ñĥ": 17660,
  "Ð°Ð½Ð½Ð¾ÑģÑĤÐ¸": 28911,
  "Ð°Ð½Ð½Ð¾ÑģÑĤÑĮ": 25155,
  "Ð°Ð½Ð½ÑĥÑİ": 10160,
  "Ð°Ð½Ð½ÑĭÐµ": 3533,
  "Ð°Ð½Ð½ÑĭÐ¹": 3733,
  "Ð°Ð½Ð½ÑĭÐ¼": 7862,
  "Ð°Ð½Ð½ÑĭÐ¼Ð¸": 12503,
  "Ð°Ð½Ð½ÑĭÑħ": 4536,
  "Ð°Ð½Ð¾": 22321,
  "Ð°Ð½Ð¾Ð²": 816,
  "Ð°Ð½Ð¾Ð²Ð°": 20995,
  "Ð°Ð½Ð¾Ð¹": 20397,
  "Ð°Ð½Ð¾Ð¼": 10818,
  "Ð°Ð½Ñģ": 5216,
  "Ð°Ð½ÑģÐºÐ°Ñı": 24520,
  "Ð°Ð½ÑģÐºÐ¸Ðµ": 37516,
  "Ð°Ð½ÑģÐºÐ¸Ð¹": 16774,
  "Ð°Ð½ÑģÐºÐ¸Ñħ": 36046,
  "Ð°Ð½ÑģÐºÐ¾Ð³Ð¾": 16555,
  "Ð°Ð½ÑģÐºÐ¾Ð¹": 10873,
  "Ð°Ð½ÑģÐºÐ¾Ð¼": 38215,
  "Ð°Ð½ÑĤ": 1891,
  "Ð°Ð½ÑĤÐ°": 3221,
  "Ð°Ð½ÑĤÐ°Ð¼Ð¸": 33606,
  "Ð°Ð½ÑĤÐ¸": 19065,
  "Ð°Ð½ÑĤÐ¸Ð¹": 29186,
  "Ð°Ð½ÑĤÐ¾Ð²": 12628,
  "Ð°Ð½ÑĤÐ¾Ð¼": 17171,
  "Ð°Ð½ÑĤÑĥ": 29554,
  "Ð°Ð½ÑĤÑĭ": 10568,
  "Ð°Ð½Ñĥ": 8565,
  "Ð°Ð½Ñħ": 42073,
  "Ð°Ð½ÑĨÐµÐ²": 43650,
  "Ð°Ð½Ñĭ": 11169,
  "Ð°Ð½ÑĮ": 4495,
  "Ð°Ð½ÑĮÐµ": 26197,
  "Ð°Ð½ÑĮÐºÐ°": 27206,
  "Ð°Ð½ÑĮÑĪÐµ": 12237,
  "Ð°Ð½ÑĮÑı": 32911,
  "Ð°Ð½Ñı": 10605,
  "Ð°Ð¾": 29241,
  "Ð°Ð¿": 4982,
  "Ð°ÑĢ": 458,
  "Ð°ÑĢÐ°": 2958,
  "Ð°ÑĢÐ°Ñħ": 36459,
  "Ð°ÑĢÐ´": 10499,
  "Ð°ÑĢÐ´Ð°": 24060,
  "Ð°ÑĢÐµ": 19221,
  "Ð°ÑĢÐµÐ²": 44943,
  "Ð°ÑĢÐ¸": 1461,
  "Ð°ÑĢÐ¸Ð¹": 42063,
  "Ð°ÑĢÐ¸Ð½": 27467,
  "Ð°ÑĢÐ¸ÑĤÑĮ": 31841,
  "Ð°ÑĢÐº": 9932,
  "Ð°ÑĢÐºÐ°": 29618,
  "Ð°ÑĢÐºÐ¸": 28210,
  "Ð°ÑĢÐ¼ÐµÐ¹": 29386,
  "Ð°ÑĢÐ½Ð¾Ð³Ð¾": 45938,
  "Ð°ÑĢÐ½Ð¾Ð¹": 38706,
  "Ð°ÑĢÐ½ÑĭÑħ": 47973,
  "Ð°ÑĢÐ¾": 32152,
  "Ð°ÑĢÐ¾Ð²": 5337,
  "Ð°ÑĢÐ¾Ð²Ð°": 45715,
  "Ð°ÑĢÐ¾Ð´": 7025,
  "Ð°ÑĢÐ¾Ðº": 32026,
  "Ð°ÑĢÐ¾Ð¼": 32511,
  "Ð°ÑĢÑĤ": 23968,
  "Ð°ÑĢÑĤÐ°": 8741,
  "Ð°ÑĢÑĥ": 40403,
  "Ð°ÑĢÑħ": 13055,
  "Ð°ÑĢÑħÐ°": 22241,
  "Ð°ÑĢÑĭ": 11869,
  "Ð°ÑĢÑĮ": 5577,
  "Ð°ÑĢÑĮÐ¸": 26279,
  "Ð°ÑĢÑĮÐºÐ¾Ð²": 50114,
  "Ð°ÑĢÑı": 11662,
  "Ð°Ñģ": 526,
  "Ð°ÑģÐ°": 2800,
  "Ð°ÑģÐ¾Ð²": 20821,
  "Ð°ÑģÑģ": 4018,
  "Ð°ÑģÑģÐ°": 4329,
  "Ð°ÑģÑģÐ°Ð¶Ð¸": 6071,
  "Ð°ÑģÑģÐ¸": 18194,
  "Ð°ÑģÑĪÑĤÐ°Ð±": 33056,
  "Ð°ÑģÑĭ": 8954,
  "Ð°ÑĤ": 542,
  "Ð°ÑĤÐ°": 3319,
  "Ð°ÑĤÐ°Ð»ÑĮ": 6413,
  "Ð°ÑĤÐµÐ»ÐµÐ¹": 4726,
  "Ð°ÑĤÐµÐ»ÐµÐ¼": 14852,
  "Ð°ÑĤÐµÐ»Ð¸": 6890,
  "Ð°ÑĤÐµÐ»ÑĮ": 1395,
  "Ð°ÑĤÐµÐ»ÑĮÐ½Ð°Ñı": 24009,
  "Ð°ÑĤÐµÐ»ÑĮÐ½Ð¾": 4486,
  "Ð°ÑĤÐµÐ»ÑĮÐ½Ð¾Ð³Ð¾": 18804,
  "Ð°ÑĤÐµÐ»ÑĮÐ½Ð¾Ðµ": 22252,
  "Ð°ÑĤÐµÐ»ÑĮÐ½Ð¾Ð¹": 14531,
  "Ð°ÑĤÐµÐ»ÑĮÐ½ÑĥÑİ": 30505,
  "Ð°ÑĤÐµÐ»ÑĮÐ½ÑĭÐµ": 13504,
  "Ð°ÑĤÐµÐ»ÑĮÐ½ÑĭÐ¹": 14524,
  "Ð°ÑĤÐµÐ»ÑĮÐ½ÑĭÐ¼": 22855,
  "Ð°ÑĤÐµÐ»ÑĮÐ½ÑĭÐ¼Ð¸": 39701,
  "Ð°ÑĤÐµÐ»ÑĮÐ½ÑĭÑħ": 11957,
  "Ð°ÑĤÐµÐ»Ñİ": 15488,
  "Ð°ÑĤÐµÐ»Ñı": 4515,
  "Ð°ÑĤÐµÐ»ÑıÐ¼": 13989,
  "Ð°ÑĤÐµÐ»ÑıÐ¼Ð¸": 20491,
  "Ð°ÑĤÐµÐ¼": 4927,
  "Ð°ÑĤÐ¸": 3432,
  "Ð°ÑĤÐ¾Ð²": 9166,
  "Ð°ÑĤÐ¾Ð³Ð¾": 31535,
  "Ð°ÑĤÐ¾Ð¹": 32190,
  "Ð°ÑĤÐ¾Ð¼": 19979,
  "Ð°ÑĤÑĢ": 22516,
  "Ð°ÑĤÑĢÐ°": 21669,
  "Ð°ÑĤÑĢÐ¸": 7760,
  "Ð°ÑĤÑģÑı": 11881,
  "Ð°ÑĤÑĥ": 5388,
  "Ð°ÑĤÑĥÑĢ": 24192,
  "Ð°ÑĤÑĥÑĢÐ°": 40483,
  "Ð°ÑĤÑĭ": 2288,
  "Ð°ÑĤÑĭÐµ": 22158,
  "Ð°ÑĤÑĭÐ¹": 16913,
  "Ð°ÑĤÑĭÐ¼": 42553,
  "Ð°ÑĤÑĭÑħ": 39380,
  "Ð°ÑĤÑĮ": 513,
  "Ð°ÑĤÑĮÑģÑı": 1711,
  "Ð°ÑĦ": 33025,
  "Ð°Ñħ": 1371,
  "Ð°ÑħÐ°": 48610,
  "Ð°ÑħÐ°ÑĢ": 7604,
  "Ð°ÑĨÐ¸Ð¸": 15020,
  "Ð°ÑĪ": 1343,
  "Ð°ÑĪÐ²Ð¸Ð»Ð¸": 36719,
  "Ð°ÑĪÐºÐ°": 15671,
  "Ð°ÑĪÐºÐ¸": 36194,
  "Ð°ÑİÑĤ": 37057,
  "Ð°Ñı": 535,
  "Ð°ÑıÐ½": 36335,
  "Ð°ÑıÑģÑĮ": 6531,
  "Ð±": 297,
  "Ð±Ð°": 918,
  "Ð±Ð°Ð±": 24612,
  "Ð±Ð°Ð²": 7599,
  "Ð±Ð°Ð²Ð»Ñı": 33375,
  "Ð±Ð°Ð²Ð½Ð¾": 44697,
  "Ð±Ð°Ð´": 32034,
  "Ð±Ð°ÐµÐ²": 39366,
  "Ð±Ð°Ð·": 46997,
  "Ð±Ð°Ð¹": 13431,
  "Ð±Ð°Ð¹ÐºÐ°Ð»ÑĮ": 36932,
  "Ð±Ð°Ðº": 22952,
  "Ð±Ð°ÐºÑĤÐµÑĢÐ¸": 38994,
  "Ð±Ð°Ð»": 9094,
  "Ð±Ð°Ð¼": 37214,
  "Ð±Ð°Ð¼Ð¸": 11147,
  "Ð±Ð°Ð½": 9785,
  "Ð±Ð°Ð½Ð°": 44012,
  "Ð±Ð°Ð½Ðº": 22227,
  "Ð±Ð°Ð½ÐºÐ°": 30834,
  "Ð±Ð°ÑĢ": 7886,
  "Ð±Ð°ÑĢÐ°": 29874,
  "Ð±Ð°ÑĢÐ´Ð¸": 14709,
  "Ð±Ð°ÑĢÐ¸": 22143,
  "Ð±Ð°ÑĢÐ¸ÑĤ": 25000,
  "Ð±Ð°Ñģ": 10433,
  "Ð±Ð°ÑĤ": 15368,
  "Ð±Ð°ÑĤÐ°": 42704,
  "Ð±Ð°ÑĤÑĭ": 14074,
  "Ð±Ð°Ñħ": 11699,
  "Ð±Ð°ÑĪ": 49801,
  "Ð±Ðµ": 668,
  "Ð±ÐµÐ´": 11861,
  "Ð±ÐµÐ¶": 2452,
  "Ð±ÐµÐ¶Ð°Ð»": 12025,
  "Ð±ÐµÐ¶Ð°Ð»Ð°": 16849,
  "Ð±ÐµÐ¶Ð°Ð»Ð¸": 25341,
  "Ð±ÐµÐ¶Ð°ÑĤÑĮ": 7000,
  "Ð±ÐµÐ·": 9319,
  "Ð±ÐµÐ¹": 38268,
  "Ð±ÐµÐº": 12768,
  "Ð±ÐµÐºÐ°": 46257,
  "Ð±ÐµÐºÐ¸": 19748,
  "Ð±ÐµÐ»": 9162,
  "Ð±ÐµÐ»Ð¸": 9982,
  "Ð±ÐµÐ»ÑĭÐ¹": 45056,
  "Ð±ÐµÐ»ÑĮ": 4728,
  "Ð±ÐµÐ½": 27323,
  "Ð±ÐµÑĢ": 4175,
  "Ð±ÐµÑĢÐ°": 24576,
  "Ð±ÐµÑĢÐ³": 12648,
  "Ð±ÐµÑĢÐ³Ð°": 25337,
  "Ð±ÐµÑĢÐµ": 14913,
  "Ð±ÐµÑĢÐ¸": 16475,
  "Ð±ÐµÑĢÐ¸ÑĤÐµ": 14388,
  "Ð±ÐµÑĢÑĤ": 24710,
  "Ð±ÐµÑĢÑĥÑĤ": 41308,
  "Ð±ÐµÑģ": 14193,
  "Ð±ÐµÑģÐ¿": 31720,
  "Ð±ÐµÑĤ": 16610,
  "Ð±ÐµÑĨ": 44739,
  "Ð±Ð¸": 941,
  "Ð±Ð¸Ð²Ð°ÑĤÑĮ": 23599,
  "Ð±Ð¸Ð·Ð½ÐµÑģ": 48672,
  "Ð±Ð¸Ð¸": 23465,
  "Ð±Ð¸Ð¹": 20197,
  "Ð±Ð¸Ð»": 22084,
  "Ð±Ð¸Ð»Ð°": 14427,
  "Ð±Ð¸Ð»Ð°ÑģÑĮ": 22666,
  "Ð±Ð¸Ð»Ð¸": 12639,
  "Ð±Ð¸Ð»ÑĮ": 24066,
  "Ð±Ð¸Ð½": 6884,
  "Ð±Ð¸Ð½Ð°": 8008,
  "Ð±Ð¸Ð½Ñĭ": 19126,
  "Ð±Ð¸ÑĢ": 6105,
  "Ð±Ð¸ÑĢÐ°": 1990,
  "Ð±Ð¸ÑĢÐ°ÑĤÑĮ": 11248,
  "Ð±Ð¸ÑĢÐ°Ñı": 14942,
  "Ð±Ð¸ÑĢÐ¸Ð½": 21212,
  "Ð±Ð¸ÑĢÑĮ": 41790,
  "Ð±Ð¸ÑĢÑı": 44952,
  "Ð±Ð¸ÑĤ": 4139,
  "Ð±Ð¸ÑĤÑĢÐ°Ð¶": 18654,
  "Ð±Ð¸ÑĤÑĭ": 45734,
  "Ð±Ð¸ÑĤÑĮ": 14579,
  "Ð±Ð¸ÑīÐµ": 45524,
  "Ð±Ð¸Ñı": 34562,
  "Ð±Ð»": 12210,
  "Ð±Ð»Ð°": 21538,
  "Ð±Ð»ÐµÐ¼": 27388,
  "Ð±Ð»Ð¸": 2832,
  "Ð±Ð»Ð¸Ð·": 26546,
  "Ð±Ð»Ð¸Ð·Ð¸": 17342,
  "Ð±Ð»Ð¾Ðº": 31615,
  "Ð±Ð»Ñİ": 16135,
  "Ð±Ð»ÑİÐ´": 21514,
  "Ð±Ð½": 40232,
  "Ð±Ð¾": 798,
  "Ð±Ð¾Ð²": 7797,
  "Ð±Ð¾Ð³": 36219,
  "Ð±Ð¾Ð´": 33352,
  "Ð±Ð¾Ð¶": 45588,
  "Ð±Ð¾Ð¹": 3680,
  "Ð±Ð¾Ðº": 21854,
  "Ð±Ð¾Ð»": 4853,
  "Ð±Ð¾Ð»ÐµÐµ": 28830,
  "Ð±Ð¾Ð»ÐµÐ·": 32085,
  "Ð±Ð¾Ð»Ð¸": 18308,
  "Ð±Ð¾Ð»Ñĥ": 41918,
  "Ð±Ð¾Ð»ÑĮ": 31854,
  "Ð±Ð¾Ð»ÑĮÑĪ": 12610,
  "Ð±Ð¾Ð»ÑĮÑĪÐµ": 32368,
  "Ð±Ð¾Ð»ÑĮÑĪÐ¾Ð¹": 39448,
  "Ð±Ð¾Ð¼": 5680,
  "Ð±Ð¾Ð¼Ð°": 21672,
  "Ð±Ð¾Ð½": 29282,
  "Ð±Ð¾ÑĢ": 1225,
  "Ð±Ð¾ÑĢÐ°": 3418,
  "Ð±Ð¾ÑĢÐµ": 21881,
  "Ð±Ð¾ÑĢÐ¸": 31855,
  "Ð±Ð¾ÑĢÐºÐ°": 42348,
  "Ð±Ð¾ÑĢÐ¾": 40398,
  "Ð±Ð¾ÑĢÑĥ": 29638,
  "Ð±Ð¾ÑĢÑĭ": 38507,
  "Ð±Ð¾ÑĤ": 605,
  "Ð±Ð¾ÑĤÐ°": 6145,
  "Ð±Ð¾ÑĤÐ¾Ð²": 43883,
  "Ð±Ð¾Ñĩ": 18898,
  "Ð±Ð¾ÑĩÐµÐº": 42557,
  "Ð±Ð¾Ñı": 42268,
  "Ð±ÑĢ": 31761,
  "Ð±ÑĢÐ°": 1381,
  "Ð±ÑĢÐ°Ð»": 45050,
  "Ð±ÑĢÐ°Ð½": 17872,
  "Ð±ÑĢÐ°ÑģÑĭ": 11258,
  "Ð±ÑĢÐ°ÑĤÑĮ": 6389,
  "Ð±ÑĢÐµ": 3720,
  "Ð±ÑĢÐ¸": 11143,
  "Ð±ÑĢÐ¾": 30769,
  "Ð±ÑĢÐ¾Ð´": 41617,
  "Ð±ÑĢÐ¾Ñģ": 46875,
  "Ð±ÑĢÑĥ": 43483,
  "Ð±ÑĢÑĮ": 6651,
  "Ð±ÑĢÑı": 1534,
  "Ð±Ñģ": 49122,
  "Ð±Ñĥ": 1247,
  "Ð±ÑĥÐ´": 9859,
  "Ð±ÑĥÐ´ÐµÑĤ": 25978,
  "Ð±ÑĥÐ´ÑĮ": 1808,
  "Ð±ÑĥÐº": 19976,
  "Ð±ÑĥÐºÐ°": 36014,
  "Ð±ÑĥÐºÐµ": 34438,
  "Ð±ÑĥÐ»": 36376,
  "Ð±ÑĥÐ»Ð°": 27891,
  "Ð±ÑĥÐ»Ðµ": 49872,
  "Ð±ÑĥÐ½": 19682,
  "Ð±ÑĥÑĢ": 4575,
  "Ð±ÑĥÑĢÐ³": 8036,
  "Ð±ÑĥÑĢÐ³Ð°": 18910,
  "Ð±ÑĥÑĢÐ³Ðµ": 17316,
  "Ð±ÑĥÑģ": 36144,
  "Ð±ÑĥÑħ": 47237,
  "Ð±Ñĭ": 875,
  "Ð±ÑĭÐ²": 40989,
  "Ð±ÑĭÐ»": 17763,
  "Ð±ÑĭÐ»Ð°": 32494,
  "Ð±ÑĭÐ»Ð¸": 27122,
  "Ð±ÑĭÐ»Ð¾": 30569,
  "Ð±ÑĭÑĤÑĮ": 31773,
  "Ð±ÑĮÑİ": 30643,
  "Ð±Ñį": 49378,
  "Ð±Ñİ": 10650,
  "Ð±ÑİÐ´Ð¶ÐµÑĤ": 44506,
  "Ð±ÑİÑĢÐ¾": 33480,
  "Ð±Ñı": 747,
  "Ð±ÑıÑĤÐ°": 6591,
  "Ð²": 277,
  "Ð²Ð°": 342,
  "Ð²Ð°Ð²": 15071,
  "Ð²Ð°Ð²ÑĪÐµÐ³Ð¾": 49943,
  "Ð²Ð°Ð²ÑĪÐ¸Ðµ": 37690,
  "Ð²Ð°Ð²ÑĪÐ¸Ð¹": 30685,
  "Ð²Ð°Ð²ÑĪÐ¸ÑģÑĮ": 46748,
  "Ð²Ð°Ð²ÑĪÐ¸Ñħ": 35026,
  "Ð²Ð°Ð´": 34476,
  "Ð²Ð°ÐµÐ¼": 2091,
  "Ð²Ð°ÐµÐ¼Ð°Ñı": 25230,
  "Ð²Ð°ÐµÐ¼Ð¾Ð³Ð¾": 17636,
  "Ð²Ð°ÐµÐ¼Ð¾Ðµ": 28031,
  "Ð²Ð°ÐµÐ¼Ð¾Ð¹": 17464,
  "Ð²Ð°ÐµÐ¼Ð¾ÑģÑĤÐ¸": 26864,
  "Ð²Ð°ÐµÐ¼Ð¾ÑģÑĤÑĮ": 37199,
  "Ð²Ð°ÐµÐ¼ÑģÑı": 18183,
  "Ð²Ð°ÐµÐ¼ÑĥÑİ": 39218,
  "Ð²Ð°ÐµÐ¼ÑĭÐµ": 13528,
  "Ð²Ð°ÐµÐ¼ÑĭÐ¹": 14828,
  "Ð²Ð°ÐµÐ¼ÑĭÐ¼": 25318,
  "Ð²Ð°ÐµÐ¼ÑĭÑħ": 11672,
  "Ð²Ð°ÐµÑĤ": 931,
  "Ð²Ð°ÐµÑĤÐµ": 8032,
  "Ð²Ð°ÐµÑĤÐµÑģÑĮ": 24675,
  "Ð²Ð°ÐµÑĤÑģÑı": 1510,
  "Ð²Ð°ÐµÑĪÑĮ": 9975,
  "Ð²Ð°ÐµÑĪÑĮÑģÑı": 26150,
  "Ð²Ð°Ð¶Ð°": 10628,
  "Ð²Ð°Ð¶Ð½Ð¾": 16195,
  "Ð²Ð°Ð¸": 12915,
  "Ð²Ð°Ð¹": 3028,
  "Ð²Ð°Ð¹ÑģÑı": 16797,
  "Ð²Ð°Ð¹ÑĤÐµ": 3359,
  "Ð²Ð°Ð¹ÑĤÐµÑģÑĮ": 13592,
  "Ð²Ð°Ðº": 47836,
  "Ð²Ð°Ð»": 1113,
  "Ð²Ð°Ð»Ð°": 2200,
  "Ð²Ð°Ð»Ð°ÑģÑĮ": 4461,
  "Ð²Ð°Ð»Ðµ": 10486,
  "Ð²Ð°Ð»Ð¸": 1275,
  "Ð²Ð°Ð»Ð¸Ð»ÑģÑı": 39248,
  "Ð²Ð°Ð»Ð¸ÑģÑĮ": 3639,
  "Ð²Ð°Ð»Ð¸ÑĤÑĮ": 37728,
  "Ð²Ð°Ð»Ð¸ÑĦÐ¸ÑĨÐ¸": 22528,
  "Ð²Ð°Ð»Ð¾": 5137,
  "Ð²Ð°Ð»Ð¾Ð²": 41235,
  "Ð²Ð°Ð»Ð¾Ð¼": 30436,
  "Ð²Ð°Ð»Ð¾ÑģÑĮ": 5624,
  "Ð²Ð°Ð»ÑģÑı": 2979,
  "Ð²Ð°Ð»Ñĭ": 45783,
  "Ð²Ð°Ð»ÑĮ": 8573,
  "Ð²Ð°Ð»ÑĮÐ½Ð¾": 29753,
  "Ð²Ð°Ð»Ñı": 13230,
  "Ð²Ð°Ð¼": 14472,
  "Ð²Ð°Ð¼Ð¸": 8770,
  "Ð²Ð°Ð½": 1993,
  "Ð²Ð°Ð½Ð°": 10813,
  "Ð²Ð°Ð½Ð³": 17762,
  "Ð²Ð°Ð½Ðµ": 14411,
  "Ð²Ð°Ð½Ð¸": 19164,
  "Ð²Ð°Ð½Ð¸Ðµ": 2006,
  "Ð²Ð°Ð½Ð¸ÐµÐ¼": 5141,
  "Ð²Ð°Ð½Ð¸Ð¸": 7524,
  "Ð²Ð°Ð½Ð¸Ð¹": 7366,
  "Ð²Ð°Ð½Ð¸Ñİ": 9314,
  "Ð²Ð°Ð½Ð¸Ñı": 1788,
  "Ð²Ð°Ð½Ð½Ð¾Ð¹": 48989,
  "Ð²Ð°Ð½Ð½ÑĭÐµ": 38554,
  "Ð²Ð°Ð½Ð½ÑĭÐ¹": 34133,
  "Ð²Ð°Ð½Ð½ÑĭÑħ": 46637,
  "Ð²Ð°Ð½Ð¾": 21811,
  "Ð²Ð°Ð½Ð¾Ð²": 30177,
  "Ð²Ð°Ð½Ñĭ": 14841,
  "Ð²Ð°Ð½ÑĮ": 32276,
  "Ð²Ð°ÑĢ": 1391,
  "Ð²Ð°ÑĢÐ°": 25272,
  "Ð²Ð°ÑĢÐ´": 21479,
  "Ð²Ð°ÑĢÐ´Ð°": 49129,
  "Ð²Ð°ÑĢÐ´ÐµÐ¹": 27904,
  "Ð²Ð°ÑĢÐ´Ð¸Ð¸": 42943,
  "Ð²Ð°ÑĢÐ¸": 3735,
  "Ð²Ð°ÑĢÑĤ": 36064,
  "Ð²Ð°ÑĢÑĤÐ¸": 10426,
  "Ð²Ð°ÑĢÑĮ": 12903,
  "Ð²Ð°ÑĢÑı": 47330,
  "Ð²Ð°Ñģ": 33018,
  "Ð²Ð°ÑģÑĤ": 14270,
  "Ð²Ð°ÑĤ": 4273,
  "Ð²Ð°ÑĤÐµÐ»ÐµÐ¹": 31882,
  "Ð²Ð°ÑĤÐµÐ»Ð¸": 27400,
  "Ð²Ð°ÑĤÐµÐ»ÑĮ": 6299,
  "Ð²Ð°ÑĤÐµÐ»Ñı": 22279,
  "Ð²Ð°ÑĤÐ¸": 14063,
  "Ð²Ð°ÑĤÐ¸ÑĤ": 22826,
  "Ð²Ð°ÑĤÑĮ": 756,
  "Ð²Ð°ÑĤÑĮÑģÑı": 1878,
  "Ð²Ð°Ñħ": 12272,
  "Ð²Ð°ÑĪ": 29040,
  "Ð²Ð°ÑĪÐµÐ¼Ñĥ": 40524,
  "Ð²Ð°ÑĪÐ¸": 37997,
  "Ð²Ð°Ñİ": 2804,
  "Ð²Ð°ÑİÑģÑĮ": 8973,
  "Ð²Ð°ÑİÑĤ": 1522,
  "Ð²Ð°ÑİÑĤÑģÑı": 2589,
  "Ð²Ð°ÑİÑīÐ°Ñı": 16210,
  "Ð²Ð°ÑİÑīÐµ": 34421,
  "Ð²Ð°ÑİÑīÐµÐ³Ð¾": 12479,
  "Ð²Ð°ÑİÑīÐµÐ³Ð¾ÑģÑı": 47439,
  "Ð²Ð°ÑİÑīÐµÐµ": 15708,
  "Ð²Ð°ÑİÑīÐµÐ¹": 13870,
  "Ð²Ð°ÑİÑīÐµÐ¹ÑģÑı": 45379,
  "Ð²Ð°ÑİÑīÐ¸Ðµ": 8953,
  "Ð²Ð°ÑİÑīÐ¸ÐµÑģÑı": 31686,
  "Ð²Ð°ÑİÑīÐ¸Ð¹": 9924,
  "Ð²Ð°ÑİÑīÐ¸Ð¹ÑģÑı": 38079,
  "Ð²Ð°ÑİÑīÐ¸Ð¼": 16603,
  "Ð²Ð°ÑİÑīÐ¸Ð¼Ð¸": 28921,
  "Ð²Ð°ÑİÑīÐ¸Ñħ": 8925,
  "Ð²Ð°ÑİÑīÐ¸ÑħÑģÑı": 33597,
  "Ð²Ð°ÑİÑīÑĥÑİ": 26804,
  "Ð²Ð°Ñı": 1018,
  "Ð²Ð°ÑıÑģÑĮ": 3825,
  "Ð²Ðµ": 572,
  "Ð²ÐµÐ´": 1087,
  "Ð²ÐµÐ´ÐµÐ½Ð¸Ðµ": 12916,
  "Ð²ÐµÐ´ÐµÐ½Ð¸Ñı": 12378,
  "Ð²ÐµÐ´Ð¸ÑĤÐµ": 16137,
  "Ð²ÐµÐ´Ð¾Ð¼": 5950,
  "Ð²ÐµÐ´ÑĮ": 29713,
  "Ð²ÐµÐµ": 14496,
  "Ð²ÐµÐ¶": 11809,
  "Ð²ÐµÐ·": 6385,
  "Ð²ÐµÐ·Ð´": 45329,
  "Ð²ÐµÐ·Ð´Ñĭ": 30832,
  "Ð²ÐµÐ·Ð»Ð¸": 22056,
  "Ð²ÐµÐ·ÑĤÐ¸": 21152,
  "Ð²ÐµÐ¹": 4876,
  "Ð²ÐµÐº": 36540,
  "Ð²ÐµÐºÐ°": 36328,
  "Ð²ÐµÐ»": 4735,
  "Ð²ÐµÐ»Ð°": 10571,
  "Ð²ÐµÐ»Ð¸": 2053,
  "Ð²ÐµÐ»Ð¸ÑģÑĮ": 47294,
  "Ð²ÐµÐ»Ð¾": 33182,
  "Ð²ÐµÐ»ÑĮ": 33755,
  "Ð²ÐµÐ½": 4886,
  "Ð²ÐµÐ½Ð¸": 17553,
  "Ð²ÐµÐ½Ð½Ð¾": 23294,
  "Ð²ÐµÐ½ÑĤÐ°": 21657,
  "Ð²ÐµÐ½ÑĨÐ¸Ð¸": 33461,
  "Ð²ÐµÑĢ": 603,
  "Ð²ÐµÑĢÐ°": 12885,
  "Ð²ÐµÑĢÐµ": 18493,
  "Ð²ÐµÑĢÐ¶ÐµÐ½": 23202,
  "Ð²ÐµÑĢÐ¸": 10844,
  "Ð²ÐµÑĢÐ½Ð¾": 39779,
  "Ð²ÐµÑĢÐ½Ð¾Ðµ": 7130,
  "Ð²ÐµÑĢÐ¾": 46800,
  "Ð²ÐµÑĢÑģ": 3060,
  "Ð²ÐµÑĢÑħ": 2755,
  "Ð²ÐµÑĢÑħÑĥ": 19302,
  "Ð²ÐµÑĢÑĮ": 14625,
  "Ð²ÐµÑģ": 7166,
  "Ð²ÐµÑģÐµÐ»": 46251,
  "Ð²ÐµÑģÑĤ": 1361,
  "Ð²ÐµÑģÑĤÐ¸": 2155,
  "Ð²ÐµÑĤ": 599,
  "Ð²ÐµÑĤÐ°": 8634,
  "Ð²ÐµÑĤÐµ": 37455,
  "Ð²ÐµÑĤÑģÑı": 40687,
  "Ð²ÐµÑĤÑĭ": 31703,
  "Ð²ÐµÑĨ": 10284,
  "Ð²ÐµÑĪÑĮ": 24622,
  "Ð²Ð·": 13887,
  "Ð²Ð·Ñı": 47656,
  "Ð²Ð¸": 432,
  "Ð²Ð¸Ð°": 25684,
  "Ð²Ð¸Ð²": 5277,
  "Ð²Ð¸Ð²Ð°Ð»": 26984,
  "Ð²Ð¸Ð²ÑĪÐ¸Ð¹": 49317,
  "Ð²Ð¸Ð²ÑĪÐ¸ÑģÑĮ": 29665,
  "Ð²Ð¸Ð³": 7020,
  "Ð²Ð¸Ð³Ð°": 2542,
  "Ð²Ð¸Ð³Ð°Ð»Ð¸ÑģÑĮ": 48440,
  "Ð²Ð¸Ð´": 1816,
  "Ð²Ð¸Ð´Ð°": 18522,
  "Ð²Ð¸Ð´ÐµÐ½": 40332,
  "Ð²Ð¸Ð´ÐµÐ¾": 41054,
  "Ð²Ð¸Ð´ÐµÑĤ": 13104,
  "Ð²Ð¸Ð´ÐµÑĤÐµÐ»ÑĮ": 14855,
  "Ð²Ð¸Ð´Ð¸Ð¼": 8203,
  "Ð²Ð¸Ð´Ð¸Ð¼Ð¾": 46894,
  "Ð²Ð¸Ð´Ð¸Ð¼Ð¾Ð¼Ñĥ": 17616,
  "Ð²Ð¸Ð´Ð½Ð¾": 14729,
  "Ð²Ð¸Ð´Ñĥ": 3574,
  "Ð²Ð¸Ðµ": 17165,
  "Ð²Ð¸ÐµÐ¼": 35934,
  "Ð²Ð¸Ð¶": 1447,
  "Ð²Ð¸Ð¶ÐµÐ½Ð¸Ðµ": 21064,
  "Ð²Ð¸Ð¶ÐµÐ½Ð¸Ñı": 30525,
  "Ð²Ð¸Ð¶Ñĥ": 15253,
  "Ð²Ð¸Ð·": 4207,
  "Ð²Ð¸Ð·Ð¸": 8693,
  "Ð²Ð¸Ð·Ð¸Ð¸": 13578,
  "Ð²Ð¸Ð·Ð¸Ð¾Ð½": 15275,
  "Ð²Ð¸Ð·Ð¾ÑĢ": 48991,
  "Ð²Ð¸Ð¸": 9742,
  "Ð²Ð¸Ð¹": 17502,
  "Ð²Ð¸Ðº": 21540,
  "Ð²Ð¸ÐºÐ°": 47293,
  "Ð²Ð¸ÐºÐ¸": 33961,
  "Ð²Ð¸Ð»": 9838,
  "Ð²Ð¸Ð»Ð°": 2441,
  "Ð²Ð¸Ð»Ð°ÑģÑĮ": 8438,
  "Ð²Ð¸Ð»Ð¸": 2509,
  "Ð²Ð¸Ð»Ð¸ÑģÑĮ": 11473,
  "Ð²Ð¸Ð»ÑģÑı": 48325,
  "Ð²Ð¸Ð»ÑĮ": 18609,
  "Ð²Ð¸Ð½": 2555,
  "Ð²Ð¸Ð½Ð°": 14127,
  "Ð²Ð¸Ð½Ð¸": 25396,
  "Ð²Ð¸Ð½Ð¸ÑĤÐµ": 19737,
  "Ð²Ð¸Ð½Ñĥ": 6252,
  "Ð²Ð¸Ð½ÑĥÐ»": 20514,
  "Ð²Ð¸Ð½ÑĥÑĤ": 19120,
  "Ð²Ð¸Ð½Ñĭ": 45368,
  "Ð²Ð¸ÑĢÑĥÑģ": 31756,
  "Ð²Ð¸Ñģ": 1598,
  "Ð²Ð¸ÑģÐ°": 27449,
  "Ð²Ð¸ÑģÐ¸ÑĤ": 48946,
  "Ð²Ð¸ÑģÑĤ": 20670,
  "Ð²Ð¸ÑģÑĤÐ¾": 43653,
  "Ð²Ð¸ÑģÑĤÑĭ": 50243,
  "Ð²Ð¸ÑĤ": 1478,
  "Ð²Ð¸ÑĤÐ°Ð½": 28438,
  "Ð²Ð¸ÑĤÐ¸Ðµ": 21855,
  "Ð²Ð¸ÑĤÑĮ": 1308,
  "Ð²Ð¸ÑĤÑĮÑģÑı": 7115,
  "Ð²Ð¸ÑĨÐ°": 10491,
  "Ð²Ð¸ÑĨÑĭ": 28683,
  "Ð²Ð¸Ñĩ": 3257,
  "Ð²Ð¸ÑĩÐ°": 9021,
  "Ð²Ð¸ÑĩÐµÐ¼": 48893,
  "Ð²Ð¸ÑĩÐ¸": 48560,
  "Ð²Ð¸ÑĩÑĥ": 38708,
  "Ð²Ð¸ÑĪÑĮ": 28268,
  "Ð²Ð¸Ñİ": 28719,
  "Ð²Ð¸Ñı": 10705,
  "Ð²ÐºÐ°": 18505,
  "Ð²ÐºÐ°Ð·": 22117,
  "Ð²ÐºÐ¸": 12650,
  "Ð²ÐºÐ»Ñİ": 25897,
  "Ð²ÐºÐ»ÑİÑĩÐ°Ñı": 34655,
  "Ð²ÐºÑĥ": 16275,
  "Ð²Ð»Ð°": 27946,
  "Ð²Ð»Ðµ": 1831,
  "Ð²Ð»ÐµÐº": 9721,
  "Ð²Ð»ÐµÐºÐ°": 3401,
  "Ð²Ð»ÐµÐ½Ð¸Ðµ": 17493,
  "Ð²Ð»ÐµÐ½Ð¸Ñı": 40938,
  "Ð²Ð»ÐµÑĩÑĮ": 16338,
  "Ð²Ð»Ñı": 890,
  "Ð²Ð»ÑıÐµÑĤ": 36427,
  "Ð²Ð»ÑıÐµÑĤÑģÑı": 23993,
  "Ð²Ð¼Ðµ": 36197,
  "Ð²Ð½Ðµ": 23411,
  "Ð²Ð½Ð¾": 1147,
  "Ð²Ð½Ð¾Ð¹": 30376,
  "Ð²Ð½ÑĭÐµ": 42272,
  "Ð²Ð½ÑĭÑħ": 49886,
  "Ð²Ð¾": 429,
  "Ð²Ð¾Ð±": 17932,
  "Ð²Ð¾Ð±Ð¾Ð´": 13963,
  "Ð²Ð¾Ð±Ð¾Ð´Ð°": 39220,
  "Ð²Ð¾Ð²": 6972,
  "Ð²Ð¾Ð³Ð¾": 6321,
  "Ð²Ð¾Ð´": 835,
  "Ð²Ð¾Ð´Ð°": 6712,
  "Ð²Ð¾Ð´Ð¸ÑĤÐµÐ»ÑĮ": 27540,
  "Ð²Ð¾Ð´Ñĥ": 13231,
  "Ð²Ð¾Ð´Ñĭ": 31978,
  "Ð²Ð¾Ðµ": 1959,
  "Ð²Ð¾ÐµÐ²": 49806,
  "Ð²Ð¾Ð¶": 25639,
  "Ð²Ð¾Ð·": 1493,
  "Ð²Ð¾Ð·Ð¼Ð¾Ð¶": 12001,
  "Ð²Ð¾Ð·Ð¼Ð¾Ð¶Ð½Ð¾": 29934,
  "Ð²Ð¾Ð·ÑĮ": 5535,
  "Ð²Ð¾Ð¸": 45109,
  "Ð²Ð¾Ð¹": 1529,
  "Ð²Ð¾Ð¹Ð½Ðµ": 47101,
  "Ð²Ð¾Ðº": 7330,
  "Ð²Ð¾ÐºÐ°": 19439,
  "Ð²Ð¾ÐºÐ°ÑĤ": 40747,
  "Ð²Ð¾Ð»": 1114,
  "Ð²Ð¾Ð»Ð¶": 37498,
  "Ð²Ð¾Ð»Ð¸": 9573,
  "Ð²Ð¾Ð»Ð¸Ð»Ð°": 23545,
  "Ð²Ð¾Ð»Ð½Ð¾Ð²": 19511,
  "Ð²Ð¾Ð»Ð¾Ðº": 41686,
  "Ð²Ð¾Ð»ÑĮ": 6110,
  "Ð²Ð¾Ð»ÑĮÐ½Ð¾": 28334,
  "Ð²Ð¾Ð»ÑĮÑĤÐµ": 19473,
  "Ð²Ð¾Ð»Ñİ": 3625,
  "Ð²Ð¾Ð¼": 7557,
  "Ð²Ð¾Ð¼Ñĥ": 49365,
  "Ð²Ð¾Ð½": 10205,
  "Ð²Ð¾Ð¾Ð±ÑīÐµ": 43623,
  "Ð²Ð¾Ð¿ÑĢÐ¾Ñģ": 26533,
  "Ð²Ð¾ÑĢ": 1512,
  "Ð²Ð¾ÑĢÐ°": 41174,
  "Ð²Ð¾ÑĢÐ°ÑĩÐ¸": 9139,
  "Ð²Ð¾ÑĢÐµÑĨ": 24997,
  "Ð²Ð¾ÑĢÐ¸": 6907,
  "Ð²Ð¾ÑĢÐ¸Ð»": 24963,
  "Ð²Ð¾ÑĢÐ¸ÑĤ": 35378,
  "Ð²Ð¾ÑĢÐ¸ÑĤÑĮ": 19063,
  "Ð²Ð¾ÑĢÐ¾": 11998,
  "Ð²Ð¾ÑĢÐ¾Ð¶": 29464,
  "Ð²Ð¾ÑĢÐ¾ÑĤ": 11404,
  "Ð²Ð¾ÑĢÐ¾ÑĤÐ°": 25879,
  "Ð²Ð¾Ñģ": 6092,
  "Ð²Ð¾ÑģÐµÐ¼ÑĮ": 39105,
  "Ð²Ð¾ÑģÐ¿Ð¸ÑĤ": 48925,
  "Ð²Ð¾ÑģÑĤÐ¸": 35191,
  "Ð²Ð¾ÑģÑĤÐ¾": 16309,
  "Ð²Ð¾ÑģÑĤÐ¾Ðº": 18842,
  "Ð²Ð¾ÑģÑĤÐ¾ÐºÐ°": 34420,
  "Ð²Ð¾ÑģÑĤÐ¾ÐºÐµ": 23891,
  "Ð²Ð¾ÑģÑĤÑĮ": 26144,
  "Ð²Ð¾ÑģÑĮ": 29744,
  "Ð²Ð¾ÑĤ": 7922,
  "Ð²Ð¾ÑĩÐºÐ°": 17892,
  "Ð²Ð¾ÑĩÐºÐ¸": 19474,
  "Ð²Ð¾Ñİ": 42193,
  "Ð²Ð¾Ñı": 25914,
  "Ð²ÑĢÐ°": 1468,
  "Ð²ÑĢÐ°ÑĤ": 48459,
  "Ð²ÑĢÐµÐ´": 33160,
  "Ð²ÑĢÐµÐ¼ÐµÐ½": 23016,
  "Ð²ÑĢÐµÐ¼Ñı": 35802,
  "Ð²Ñģ": 50183,
  "Ð²ÑģÐµ": 4629,
  "Ð²ÑģÐµÐ³Ð´Ð°": 7998,
  "Ð²ÑģÐµÐ³Ð¾": 33641,
  "Ð²ÑģÐµÐ¼": 37620,
  "Ð²ÑģÐµÑħ": 46776,
  "Ð²ÑģÑı": 39365,
  "Ð²ÑģÑĳ": 25236,
  "Ð²ÑĤÐ¾ÑĢÑĭÑħ": 8677,
  "Ð²Ñĥ": 2892,
  "Ð²ÑĥÐ´": 40404,
  "Ð²ÑĥÑĤ": 31975,
  "Ð²ÑĥÑĩ": 7382,
  "Ð²ÑĥÑĩÐ¸ÑĤ": 43498,
  "Ð²ÑĥÑİ": 9976,
  "Ð²ÑĪ": 906,
  "Ð²ÑĪÐ°Ñı": 4725,
  "Ð²ÑĪÐ°ÑıÑģÑı": 12367,
  "Ð²ÑĪÐµÐ³Ð¾": 3471,
  "Ð²ÑĪÐµÐ³Ð¾ÑģÑı": 9506,
  "Ð²ÑĪÐµÐµ": 10609,
  "Ð²ÑĪÐµÐµÑģÑı": 20139,
  "Ð²ÑĪÐµÐ¹": 4136,
  "Ð²ÑĪÐµÐ¹ÑģÑı": 9705,
  "Ð²ÑĪÐµÐ¼": 17619,
  "Ð²ÑĪÐµÐ¼ÑģÑı": 20849,
  "Ð²ÑĪÐµÐ¼Ñĥ": 10596,
  "Ð²ÑĪÐµÐ¼ÑĥÑģÑı": 31119,
  "Ð²ÑĪÐ¸Ðµ": 2997,
  "Ð²ÑĪÐ¸ÐµÑģÑı": 7641,
  "Ð²ÑĪÐ¸Ð¹": 2192,
  "Ð²ÑĪÐ¸Ð¹ÑģÑı": 6373,
  "Ð²ÑĪÐ¸Ð¼": 6939,
  "Ð²ÑĪÐ¸Ð¼Ð¸": 16799,
  "Ð²ÑĪÐ¸Ð¼Ð¸ÑģÑı": 41265,
  "Ð²ÑĪÐ¸Ð¼ÑģÑı": 14749,
  "Ð²ÑĪÐ¸ÑģÑĮ": 2340,
  "Ð²ÑĪÐ¸Ñħ": 2686,
  "Ð²ÑĪÐ¸ÑħÑģÑı": 7406,
  "Ð²ÑĪÑĥÑİ": 6968,
  "Ð²ÑĪÑĥÑİÑģÑı": 14746,
  "Ð²Ñĭ": 594,
  "Ð²ÑĭÐ±Ð¾ÑĢ": 23316,
  "Ð²ÑĭÐµ": 2011,
  "Ð²ÑĭÐ¹": 2468,
  "Ð²ÑĭÐ¼": 3580,
  "Ð²ÑĭÐ¼Ð¸": 6887,
  "Ð²ÑĭÑĢ": 16818,
  "Ð²ÑĭÑģ": 20695,
  "Ð²ÑĭÑģÐ¾Ðº": 44272,
  "Ð²ÑĭÑħ": 2688,
  "Ð²ÑĭÑħÐ¾Ð´": 35217,
  "Ð²ÑĭÑĩÐ°Ð¹": 8632,
  "Ð²ÑĭÑĪÐµ": 11249,
  "Ð²ÑĮ": 33680,
  "Ð²ÑĮÑİ": 7350,
  "Ð²Ñı": 2261,
  "Ð²ÑıÐ·": 6089,
  "Ð²ÑıÑĤ": 14906,
  "Ð²ÑıÑĤÐ¸": 19700,
  "Ð²ÑıÑĤÐ¾Ð¹": 29166,
  "Ð²ÑıÑī": 3995,
  "Ð²ÑĳÐ»": 43224,
  "Ð²ÑĳÑĢ": 10632,
  "Ð³": 298,
  "Ð³Ð°": 496,
  "Ð³Ð°Ð´": 6011,
  "Ð³Ð°Ð´ÐºÐ°": 49254,
  "Ð³Ð°ÐµÑĤ": 5633,
  "Ð³Ð°ÐµÑĤÑģÑı": 13213,
  "Ð³Ð°Ð·": 17516,
  "Ð³Ð°Ð¹": 20478,
  "Ð³Ð°Ð¹ÑĤÐµ": 44110,
  "Ð³Ð°Ð»": 4180,
  "Ð³Ð°Ð»Ð°": 15645,
  "Ð³Ð°Ð»Ð¸": 7566,
  "Ð³Ð°Ð»Ð¸ÑģÑĮ": 35326,
  "Ð³Ð°Ð»Ð¾": 43208,
  "Ð³Ð°Ð»ÑģÑı": 36258,
  "Ð³Ð°Ð»ÑĮ": 20038,
  "Ð³Ð°Ð¼": 11539,
  "Ð³Ð°Ð¼Ð¸": 4548,
  "Ð³Ð°Ð½": 3496,
  "Ð³Ð°Ð½Ð°": 19179,
  "Ð³Ð°Ð½Ð¸": 1145,
  "Ð³Ð°Ð½Ð¾Ð²": 5597,
  "Ð³Ð°Ð½ÑĤ": 40509,
  "Ð³Ð°Ð½Ñĭ": 28865,
  "Ð³Ð°ÑĢ": 5103,
  "Ð³Ð°ÑĢÐ°": 32297,
  "Ð³Ð°ÑĢÐ´": 28128,
  "Ð³Ð°Ñģ": 32765,
  "Ð³Ð°ÑĤÑĮ": 4633,
  "Ð³Ð°ÑĤÑĮÑģÑı": 17463,
  "Ð³Ð°Ñħ": 6219,
  "Ð³Ð°Ñİ": 34750,
  "Ð³Ð°ÑİÑĤ": 9386,
  "Ð³Ð°ÑİÑĤÑģÑı": 21610,
  "Ð³Ð°Ñı": 9813,
  "Ð³Ð³": 16371,
  "Ð³Ð³Ð¸": 36869,
  "Ð³Ð´Ð°": 1300,
  "Ð³Ð´Ðµ": 6766,
  "Ð³Ðµ": 1623,
  "Ð³ÐµÐ¹": 4029,
  "Ð³ÐµÐ»ÑĮ": 12599,
  "Ð³ÐµÐ½": 5542,
  "Ð³ÐµÐ½Ð°": 39446,
  "Ð³ÐµÐ½Ðµ": 46960,
  "Ð³ÐµÐ½ÐµÑĢÐ°": 30081,
  "Ð³ÐµÐ½ÑĤ": 10891,
  "Ð³ÐµÑĢ": 7606,
  "Ð³ÐµÑĢÐ°": 29553,
  "Ð³ÐµÑĢÐ¾": 32400,
  "Ð³ÐµÑĤÐ°": 26141,
  "Ð³ÐµÑĤÐ¸ÑĩÐµÑģÐº": 31573,
  "Ð³Ð¸": 611,
  "Ð³Ð¸Ð±": 17054,
  "Ð³Ð¸Ð±Ð°": 21452,
  "Ð³Ð¸Ð²Ð°ÐµÑĤ": 18765,
  "Ð³Ð¸Ð²Ð°Ð»": 38178,
  "Ð³Ð¸Ð²Ð°Ð»Ð¸": 47158,
  "Ð³Ð¸Ð²Ð°ÑĤÑĮ": 26367,
  "Ð³Ð¸Ð²Ð°ÑİÑĤ": 39078,
  "Ð³Ð¸Ð²Ð°Ñı": 19530,
  "Ð³Ð¸Ð´": 34115,
  "Ð³Ð¸Ðµ": 30721,
  "Ð³Ð¸ÐµÐ¹": 42466,
  "Ð³Ð¸Ð·": 23848,
  "Ð³Ð¸Ð¸": 3007,
  "Ð³Ð¸Ð¹": 14244,
  "Ð³Ð¸Ð¼": 43544,
  "Ð³Ð¸Ð¼Ð¸": 4800,
  "Ð³Ð¸Ð½": 2671,
  "Ð³Ð¸Ð½Ð°": 15762,
  "Ð³Ð¸Ð½Ñı": 42437,
  "Ð³Ð¸Ð¾Ð·": 34874,
  "Ð³Ð¸ÑĤÐµ": 46276,
  "Ð³Ð¸Ñİ": 17772,
  "Ð³Ð¸Ñı": 4586,
  "Ð³Ð»": 38749,
  "Ð³Ð»Ð°": 2166,
  "Ð³Ð»Ð°Ð²": 12409,
  "Ð³Ð»Ð°Ñģ": 36454,
  "Ð³Ð»Ð¸": 2545,
  "Ð³Ð»Ð¸Ð¹": 4145,
  "Ð³Ð»Ð¾": 40933,
  "Ð³Ð»ÑĥÐ±": 25186,
  "Ð³Ð»ÑĥÐ±ÑĮ": 35695,
  "Ð³Ð»Ñı": 1077,
  "Ð³Ð»ÑıÐ´": 12649,
  "Ð³Ð»ÑıÐ´Ñĭ": 5806,
  "Ð³Ð½ÑĥÐ²": 26957,
  "Ð³Ð½ÑĥÐ»": 10657,
  "Ð³Ð½ÑĥÐ»Ð°": 19740,
  "Ð³Ð½ÑĥÐ»Ð¸": 47905,
  "Ð³Ð½ÑĥÑĤÑĮ": 11710,
  "Ð³Ð¾": 379,
  "Ð³Ð¾Ð²": 1888,
  "Ð³Ð¾Ð²Ð°": 40283,
  "Ð³Ð¾Ð²Ð°ÑĢÐ¸": 41166,
  "Ð³Ð¾Ð²Ðµ": 26489,
  "Ð³Ð¾Ð²Ð¾Ð³Ð¾": 28488,
  "Ð³Ð¾Ð²Ð¾Ðµ": 46053,
  "Ð³Ð¾Ð²Ð¾ÑĢ": 4447,
  "Ð³Ð¾Ð²Ð¾ÑĢÑĭ": 45564,
  "Ð³Ð¾Ð´": 871,
  "Ð³Ð¾Ð´Ð°": 8010,
  "Ð³Ð¾Ð´Ð°ÑĢ": 2367,
  "Ð³Ð¾Ð´Ð½Ð¾": 4550,
  "Ð³Ð¾Ð´Ð½Ñı": 1341,
  "Ð³Ð¾Ð´Ñĥ": 29371,
  "Ð³Ð¾Ð´Ñĭ": 39929,
  "Ð³Ð¾Ðµ": 4178,
  "Ð³Ð¾Ð¹": 10626,
  "Ð³Ð¾Ð»": 9131,
  "Ð³Ð¾Ð»Ð¾Ð²": 12769,
  "Ð³Ð¾Ð»Ð¾Ñģ": 28849,
  "Ð³Ð¾Ð»Ð¾ÑģÐ°": 47470,
  "Ð³Ð¾Ð»ÑĥÐ±": 21903,
  "Ð³Ð¾Ð»ÑĮ": 14292,
  "Ð³Ð¾Ð¼": 4703,
  "Ð³Ð¾Ð½": 5443,
  "Ð³Ð¾Ð½Ð°": 13577,
  "Ð³Ð¾Ð½Ð¾Ð¼": 32799,
  "Ð³Ð¾ÑĢ": 1762,
  "Ð³Ð¾ÑĢÐ°": 8899,
  "Ð³Ð¾ÑĢÐµ": 10435,
  "Ð³Ð¾ÑĢÐ¸": 31449,
  "Ð³Ð¾ÑĢÐ¸ÑĤ": 14997,
  "Ð³Ð¾ÑĢÐ¾Ð´": 3116,
  "Ð³Ð¾ÑĢÐ¾Ð´Ð°": 21936,
  "Ð³Ð¾ÑĢÐ¾Ð´ÑģÐºÐ¾Ð¹": 21554,
  "Ð³Ð¾ÑĢÑĮ": 35598,
  "Ð³Ð¾ÑĢÑı": 26469,
  "Ð³Ð¾Ñģ": 10641,
  "Ð³Ð¾ÑģÑĥÐ´Ð°ÑĢ": 22179,
  "Ð³Ð¾ÑĤ": 6705,
  "Ð³Ð¾ÑĤÐ°Ð²Ð»Ð¸": 12757,
  "Ð³Ð¾ÑĤÐ¾Ð²": 1479,
  "Ð³Ð¾ÑĤÐ¾Ð²Ð»ÐµÐ½Ð¸Ðµ": 26380,
  "Ð³Ð¾ÑĤÑĭ": 28246,
  "Ð³ÑĢ": 21183,
  "Ð³ÑĢÐ°": 943,
  "Ð³ÑĢÐ°Ð²": 33022,
  "Ð³ÑĢÐ°Ð´": 5565,
  "Ð³ÑĢÐ°Ð´Ð°": 16471,
  "Ð³ÑĢÐ°Ð´Ðµ": 23017,
  "Ð³ÑĢÐ°Ð»": 40225,
  "Ð³ÑĢÐ°Ð¼": 12876,
  "Ð³ÑĢÐ°Ð½": 14036,
  "Ð³ÑĢÐ°Ð½Ð¸": 26811,
  "Ð³ÑĢÐ°ÑĤÑĮ": 17336,
  "Ð³ÑĢÐ°ÑĦ": 21616,
  "Ð³ÑĢÐ°ÑĦÐ¸": 31191,
  "Ð³ÑĢÐ°ÑĨÐ¸Ð¸": 15046,
  "Ð³ÑĢÐµ": 14209,
  "Ð³ÑĢÐµÐ´Ð¸": 15820,
  "Ð³ÑĢÐµÐ´Ð¸ÐµÐ½ÑĤÑĭ": 44913,
  "Ð³ÑĢÐ¸": 12089,
  "Ð³ÑĢÐ¾Ð±": 24577,
  "Ð³ÑĢÐ¾Ð¼": 36898,
  "Ð³ÑĢÑĥ": 25515,
  "Ð³ÑĢÑĥÐ·": 14392,
  "Ð³ÑĢÑĥÐ·ÐºÐ°": 43661,
  "Ð³ÑĢÑĥÐ¿": 20249,
  "Ð³ÑĢÑĥÐ¿Ð¿Ð°": 45826,
  "Ð³ÑĢÑĥÐ¿Ð¿Ñĭ": 36818,
  "Ð³ÑĢÑĭ": 11306,
  "Ð³Ñģ": 45407,
  "Ð³Ñĥ": 973,
  "Ð³ÑĥÐ±": 9927,
  "Ð³ÑĥÐ·": 45360,
  "Ð³ÑĥÐ»": 47332,
  "Ð³ÑĥÐ»Ð¸": 10360,
  "Ð³ÑĥÐ»Ñı": 47333,
  "Ð³ÑĥÐ»ÑıÑĢ": 26857,
  "Ð³ÑĥÐ½": 14890,
  "Ð³ÑĥÐ½Ð°": 43093,
  "Ð³ÑĥÑģÑĤ": 48422,
  "Ð³ÑĥÑģÑĤÐ°": 40331,
  "Ð³ÑĥÑĤ": 19609,
  "Ð³ÑĥÑĪ": 27063,
  "Ð³Ñĭ": 23216,
  "Ð´": 281,
  "Ð´Ð°": 348,
  "Ð´Ð°Ð²": 8974,
  "Ð´Ð°Ð²Ð°ÑĤÑĮ": 50149,
  "Ð´Ð°Ð²Ð½Ð°": 43962,
  "Ð´Ð°Ð²Ð½Ð¾": 11399,
  "Ð´Ð°Ð³": 6229,
  "Ð´Ð°Ð³Ð¾Ð³Ð¸": 27357,
  "Ð´Ð°ÐµÐ¼": 11750,
  "Ð´Ð°ÐµÑĤ": 2015,
  "Ð´Ð°ÐµÑĤÑģÑı": 4147,
  "Ð´Ð°Ð¶Ðµ": 20167,
  "Ð´Ð°Ð¹": 13715,
  "Ð´Ð°Ð¹ÑĤÐµ": 15391,
  "Ð´Ð°Ðº": 12741,
  "Ð´Ð°Ð»": 2189,
  "Ð´Ð°Ð»Ð°": 5374,
  "Ð´Ð°Ð»ÐµÐµ": 20661,
  "Ð´Ð°Ð»Ð¸": 3831,
  "Ð´Ð°Ð»Ð¾": 26390,
  "Ð´Ð°Ð»Ð¾ÑģÑĮ": 37665,
  "Ð´Ð°Ð»ÑģÑı": 29211,
  "Ð´Ð°Ð»ÑĮ": 19324,
  "Ð´Ð°Ð¼": 4572,
  "Ð´Ð°Ð¼Ð¸": 5150,
  "Ð´Ð°Ð½": 1287,
  "Ð´Ð°Ð½Ð°": 15051,
  "Ð´Ð°Ð½Ðµ": 37675,
  "Ð´Ð°Ð½Ð¸Ðµ": 3085,
  "Ð´Ð°Ð½Ð¸ÐµÐ¼": 19631,
  "Ð´Ð°Ð½Ð¸Ð¸": 7720,
  "Ð´Ð°Ð½Ð¸Ð¹": 6933,
  "Ð´Ð°Ð½Ð¸Ñİ": 30211,
  "Ð´Ð°Ð½Ð¸Ñı": 2639,
  "Ð´Ð°Ð½Ð½Ð°Ñı": 34304,
  "Ð´Ð°Ð½Ð½Ð¾": 43617,
  "Ð´Ð°Ð½Ð½Ð¾Ð³Ð¾": 36015,
  "Ð´Ð°Ð½Ð½Ð¾Ðµ": 33207,
  "Ð´Ð°Ð½Ð½Ð¾Ð¹": 29892,
  "Ð´Ð°Ð½Ð½ÑĭÐµ": 21105,
  "Ð´Ð°Ð½Ð½ÑĭÐ¹": 21386,
  "Ð´Ð°Ð½Ð½ÑĭÐ¼": 36813,
  "Ð´Ð°Ð½Ð½ÑĭÑħ": 20850,
  "Ð´Ð°Ð½Ð¾": 42249,
  "Ð´Ð°Ð½Ð¾Ð²": 47208,
  "Ð´Ð°Ð½ÑĤ": 31466,
  "Ð´Ð°ÑĢ": 2666,
  "Ð´Ð°ÑĢÐ°": 31687,
  "Ð´Ð°ÑĢÐ¾Ð¼": 34209,
  "Ð´Ð°ÑĢÑĮ": 50000,
  "Ð´Ð°ÑĤ": 3813,
  "Ð´Ð°ÑĤÐµÐ»ÐµÐ¹": 22177,
  "Ð´Ð°ÑĤÐµÐ»ÐµÐ¼": 24592,
  "Ð´Ð°ÑĤÐµÐ»Ð¸": 23432,
  "Ð´Ð°ÑĤÐµÐ»ÑĮ": 5209,
  "Ð´Ð°ÑĤÐµÐ»ÑĮÑģÑĤÐ²Ð¾": 37542,
  "Ð´Ð°ÑĤÐµÐ»Ñı": 48629,
  "Ð´Ð°ÑĤÑĭ": 36910,
  "Ð´Ð°ÑĤÑĮ": 1332,
  "Ð´Ð°ÑĤÑĮÑģÑı": 10565,
  "Ð´Ð°Ñħ": 5690,
  "Ð´Ð°ÑĨÐ¸Ð¸": 8002,
  "Ð´Ð°Ñĩ": 37956,
  "Ð´Ð°ÑĩÐ°": 13652,
  "Ð´Ð°ÑĩÐ¸": 13676,
  "Ð´Ð°Ñİ": 14211,
  "Ð´Ð°ÑİÑĤ": 3559,
  "Ð´Ð°ÑİÑĤÑģÑı": 9885,
  "Ð´Ð°Ñı": 5696,
  "Ð´Ð°ÑıÑģÑĮ": 27676,
  "Ð´Ð²": 13248,
  "Ð´Ð²Ð°": 10579,
  "Ð´Ð²Ðµ": 17596,
  "Ð´Ð²Ð¸Ð³": 40441,
  "Ð´Ð²Ð¸Ð³Ð°": 34181,
  "Ð´Ð²Ð¾": 11031,
  "Ð´Ð²Ð¾Ð¸Ñĩ": 12317,
  "Ð´Ð²Ð¾Ð¸ÑĩÐ½": 20017,
  "Ð´Ð²Ð¾Ð¸ÑĩÐ½Ð¾Ðµ": 21730,
  "Ð´Ð²ÑĥÑħ": 40783,
  "Ð´Ðµ": 491,
  "Ð´ÐµÐ±": 7744,
  "Ð´ÐµÐ²": 6505,
  "Ð´ÐµÐ²ÑĪÐ¸ÑģÑĮ": 50198,
  "Ð´ÐµÐ²ÑıÑĤÑĮ": 40776,
  "Ð´ÐµÐ´": 44852,
  "Ð´ÐµÐµÐ²": 40719,
  "Ð´ÐµÐ¹": 4698,
  "Ð´ÐµÐ¹ÑģÑĤÐ²": 4977,
  "Ð´ÐµÐºÑģ": 36066,
  "Ð´ÐµÐ»": 579,
  "Ð´ÐµÐ»Ð°": 2266,
  "Ð´ÐµÐ»Ð°ÑģÑĮ": 25955,
  "Ð´ÐµÐ»ÐµÑĨ": 14779,
  "Ð´ÐµÐ»Ð¸": 2374,
  "Ð´ÐµÐ»Ð¸ÑģÑĮ": 49344,
  "Ð´ÐµÐ»Ð¾": 25228,
  "Ð´ÐµÐ»ÑģÑı": 16568,
  "Ð´ÐµÐ»ÑĮ": 2106,
  "Ð´ÐµÐ»Ñı": 46413,
  "Ð´ÐµÐ¼": 2581,
  "Ð´ÐµÐ¼Ð¾ÐºÑĢÐ°": 21350,
  "Ð´ÐµÐ½": 2116,
  "Ð´ÐµÐ½Ð°": 11871,
  "Ð´ÐµÐ½Ðµ": 48835,
  "Ð´ÐµÐ½ÑĤ": 46703,
  "Ð´ÐµÐ½ÑĨÐ¸Ð°Ð»ÑĮ": 24389,
  "Ð´ÐµÐ½ÑĮ": 16991,
  "Ð´ÐµÐ¾": 14778,
  "Ð´ÐµÐ¿": 25725,
  "Ð´ÐµÑĢ": 954,
  "Ð´ÐµÑĢÐ°": 9472,
  "Ð´ÐµÑĢÐµ": 39137,
  "Ð´ÐµÑĢÐ¶": 1625,
  "Ð´ÐµÑĢÐ¶Ð°": 6526,
  "Ð´ÐµÑĢÐ¶Ð°Ð²": 43056,
  "Ð´ÐµÑĢÐ¶Ð¸": 2621,
  "Ð´ÐµÑĢÐ¶ÐºÐ°": 30891,
  "Ð´ÐµÑĢÐ»Ð°Ð½": 25526,
  "Ð´ÐµÑĢÐ¾Ð²": 15482,
  "Ð´ÐµÑĢÐ¾Ð¼": 34648,
  "Ð´ÐµÑĢÑĥ": 48403,
  "Ð´ÐµÑĢÑĭ": 21771,
  "Ð´ÐµÑģ": 34959,
  "Ð´ÐµÑģÑĮ": 1244,
  "Ð´ÐµÑģÑı": 9620,
  "Ð´ÐµÑģÑıÑĤ": 4767,
  "Ð´ÐµÑģÑıÑĤÐ¸": 13898,
  "Ð´ÐµÑģÑıÑĤÑĭÑħ": 35626,
  "Ð´ÐµÑĤ": 964,
  "Ð´ÐµÑĤÐµ": 25191,
  "Ð´ÐµÑĤÑģÑı": 49399,
  "Ð´ÐµÑĤÑĮ": 1890,
  "Ð´ÐµÑĤÑĮÑģÑı": 31303,
  "Ð´ÐµÑĨ": 21399,
  "Ð´ÐµÑĪ": 17569,
  "Ð´ÐµÑĪÑĮ": 9289,
  "Ð´Ð¶": 2290,
  "Ð´Ð¶Ð°": 17174,
  "Ð´Ð¶Ð°Ð½Ð°": 35627,
  "Ð´Ð¶Ðµ": 24585,
  "Ð´Ð¶ÐµÑĢ": 33246,
  "Ð´Ð¶ÐµÑĤ": 22722,
  "Ð´Ð¶Ð¸": 16854,
  "Ð´Ð¶Ð¾": 44633,
  "Ð´Ð·": 37323,
  "Ð´Ð·Ðµ": 23952,
  "Ð´Ð¸": 518,
  "Ð´Ð¸Ð²": 11323,
  "Ð´Ð¸Ð³": 39146,
  "Ð´Ð¸Ðµ": 34807,
  "Ð´Ð¸ÐµÐ¹": 49227,
  "Ð´Ð¸ÐµÐ¼": 34217,
  "Ð´Ð¸Ð¸": 3955,
  "Ð´Ð¸Ð¹": 11431,
  "Ð´Ð¸Ðº": 9925,
  "Ð´Ð¸ÐºÐ°": 30929,
  "Ð´Ð¸Ð»": 8177,
  "Ð´Ð¸Ð»Ð°": 11816,
  "Ð´Ð¸Ð»Ð°ÑģÑĮ": 22779,
  "Ð´Ð¸Ð»Ð¸": 7825,
  "Ð´Ð¸Ð»Ð¸ÑģÑĮ": 20590,
  "Ð´Ð¸Ð¼": 17119,
  "Ð´Ð¸Ð½": 1392,
  "Ð´Ð¸Ð½Ð°": 3747,
  "Ð´Ð¸Ð½Ð°Ñı": 25326,
  "Ð´Ð¸Ð½Ð³": 16106,
  "Ð´Ð¸Ð½Ð³Ð°": 24755,
  "Ð´Ð¸Ð½Ð¾": 6439,
  "Ð´Ð¸Ð½Ñĭ": 25073,
  "Ð´Ð¸Ð¾Ð·": 17312,
  "Ð´Ð¸ÑĢ": 15309,
  "Ð´Ð¸ÑĢÐ°": 23213,
  "Ð´Ð¸ÑĢÐµÐº": 34374,
  "Ð´Ð¸ÑĢÐµÐºÑĤÐ¾ÑĢ": 37991,
  "Ð´Ð¸ÑĢÐµÐºÑĤÐ¾ÑĢÐ°": 45494,
  "Ð´Ð¸Ñģ": 27533,
  "Ð´Ð¸ÑģÑĮ": 34678,
  "Ð´Ð¸ÑĤ": 3822,
  "Ð´Ð¸ÑĤÐµ": 8306,
  "Ð´Ð¸ÑĤÐµÑĢ": 30428,
  "Ð´Ð¸ÑĤÑĮ": 4602,
  "Ð´Ð¸ÑĤÑĮÑģÑı": 11222,
  "Ð´Ð¸ÑĪÑĮ": 6284,
  "Ð´Ð¸Ñİ": 14545,
  "Ð´Ð¸Ñı": 5705,
  "Ð´ÐºÐ¸": 36924,
  "Ð´Ð»Ð¾Ð²": 16053,
  "Ð´Ð»Ñı": 9013,
  "Ð´Ð½Ð°Ñı": 49287,
  "Ð´Ð½ÐµÐ²": 21819,
  "Ð´Ð½Ð¾": 6040,
  "Ð´Ð½Ð¾Ðµ": 36006,
  "Ð´Ð½ÑĭÐµ": 45750,
  "Ð´Ð½ÑĭÐ¹": 32472,
  "Ð´Ð½Ñı": 37489,
  "Ð´Ð¾": 692,
  "Ð´Ð¾Ð±": 8641,
  "Ð´Ð¾Ð²": 1141,
  "Ð´Ð¾Ð²Ð°": 24978,
  "Ð´Ð¾Ð²Ð°Ð»": 11530,
  "Ð´Ð¾Ð²Ð°Ð»Ð°": 26257,
  "Ð´Ð¾Ð²Ð°Ð»Ð¸": 23025,
  "Ð´Ð¾Ð²Ð°ÑĤÑĮ": 13165,
  "Ð´Ð¾Ð²Ð¸Ñĩ": 36288,
  "Ð´Ð¾Ð²Ð¾Ð¹": 32271,
  "Ð´Ð¾Ð¹": 9120,
  "Ð´Ð¾Ðº": 10385,
  "Ð´Ð¾ÐºÑģ": 21646,
  "Ð´Ð¾Ð»": 19686,
  "Ð´Ð¾Ð»Ð³Ð¾": 18924,
  "Ð´Ð¾Ð»Ð¶": 32191,
  "Ð´Ð¾Ð»ÑĮ": 36323,
  "Ð´Ð¾Ð¼": 2656,
  "Ð´Ð¾Ð¼Ð°": 31238,
  "Ð´Ð¾Ð½": 9372,
  "Ð´Ð¾Ð½Ð°": 16585,
  "Ð´Ð¾Ð¿": 49021,
  "Ð´Ð¾ÑĢ": 1536,
  "Ð´Ð¾ÑĢÐ°": 18335,
  "Ð´Ð¾ÑĢÐ¾Ð²": 7122,
  "Ð´Ð¾ÑĢÐ¾Ð¶": 27638,
  "Ð´Ð¾ÑĢÑĦ": 45890,
  "Ð´Ð¾Ñģ": 40060,
  "Ð´Ð¾ÑģÐºÐ¾Ð¿": 43942,
  "Ð´Ð¾ÑģÑĤÐ¸": 33368,
  "Ð´Ð¾ÑģÑĤÑĮ": 21130,
  "Ð´Ð¾Ñħ": 2771,
  "Ð´ÑĢÐ°": 4547,
  "Ð´ÑĢÐ°Ð²": 4076,
  "Ð´ÑĢÐ°Ð²ÑģÑĤÐ²Ñĥ": 6142,
  "Ð´ÑĢÐ°Ð²ÑģÑĤÐ²ÑĥÐ¹": 25101,
  "Ð´ÑĢÐ°Ð²ÑģÑĤÐ²ÑĥÐ¹ÑĤÐµ": 6983,
  "Ð´ÑĢÐ¾": 24722,
  "Ð´ÑĢÐ¾Ð³": 15134,
  "Ð´ÑĢÑĥÐ³": 6204,
  "Ð´ÑĢÑĥÐ³Ð¾Ð¹": 35143,
  "Ð´ÑĢÑĥÐ³Ð¾Ð¼Ñĥ": 15693,
  "Ð´ÑĤ": 25416,
  "Ð´Ñĥ": 585,
  "Ð´ÑĥÐµÑĤ": 23453,
  "Ð´ÑĥÐº": 24212,
  "Ð´ÑĥÐ¼": 3447,
  "Ð´ÑĥÐ¼Ð°": 4799,
  "Ð´ÑĥÐ¼Ð°Ð»": 39513,
  "Ð´ÑĥÐ¼Ð°Ð½": 13063,
  "Ð´ÑĥÐ¼Ð°ÑĤÑĮ": 37895,
  "Ð´ÑĥÐ¼Ð°Ñİ": 49646,
  "Ð´ÑĥÐ¼Ñĭ": 5342,
  "Ð´ÑĥÑĢÐ°": 45917,
  "Ð´ÑĥÑģ": 45674,
  "Ð´ÑĥÑĤ": 3380,
  "Ð´ÑĥÑħ": 26484,
  "Ð´ÑĥÑħÐ¾Ð²": 44363,
  "Ð´ÑĥÑĪ": 21132,
  "Ð´ÑĥÑİ": 14871,
  "Ð´ÑĥÑİÑĤ": 42303,
  "Ð´ÑĨÐ°": 37990,
  "Ð´ÑĨÐ°ÑĤ": 17528,
  "Ð´ÑĨÐ°ÑĤÐ¸": 7297,
  "Ð´ÑĨÐ°ÑĤÑĮ": 3515,
  "Ð´ÑĨÐµ": 17444,
  "Ð´Ñĭ": 670,
  "Ð´ÑĭÐ²Ð°ÑĤÑĮ": 32689,
  "Ð´ÑĭÐ¹": 46592,
  "Ð´ÑĭÐ¼": 32986,
  "Ð´ÑĭÑħ": 9456,
  "Ð´ÑĭÑħÐ°": 17115,
  "Ð´ÑĭÑħÐ°ÐµÑĤ": 46108,
  "Ð´ÑĮ": 2479,
  "Ð´ÑĮÐ±Ð°": 35297,
  "Ð´Ñį": 46407,
  "Ð´Ñİ": 11123,
  "Ð´ÑİÐ¹Ð¼": 48633,
  "Ð´Ñı": 2716,
  "Ð´ÑıÐ¼Ð¸": 46644,
  "Ð´ÑıÑĤ": 10138,
  "Ð´ÑĳÐ¼": 22468,
  "Ð´ÑĳÑĤ": 11613,
  "Ð´ÑĳÑĪÑĮ": 49214,
  "Ðµ": 264,
  "ÐµÐ±": 3670,
  "ÐµÐ²": 534,
  "ÐµÐ²Ð°": 3450,
  "ÐµÐ²Ð°Ð»": 14053,
  "ÐµÐ²Ð°Ð»Ð°": 33726,
  "ÐµÐ²Ð°Ð»Ð¸": 19626,
  "ÐµÐ²Ð°Ñı": 45070,
  "ÐµÐ²Ðµ": 28300,
  "ÐµÐ²ÐµÐ´": 37969,
  "ÐµÐ²ÐµÑĢ": 3323,
  "ÐµÐ²Ð¸": 25354,
  "ÐµÐ²Ð¸Ñĩ": 5517,
  "ÐµÐ²Ð¸ÑĩÐ°": 16950,
  "ÐµÐ²Ð¸ÑĩÑĥ": 47383,
  "ÐµÐ²Ð½Ð°": 8828,
  "ÐµÐ²Ð¾": 30441,
  "ÐµÐ²Ð¾Ð³Ð¾": 11753,
  "ÐµÐ²Ð¾Ð¹": 3672,
  "ÐµÐ²Ð¾Ð¼": 31082,
  "ÐµÐ²ÑĢÐµÐ¹": 47832,
  "ÐµÐ²ÑĢÐ¾Ð¿ÐµÐ¹": 20435,
  "ÐµÐ²ÑģÐºÐ°Ñı": 32516,
  "ÐµÐ²ÑģÐºÐ¸Ð¹": 14354,
  "ÐµÐ²ÑģÐºÐ¾Ð³Ð¾": 15523,
  "ÐµÐ²ÑģÐºÐ¾Ð¹": 32150,
  "ÐµÐ²Ñĥ": 16052,
  "ÐµÐ²ÑĥÑİ": 26771,
  "ÐµÐ²ÑĪÐµÐ¹": 48251,
  "ÐµÐ²ÑĪÐ¸Ðµ": 28777,
  "ÐµÐ²ÑĪÐ¸Ð¹": 28654,
  "ÐµÐ²ÑĪÐ¸Ñħ": 35280,
  "ÐµÐ²Ñĭ": 26911,
  "ÐµÐ²ÑĭÐµ": 11448,
  "ÐµÐ²ÑĭÐ¹": 34190,
  "ÐµÐ²ÑĭÐ¼": 13379,
  "ÐµÐ²ÑĭÐ¼Ð¸": 39055,
  "ÐµÐ²ÑĭÑħ": 9600,
  "ÐµÐ³": 3707,
  "ÐµÐ³Ð¾": 1006,
  "ÐµÐ´": 387,
  "ÐµÐ´Ð°": 7196,
  "ÐµÐ´Ð°ÑĤÑĮ": 38579,
  "ÐµÐ´Ðµ": 11142,
  "ÐµÐ´ÐµÐ»ÑĮ": 7707,
  "ÐµÐ´ÐµÐ»ÑĮÐ½Ð¸Ðº": 46715,
  "ÐµÐ´ÐµÐ¼": 32564,
  "ÐµÐ´ÐµÐ½Ð¸Ðµ": 21321,
  "ÐµÐ´ÐµÐ½ÑĤ": 32704,
  "ÐµÐ´ÐµÑĢÐ°": 2255,
  "ÐµÐ´ÐµÑĤ": 13874,
  "ÐµÐ´ÐµÑĪÑĮ": 46127,
  "ÐµÐ´Ð¶": 5422,
  "ÐµÐ´Ð¸": 2234,
  "ÐµÐ´Ð¸Ð¸": 10749,
  "ÐµÐ´Ð¸Ð¹": 24394,
  "ÐµÐ´Ð¸Ðº": 32014,
  "ÐµÐ´Ð¸Ð½": 2205,
  "ÐµÐ´Ð¸Ð½Ðµ": 24734,
  "ÐµÐ´Ð¸Ð½Ð¾": 35873,
  "ÐµÐ´Ð¸Ñİ": 29918,
  "ÐµÐ´Ð¸Ñı": 12012,
  "ÐµÐ´Ð»ÐµÐ½Ð½Ð¾": 48029,
  "ÐµÐ´Ð»Ð¸": 9040,
  "ÐµÐ´Ð»Ð¸Ð²Ð¾": 7311,
  "ÐµÐ´Ð¾": 19154,
  "ÐµÐ´Ð¾Ð²": 15642,
  "ÐµÐ´Ð¾Ð¼": 28239,
  "ÐµÐ´Ñĥ": 3481,
  "ÐµÐ´ÑĥÑĤ": 35663,
  "ÐµÐ´Ñĭ": 6552,
  "ÐµÐ´ÑĮ": 2865,
  "ÐµÐµ": 1932,
  "ÐµÐµÐ²": 35532,
  "ÐµÐµÐ²Ð°": 31147,
  "ÐµÐµÐµÐµ": 49916,
  "ÐµÐµÐº": 30216,
  "ÐµÐµÑĤ": 48780,
  "ÐµÐ¶": 3303,
  "ÐµÐ¶Ð°ÑĤÑĮ": 38463,
  "ÐµÐ¶Ð¸": 11221,
  "ÐµÐ¶Ñĥ": 24853,
  "ÐµÐ·": 511,
  "ÐµÐ·Ð´": 2128,
  "ÐµÐ·Ð´Ð°": 3860,
  "ÐµÐ·Ð´Ðµ": 4578,
  "ÐµÐ·Ð´Ð¾Ð²": 19278,
  "ÐµÐ·Ð´Ð¾Ð¼": 25306,
  "ÐµÐ·Ð´Ñĥ": 18294,
  "ÐµÐ·Ð´Ñĭ": 9906,
  "ÐµÐ·Ðµ": 38655,
  "ÐµÐ·Ð¶": 7422,
  "ÐµÐ·Ð¶Ð°": 6575,
  "ÐµÐ·Ð¶Ð°ÐµÐ¼": 39910,
  "ÐµÐ·Ð¶Ð°ÐµÑĤ": 15193,
  "ÐµÐ·Ð¶Ð°Ð¹": 46459,
  "ÐµÐ·Ð¶Ð°Ð¹ÑĤÐµ": 49335,
  "ÐµÐ·Ð¶Ð°Ð»": 18685,
  "ÐµÐ·Ð¶Ð°Ð»Ð¸": 27687,
  "ÐµÐ·Ð¶Ð°ÑĤÑĮ": 15624,
  "ÐµÐ·Ð¶Ð°Ñİ": 35401,
  "ÐµÐ·Ð¶Ð°ÑİÑĤ": 20178,
  "ÐµÐ·Ð¶Ð°Ñı": 30451,
  "ÐµÐ·Ð¸": 32874,
  "ÐµÐ·Ð¸Ð¸": 29576,
  "ÐµÐ·Ð¸Ñı": 47428,
  "ÐµÐ·Ð¾Ð½": 32899,
  "ÐµÐ·Ñĥ": 25834,
  "ÐµÐ·Ñĭ": 23040,
  "ÐµÐ¸": 44257,
  "ÐµÐ¹": 360,
  "ÐµÐ¹ÐºÐ°": 39915,
  "ÐµÐ¹ÐºÐ¸": 16944,
  "ÐµÐ¹Ð½": 7189,
  "ÐµÐ¹Ñģ": 14525,
  "ÐµÐ¹ÑģÐ±ÑĥÐºÐµ": 41037,
  "ÐµÐ¹ÑģÑĤÐ²": 1025,
  "ÐµÐ¹ÑĤ": 30541,
  "ÐµÐ¹ÑĤÐµ": 15369,
  "ÐµÐ¹ÑĩÐ°Ñģ": 1183,
  "ÐµÐ¹ÑĪÐ¸Ð¹": 42336,
  "ÐµÐº": 437,
  "ÐµÐºÐ²Ð°": 31642,
  "ÐµÐºÐ²Ð°ÑĤ": 13112,
  "ÐµÐºÐ²Ð°ÑĤÐ½Ð¾": 37027,
  "ÐµÐºÐµ": 8933,
  "ÐµÐºÐ»Ð°": 14979,
  "ÐµÐºÐ»Ð°Ð¼Ð°": 31242,
  "ÐµÐºÐ¾Ð¼": 6922,
  "ÐµÐºÑģ": 5998,
  "ÐµÐºÑģÐ°": 9675,
  "ÐµÐºÑģÐµ": 34279,
  "ÐµÐºÑģÐ¸": 11592,
  "ÐµÐºÑģÐ¸ÐºÐ°Ð½": 34841,
  "ÐµÐºÑģÐ¾Ð¼": 39850,
  "ÐµÐºÑģÑĥ": 19774,
  "ÐµÐºÑģÑĭ": 48616,
  "ÐµÐºÑĤ": 7326,
  "ÐµÐºÑĤÐ°": 15562,
  "ÐµÐºÑĤÐ¸": 24221,
  "ÐµÐºÑĤÐ¾ÑĢ": 21982,
  "ÐµÐºÑĥ": 5968,
  "ÐµÐ»": 314,
  "ÐµÐ»Ð°": 880,
  "ÐµÐ»Ð°ÐµÑĪÑĮ": 34881,
  "ÐµÐ»Ð°Ð¼Ð¸": 50134,
  "ÐµÐ»Ð°ÑĢÑĥ": 8706,
  "ÐµÐ»Ð°ÑģÑĮ": 14578,
  "ÐµÐ»Ðµ": 1110,
  "ÐµÐ»ÐµÐ²": 16921,
  "ÐµÐ»ÐµÐµ": 17008,
  "ÐµÐ»ÐµÐ¹": 1032,
  "ÐµÐ»ÐµÐ¼": 2503,
  "ÐµÐ»ÐµÐ½": 1835,
  "ÐµÐ»ÐµÐ½Ð¸Ðµ": 17439,
  "ÐµÐ»ÐµÐ½Ð¸Ñı": 49980,
  "ÐµÐ»ÐµÐ½Ð½Ð°Ñı": 23320,
  "ÐµÐ»ÐµÐ½Ð½Ð¾Ð¹": 10681,
  "ÐµÐ»ÐµÑģ": 46832,
  "ÐµÐ»ÐµÑĤ": 14226,
  "ÐµÐ»Ð¸": 619,
  "ÐµÐ»Ð¸Ð²Ð¾": 19007,
  "ÐµÐ»Ð¸Ðµ": 29524,
  "ÐµÐ»Ð¸Ð¸": 49851,
  "ÐµÐ»Ð¸Ð¹": 42858,
  "ÐµÐ»Ð¸ÐºÐ°": 38157,
  "ÐµÐ»Ð¸Ð»Ð°ÑģÑĮ": 25564,
  "ÐµÐ»Ð¸Ð»Ð¸": 19891,
  "ÐµÐ»Ð¸Ð»Ð¸ÑģÑĮ": 18760,
  "ÐµÐ»Ð¸Ð½": 45757,
  "ÐµÐ»Ð¸Ð½Ð°": 27838,
  "ÐµÐ»Ð¸ÑģÑĮ": 14069,
  "ÐµÐ»Ð¸ÑĤÑĮ": 38725,
  "ÐµÐ»Ð¸Ñı": 17522,
  "ÐµÐ»Ð»": 27699,
  "ÐµÐ»Ð»Ð°": 15491,
  "ÐµÐ»Ð»Ð¸": 15722,
  "ÐµÐ»Ð»Ñĭ": 45014,
  "ÐµÐ»Ð¾": 1092,
  "ÐµÐ»Ð¾Ð²": 736,
  "ÐµÐ»Ð¾Ð²Ðµ": 8863,
  "ÐµÐ»Ð¾Ð²ÐµÐº": 6335,
  "ÐµÐ»Ð¾Ð²ÐµÐºÑĥ": 46550,
  "ÐµÐ»Ð¾Ð¼": 49442,
  "ÐµÐ»Ð¾Ð¿": 38729,
  "ÐµÐ»Ð¾ÑĢÑĥÑģ": 7475,
  "ÐµÐ»Ð¾ÑģÑĮ": 3073,
  "ÐµÐ»ÑģÑı": 17945,
  "ÐµÐ»Ñĭ": 7562,
  "ÐµÐ»ÑĭÐµ": 40155,
  "ÐµÐ»ÑĭÐ¹": 36393,
  "ÐµÐ»ÑĮ": 390,
  "ÐµÐ»ÑĮÐ´": 23763,
  "ÐµÐ»ÑĮÐµ": 8546,
  "ÐµÐ»ÑĮÐ·Ñı": 2647,
  "ÐµÐ»ÑĮÐ½Ð°Ñı": 31620,
  "ÐµÐ»ÑĮÐ½Ð¾": 9826,
  "ÐµÐ»ÑĮÐ½Ð¾Ð³Ð¾": 20294,
  "ÐµÐ»ÑĮÐ½Ð¾Ðµ": 35993,
  "ÐµÐ»ÑĮÐ½Ð¾Ð¹": 19313,
  "ÐµÐ»ÑĮÐ½ÑĭÐµ": 19390,
  "ÐµÐ»ÑĮÐ½ÑĭÐ¹": 18622,
  "ÐµÐ»ÑĮÐ½ÑĭÑħ": 16194,
  "ÐµÐ»ÑĮÑİ": 32916,
  "ÐµÐ»ÑĮÑı": 13278,
  "ÐµÐ»Ñİ": 3246,
  "ÐµÐ»ÑİÐ±": 17542,
  "ÐµÐ»Ñı": 855,
  "ÐµÐ»ÑıÐ±Ð¸Ð½": 11988,
  "ÐµÐ»ÑıÐ¼": 14187,
  "ÐµÐ»ÑıÐ¼Ð¸": 9244,
  "ÐµÐ»ÑıÑħ": 7105,
  "ÐµÐ¼": 338,
  "ÐµÐ¼Ð°": 2565,
  "ÐµÐ¼Ð°ÑĤ": 19369,
  "ÐµÐ¼Ð°Ñı": 8893,
  "ÐµÐ¼Ðµ": 10810,
  "ÐµÐ¼ÐµÐ½ÑĤ": 43577,
  "ÐµÐ¼Ð¸": 40284,
  "ÐµÐ¼Ð¸Ð¸": 43297,
  "ÐµÐ¼Ð»ÐµÐ¼": 36448,
  "ÐµÐ¼Ð¾": 19959,
  "ÐµÐ¼Ð¾Ð³Ð¾": 6258,
  "ÐµÐ¼Ð¾Ðµ": 12442,
  "ÐµÐ¼Ð¾Ð¹": 5460,
  "ÐµÐ¼Ð¾Ð¼": 23237,
  "ÐµÐ¼Ð¾Ð½": 10193,
  "ÐµÐ¼Ð¾Ð½ÑģÑĤÑĢÐ¸": 13313,
  "ÐµÐ¼Ð¾ÑĢÐ¸": 45560,
  "ÐµÐ¼Ð¾ÑģÑĤÐ¸": 22977,
  "ÐµÐ¼Ð¾ÑģÑĤÑĮ": 25079,
  "ÐµÐ¼ÑģÑı": 3253,
  "ÐµÐ¼Ñĥ": 712,
  "ÐµÐ¼ÑĥÐ°Ð·ÐµÐ»ÑĮ": 49742,
  "ÐµÐ¼ÑĥÑİ": 19574,
  "ÐµÐ¼Ñĭ": 7675,
  "ÐµÐ¼ÑĭÐµ": 4182,
  "ÐµÐ¼ÑĭÐ¹": 5029,
  "ÐµÐ¼ÑĭÐ¼": 12913,
  "ÐµÐ¼ÑĭÐ¼Ð¸": 27407,
  "ÐµÐ¼ÑĭÑħ": 4096,
  "ÐµÐ¼ÑĮ": 4483,
  "ÐµÐ½": 287,
  "ÐµÐ½Ð°": 852,
  "ÐµÐ½Ð°Ð¿ÑĢÐ°Ð²": 24625,
  "ÐµÐ½Ð°ÑĢÐ¾Ð´": 44434,
  "ÐµÐ½Ð°Ñı": 36119,
  "ÐµÐ½Ð³": 37060,
  "ÐµÐ½Ð³Ð°": 36846,
  "ÐµÐ½Ð´": 10421,
  "ÐµÐ½Ð´Ð°": 50107,
  "ÐµÐ½Ð´ÑĥÑİ": 38483,
  "ÐµÐ½Ðµ": 1448,
  "ÐµÐ½ÐµÐ³": 28596,
  "ÐµÐ½ÐµÐµ": 35659,
  "ÐµÐ½ÐµÐ¹": 41437,
  "ÐµÐ½ÐµÐº": 44377,
  "ÐµÐ½ÐµÑĢÐ°": 2880,
  "ÐµÐ½ÐµÑĢÐ¸": 22058,
  "ÐµÐ½ÐµÑĨ": 14003,
  "ÐµÐ½Ð¸": 337,
  "ÐµÐ½Ð¸Ðµ": 475,
  "ÐµÐ½Ð¸ÐµÐ¼": 1033,
  "ÐµÐ½Ð¸Ð¸": 810,
  "ÐµÐ½Ð¸Ð¹": 921,
  "ÐµÐ½Ð¸Ðº": 23288,
  "ÐµÐ½Ð¸ÐºÐ¸": 34935,
  "ÐµÐ½Ð¸Ð½": 4054,
  "ÐµÐ½Ð¸Ð½Ð°": 9990,
  "ÐµÐ½Ð¸Ð½Ð³": 41393,
  "ÐµÐ½Ð¸Ð½Ð³ÑĢÐ°Ð´": 31835,
  "ÐµÐ½Ð¸ÑĤ": 14043,
  "ÐµÐ½Ð¸ÑĤÑĮ": 43955,
  "ÐµÐ½Ð¸ÑĨÐ°": 44231,
  "ÐµÐ½Ð¸ÑĨÑĭ": 22866,
  "ÐµÐ½Ð¸Ñİ": 1000,
  "ÐµÐ½Ð¸Ñı": 428,
  "ÐµÐ½Ð¸ÑıÐ¼": 8325,
  "ÐµÐ½Ð¸ÑıÐ¼Ð¸": 5859,
  "ÐµÐ½Ð¸ÑıÑħ": 5827,
  "ÐµÐ½ÐºÐ°": 11206,
  "ÐµÐ½ÐºÐ¸": 19293,
  "ÐµÐ½ÐºÐ»Ð°": 36483,
  "ÐµÐ½ÐºÐ¾": 5039,
  "ÐµÐ½ÐºÐ¾Ð²": 47904,
  "ÐµÐ½ÐºÑĥ": 28160,
  "ÐµÐ½Ð½Ð°": 40279,
  "ÐµÐ½Ð½Ð°Ñı": 3807,
  "ÐµÐ½Ð½Ð¸Ðº": 39704,
  "ÐµÐ½Ð½Ð¾": 952,
  "ÐµÐ½Ð½Ð¾Ð³Ð¾": 2578,
  "ÐµÐ½Ð½Ð¾Ðµ": 3928,
  "ÐµÐ½Ð½Ð¾Ð¹": 2177,
  "ÐµÐ½Ð½Ð¾Ð¼": 7051,
  "ÐµÐ½Ð½Ð¾Ð¼Ñĥ": 11465,
  "ÐµÐ½Ð½Ð¾ÑģÑĤÐµÐ¹": 32125,
  "ÐµÐ½Ð½Ð¾ÑģÑĤÐ¸": 3834,
  "ÐµÐ½Ð½Ð¾ÑģÑĤÑĮ": 4606,
  "ÐµÐ½Ð½Ð¾ÑģÑĤÑĮÑİ": 15835,
  "ÐµÐ½Ð½ÑĥÑİ": 5415,
  "ÐµÐ½Ð½Ñĭ": 37760,
  "ÐµÐ½Ð½ÑĭÐµ": 1568,
  "ÐµÐ½Ð½ÑĭÐ¹": 1652,
  "ÐµÐ½Ð½ÑĭÐ¼": 3577,
  "ÐµÐ½Ð½ÑĭÐ¼Ð¸": 5563,
  "ÐµÐ½Ð½ÑĭÑħ": 1514,
  "ÐµÐ½Ð¾": 1690,
  "ÐµÐ½Ð¾Ð²": 10195,
  "ÐµÐ½Ð¾Ð³Ð¾": 30495,
  "ÐµÐ½Ð¾Ðµ": 39289,
  "ÐµÐ½Ð¾Ð¹": 23276,
  "ÐµÐ½Ð¾Ðº": 10991,
  "ÐµÐ½Ð¾Ð¼": 9147,
  "ÐµÐ½Ð¾Ñģ": 14734,
  "ÐµÐ½Ñģ": 19942,
  "ÐµÐ½ÑģÐ°": 9359,
  "ÐµÐ½ÑģÐºÐ°Ñı": 43164,
  "ÐµÐ½ÑģÐºÐ¸Ð¹": 18255,
  "ÐµÐ½ÑģÐºÐ¾Ð³Ð¾": 20479,
  "ÐµÐ½ÑģÐºÐ¾Ð¹": 36718,
  "ÐµÐ½ÑģÐºÐ¾Ð¼": 42458,
  "ÐµÐ½ÑģÑĤÐ²Ð°": 31315,
  "ÐµÐ½ÑģÑĤÐ²Ð¾": 30397,
  "ÐµÐ½ÑĤ": 675,
  "ÐµÐ½ÑĤÐ°": 1374,
  "ÐµÐ½ÑĤÐ°Ð±ÐµÐ»ÑĮ": 37135,
  "ÐµÐ½ÑĤÐ°Ð¼": 17382,
  "ÐµÐ½ÑĤÐ°Ð¼Ð¸": 9341,
  "ÐµÐ½ÑĤÐ³ÐµÐ½": 23403,
  "ÐµÐ½ÑĤÐµ": 13069,
  "ÐµÐ½ÑĤÐ¸": 3480,
  "ÐµÐ½ÑĤÐ¸Ð¼ÐµÐ½ÑĤ": 42427,
  "ÐµÐ½ÑĤÐ»ÑĮ": 21817,
  "ÐµÐ½ÑĤÐ¾Ð²": 2031,
  "ÐµÐ½ÑĤÐ¾Ð¼": 8137,
  "ÐµÐ½ÑĤÑĥ": 7590,
  "ÐµÐ½ÑĤÑĭ": 2996,
  "ÐµÐ½Ñĥ": 17587,
  "ÐµÐ½ÑĥÑİ": 46676,
  "ÐµÐ½ÑĨÐ¸Ð¸": 19218,
  "ÐµÐ½ÑĨÐ¸Ñı": 35565,
  "ÐµÐ½Ñĭ": 986,
  "ÐµÐ½ÑĭÐµ": 24392,
  "ÐµÐ½ÑĭÐ¹": 26798,
  "ÐµÐ½ÑĭÐ¼": 14129,
  "ÐµÐ½ÑĭÐ¼Ð¸": 18796,
  "ÐµÐ½ÑĭÑħ": 33735,
  "ÐµÐ½ÑĮ": 519,
  "ÐµÐ½ÑĮÐµ": 5993,
  "ÐµÐ½ÑĮÐµÐ¼": 31719,
  "ÐµÐ½ÑĮÐºÐ°": 10736,
  "ÐµÐ½ÑĮÐºÐ°Ñı": 12106,
  "ÐµÐ½ÑĮÐºÐ¸": 25537,
  "ÐµÐ½ÑĮÐºÐ¸Ðµ": 15323,
  "ÐµÐ½ÑĮÐºÐ¸Ð¹": 9757,
  "ÐµÐ½ÑĮÐºÐ¸Ð¼": 33765,
  "ÐµÐ½ÑĮÐºÐ¸Ñħ": 28547,
  "ÐµÐ½ÑĮÐºÐ¾": 8261,
  "ÐµÐ½ÑĮÐºÐ¾Ð³Ð¾": 28587,
  "ÐµÐ½ÑĮÐºÐ¾Ðµ": 25648,
  "ÐµÐ½ÑĮÐºÐ¾Ð¹": 20095,
  "ÐµÐ½ÑĮÐºÑĥ": 45484,
  "ÐµÐ½ÑĮÐºÑĥÑİ": 29525,
  "ÐµÐ½ÑĮÑĪÐµ": 19371,
  "ÐµÐ½ÑĮÑİ": 6859,
  "ÐµÐ½ÑĮÑı": 10108,
  "ÐµÐ½Ñİ": 44297,
  "ÐµÐ½Ñı": 3866,
  "ÐµÐ¾": 46779,
  "ÐµÐ¿": 1763,
  "ÐµÑĢ": 324,
  "ÐµÑĢÐ°": 693,
  "ÐµÑĢÐ°Ð¼": 14796,
  "ÐµÑĢÐ°Ð¼Ð¸": 7629,
  "ÐµÑĢÐ°Ñħ": 16262,
  "ÐµÑĢÐ±": 2176,
  "ÐµÑĢÐ±Ð°": 21573,
  "ÐµÑĢÐ±Ð°Ð¹": 14210,
  "ÐµÑĢÐ±Ð°Ð¹Ð´Ð¶": 18514,
  "ÐµÑĢÐ±Ð°Ð¹Ð´Ð¶Ð°Ð½Ð°": 36806,
  "ÐµÑĢÐ±ÑĥÑĢ": 3343,
  "ÐµÑĢÐ²": 48248,
  "ÐµÑĢÐ²Ð°": 33831,
  "ÐµÑĢÐ²ÐµÑĢ": 35702,
  "ÐµÑĢÐ´": 37528,
  "ÐµÑĢÐµ": 460,
  "ÐµÑĢÐµÐ±": 28997,
  "ÐµÑĢÐµÐ±Ð¾Ð¹": 40787,
  "ÐµÑĢÐµÐ²": 8937,
  "ÐµÑĢÐµÐ´": 12140,
  "ÐµÑĢÐµÐ¶": 7667,
  "ÐµÑĢÐµÐ·": 1160,
  "ÐµÑĢÐµÐ¹": 6824,
  "ÐµÑĢÐµÐº": 39651,
  "ÐµÑĢÐµÐ¼": 12145,
  "ÐµÑĢÐµÐ¼ÐµÐ½": 32542,
  "ÐµÑĢÐµÐ¼ÐµÑĤ": 40506,
  "ÐµÑĢÐµÐ¼Ð¾": 10526,
  "ÐµÑĢÐµÐ¼Ð¾Ð½": 38341,
  "ÐµÑĢÐµÐ¼ÑģÑı": 28506,
  "ÐµÑĢÐµÐ½": 18386,
  "ÐµÑĢÐµÑĤ": 25048,
  "ÐµÑĢÐµÑĤÑģÑı": 38133,
  "ÐµÑĢÐµÑĤÑĮ": 11241,
  "ÐµÑĢÐµÑı": 24411,
  "ÐµÑĢÐ¶": 1671,
  "ÐµÑĢÐ¶Ð°": 2837,
  "ÐµÑĢÐ¸": 1596,
  "ÐµÑĢÐ¸Ðµ": 24902,
  "ÐµÑĢÐ¸Ð¼ÐµÐ½ÑĤ": 49218,
  "ÐµÑĢÐ¸ÑĤÐµ": 47651,
  "ÐµÑĢÐ¸ÑĤÑĮ": 5973,
  "ÐµÑĢÐ¸Ñı": 15603,
  "ÐµÑĢÐº": 2827,
  "ÐµÑĢÐºÐ°": 18530,
  "ÐµÑĢÐºÐ²Ð¸": 5189,
  "ÐµÑĢÐºÐ¾Ð²": 4384,
  "ÐµÑĢÐºÑĥ": 17650,
  "ÐµÑĢÐ½": 18390,
  "ÐµÑĢÐ½Ð°": 4736,
  "ÐµÑĢÐ½Ð°Ð½": 45053,
  "ÐµÑĢÐ½Ð°ÑĤÐ¾ÑĢ": 26145,
  "ÐµÑĢÐ½Ð°ÑĤÐ¾ÑĢÐ°": 38280,
  "ÐµÑĢÐ½Ð°Ñı": 35826,
  "ÐµÑĢÐ½Ð¸": 8664,
  "ÐµÑĢÐ½Ð¾": 7891,
  "ÐµÑĢÐ½Ð¾Ð³Ð¾": 34222,
  "ÐµÑĢÐ½Ð¾Ðµ": 41337,
  "ÐµÑĢÐ½Ð¾Ð¹": 31233,
  "ÐµÑĢÐ½ÑĭÐµ": 31657,
  "ÐµÑĢÐ½ÑĭÐ¹": 28984,
  "ÐµÑĢÐ½ÑĭÑħ": 33099,
  "ÐµÑĢÐ¾": 2089,
  "ÐµÑĢÐ¾Ð²": 2751,
  "ÐµÑĢÐ¾Ð²Ð¾": 47654,
  "ÐµÑĢÐ¾Ð³": 26753,
  "ÐµÑĢÐ¾Ð³Ð»Ð¸": 41424,
  "ÐµÑĢÐ¾Ð¹": 48689,
  "ÐµÑĢÐ¾Ð¼": 5219,
  "ÐµÑĢÐ¾ÑģÑģÐ¸Ð¹": 20280,
  "ÐµÑĢÐ¾ÑıÑĤ": 41602,
  "ÐµÑĢÐ¾ÑıÑĤÐ½Ð¾": 26720,
  "ÐµÑĢÐ¿": 8486,
  "ÐµÑĢÑģ": 24017,
  "ÐµÑĢÑģÐºÐ¸Ð¹": 49339,
  "ÐµÑĢÑģÐºÐ¾Ð³Ð¾": 47648,
  "ÐµÑĢÑĤ": 1819,
  "ÐµÑĢÑĤÐ°": 19106,
  "ÐµÑĢÑĤÐ²": 15434,
  "ÐµÑĢÑĤÐ¾Ð¹": 34105,
  "ÐµÑĢÑĤÑĭ": 22609,
  "ÐµÑĢÑĥ": 4783,
  "ÐµÑĢÑĥÑģ": 17966,
  "ÐµÑĢÑĥÑģÐ°Ð»": 18745,
  "ÐµÑĢÑĥÑĤ": 46098,
  "ÐµÑĢÑĪÐµÐ½": 8488,
  "ÐµÑĢÑĪÐµÐ½Ð½Ð¾": 17412,
  "ÐµÑĢÑĭ": 2071,
  "ÐµÑĢÑĮ": 6448,
  "ÐµÑĢÑĮÐµÐ·": 14331,
  "ÐµÑĢÑĮÑĳÐ·": 39445,
  "ÐµÑĢÑı": 10696,
  "ÐµÑģ": 621,
  "ÐµÑģÐ°": 11933,
  "ÐµÑģÐµÐ´": 7644,
  "ÐµÑģÐ»Ð¸": 6185,
  "ÐµÑģÐ½Ñı": 12113,
  "ÐµÑģÐ¾": 11201,
  "ÐµÑģÐ¾Ð¾Ð±ÑĢÐ°Ð·": 17062,
  "ÐµÑģÐ¿": 1084,
  "ÐµÑģÐ¿Ðµ": 28489,
  "ÐµÑģÐ¿Ð¾ÑģÐ¾Ð±": 48704,
  "ÐµÑģÐ¿ÑĥÐ±Ð»Ð¸": 4706,
  "ÐµÑģÑģ": 12538,
  "ÐµÑģÑĤ": 2243,
  "ÐµÑģÑĤÐµ": 28135,
  "ÐµÑģÑĤÐ¸": 2863,
  "ÐµÑģÑĤÐ¸ÑĤÐµÐ»ÑĮ": 28237,
  "ÐµÑģÑĤÐ½Ð¾": 12540,
  "ÐµÑģÑĤÑĢ": 28059,
  "ÐµÑģÑĤÑĮ": 3653,
  "ÐµÑģÑĥÑį": 35625,
  "ÐµÑģÑı": 15539,
  "ÐµÑĤ": 303,
  "ÐµÑĤÐ°": 929,
  "ÐµÑĤÐ°ÐµÑĤ": 47550,
  "ÐµÑĤÐ°Ð¼Ð¸": 9945,
  "ÐµÑĤÐ°Ñħ": 9946,
  "ÐµÑĤÐµ": 725,
  "ÐµÑĤÐµÑģÑĮ": 4426,
  "ÐµÑĤÐ¸": 2419,
  "ÐµÑĤÐ¸Ð¸": 28557,
  "ÐµÑĤÐ¸ÐºÐ°": 20775,
  "ÐµÑĤÐ¸ÐºÐ¸": 14510,
  "ÐµÑĤÐ¸ÑĩÐµÑģÐº": 4618,
  "ÐµÑĤÐ¸Ñı": 48781,
  "ÐµÑĤÐºÐ°": 18621,
  "ÐµÑĤÐºÐ¸": 11171,
  "ÐµÑĤÐºÐ¾Ð¹": 27004,
  "ÐµÑĤÐºÑĥ": 15641,
  "ÐµÑĤÐ½Ð¾": 11286,
  "ÐµÑĤÐ¾Ð²": 6232,
  "ÐµÑĤÐ¾Ð¼": 7715,
  "ÐµÑĤÑĢÐ°": 34962,
  "ÐµÑĤÑĢÐ°Ð¶": 38409,
  "ÐµÑĤÑĢÐ¸": 27309,
  "ÐµÑĤÑĢÐ¾Ð²": 21807,
  "ÐµÑĤÑģÑı": 487,
  "ÐµÑĤÑĤ": 35723,
  "ÐµÑĤÑĤÐ°": 31662,
  "ÐµÑĤÑĤÐ¸": 46498,
  "ÐµÑĤÑĥ": 5104,
  "ÐµÑĤÑĭ": 1307,
  "ÐµÑĤÑĭÑĢÐµ": 23115,
  "ÐµÑĤÑĮ": 1688,
  "ÐµÑĤÑĮÑģÑı": 20846,
  "ÐµÑĦ": 12938,
  "ÐµÑħ": 1299,
  "ÐµÑħÐ°": 5995,
  "ÐµÑħÐ°Ð²": 26741,
  "ÐµÑħÐ°Ð»": 4650,
  "ÐµÑħÐ°Ð»Ð°": 7981,
  "ÐµÑħÐ°Ð»Ð¸": 5655,
  "ÐµÑħÐ°ÑĤÑĮ": 5346,
  "ÐµÑĨ": 2019,
  "ÐµÑĨÐºÐ¸Ð¹": 44925,
  "ÐµÑĩ": 9080,
  "ÐµÑĩÐ°": 11712,
  "ÐµÑĩÐ°ÑĤ": 22224,
  "ÐµÑĪ": 2171,
  "ÐµÑĪÐ½Ð¾": 21925,
  "ÐµÑĪÑĮ": 1115,
  "ÐµÑĪÑĮÑģÑı": 5447,
  "ÐµÑīÐ°": 10185,
  "ÐµÑīÐµ": 21372,
  "ÐµÑīÐµÐ½Ð¸Ðµ": 38873,
  "ÐµÑİ": 45069,
  "ÐµÑı": 20508,
  "Ð¶": 316,
  "Ð¶Ð°": 773,
  "Ð¶Ð°Ð²": 11584,
  "Ð¶Ð°ÐµÐ¼": 42234,
  "Ð¶Ð°ÐµÑĤ": 10970,
  "Ð¶Ð°ÐµÑĤÑģÑı": 9937,
  "Ð¶Ð°Ð¹": 41693,
  "Ð¶Ð°Ð»": 5014,
  "Ð¶Ð°Ð»Ð°": 11845,
  "Ð¶Ð°Ð»Ð¸": 12625,
  "Ð¶Ð°Ð¼": 32231,
  "Ð¶Ð°Ð¼Ð¸": 15882,
  "Ð¶Ð°Ð½": 25656,
  "Ð¶Ð°Ð½Ð¸Ðµ": 28772,
  "Ð¶Ð°ÑĢ": 26383,
  "Ð¶Ð°ÑĤÑĮ": 4657,
  "Ð¶Ð°ÑĤÑĮÑģÑı": 23633,
  "Ð¶Ð°Ñħ": 12040,
  "Ð¶Ð°Ñİ": 39689,
  "Ð¶Ð°ÑİÑĤ": 17090,
  "Ð¶Ð°ÑİÑĤÑģÑı": 22464,
  "Ð¶Ð°Ñı": 28913,
  "Ð¶Ð´": 981,
  "Ð¶Ð´Ð°": 2295,
  "Ð¶Ð´Ð°ÐµÑĤ": 9025,
  "Ð¶Ð´Ð°ÑĤÑĮ": 14687,
  "Ð¶Ð´Ð°ÑİÑĤ": 10523,
  "Ð¶Ð´Ð°Ñı": 6734,
  "Ð¶Ð´Ðµ": 2799,
  "Ð¶Ð´ÐµÐ½Ð¸Ðµ": 28331,
  "Ð¶Ð´ÐµÐ½Ð¸Ñı": 37395,
  "Ð¶Ð´Ð¾Ð¹": 14450,
  "Ð¶Ð´Ñĥ": 1158,
  "Ð¶Ð´Ñĭ": 1290,
  "Ð¶Ð´ÑĭÐ¹": 1927,
  "Ð¶Ðµ": 468,
  "Ð¶ÐµÐ²": 14031,
  "Ð¶ÐµÐ³": 26876,
  "Ð¶ÐµÐ¹": 4528,
  "Ð¶ÐµÐº": 25543,
  "Ð¶ÐµÐ»": 9502,
  "Ð¶ÐµÐ»ÐµÐ·": 44886,
  "Ð¶ÐµÐ»ÑĥÐ´": 41100,
  "Ð¶ÐµÐ¼": 4286,
  "Ð¶ÐµÐ¼ÐµÑģÑı": 18061,
  "Ð¶ÐµÐ¼ÑģÑı": 36431,
  "Ð¶ÐµÐ½": 2311,
  "Ð¶ÐµÐ½Ð°": 20058,
  "Ð¶ÐµÐ½ÐµÐ´ÐµÐ»ÑĮ": 27272,
  "Ð¶ÐµÐ½Ð¸Ðµ": 3504,
  "Ð¶ÐµÐ½Ð¸ÐµÐ¼": 8692,
  "Ð¶ÐµÐ½Ð¸Ð¸": 4802,
  "Ð¶ÐµÐ½Ð¸Ð¹": 19611,
  "Ð¶ÐµÐ½Ð¸Ñİ": 13260,
  "Ð¶ÐµÐ½Ð¸Ñı": 3093,
  "Ð¶ÐµÐ½Ð½Ð°Ñı": 25965,
  "Ð¶ÐµÐ½Ð½Ð¾": 27361,
  "Ð¶ÐµÐ½Ð½Ð¾Ð³Ð¾": 29189,
  "Ð¶ÐµÐ½Ð½Ð¾Ðµ": 35652,
  "Ð¶ÐµÐ½Ð½Ð¾Ð¹": 20116,
  "Ð¶ÐµÐ½Ð½ÑĥÑİ": 40413,
  "Ð¶ÐµÐ½Ð½ÑĭÐµ": 18673,
  "Ð¶ÐµÐ½Ð½ÑĭÐ¹": 21148,
  "Ð¶ÐµÐ½Ð½ÑĭÐ¼": 27240,
  "Ð¶ÐµÐ½Ð½ÑĭÐ¼Ð¸": 37484,
  "Ð¶ÐµÐ½Ð½ÑĭÑħ": 23248,
  "Ð¶ÐµÐ½Ð¾": 31619,
  "Ð¶ÐµÐ½Ñĭ": 16616,
  "Ð¶ÐµÑĢ": 14867,
  "Ð¶ÐµÑĢÐ°": 17120,
  "Ð¶ÐµÑĤ": 3557,
  "Ð¶ÐµÑĤÐµ": 13314,
  "Ð¶ÐµÑĤÑģÑı": 2414,
  "Ð¶ÐµÑĤÑĭ": 44348,
  "Ð¶ÐµÑĩÑĮ": 21930,
  "Ð¶ÐµÑĪÑĮ": 10870,
  "Ð¶Ð¸": 713,
  "Ð¶Ð¸Ð²": 25115,
  "Ð¶Ð¸Ð²Ð°ÐµÑĤ": 32566,
  "Ð¶Ð¸Ð²Ð°Ð½Ð¸Ðµ": 42556,
  "Ð¶Ð¸Ð²Ð°Ð½Ð¸Ñı": 38590,
  "Ð¶Ð¸Ð²Ð°ÑĤÑĮ": 10802,
  "Ð¶Ð¸Ð²Ð°ÑİÑĤ": 46762,
  "Ð¶Ð¸Ð³Ð°": 16509,
  "Ð¶Ð¸Ð·Ð½ÑĮ": 49965,
  "Ð¶Ð¸Ð¹": 30711,
  "Ð¶Ð¸Ðº": 30552,
  "Ð¶Ð¸Ð»": 15964,
  "Ð¶Ð¸Ð»Ð¸": 49258,
  "Ð¶Ð¸Ð¼": 2350,
  "Ð¶Ð¸Ð¼Ð°": 10849,
  "Ð¶Ð¸Ð¼Ð°Ñı": 20764,
  "Ð¶Ð¸Ð¼Ð¸": 34454,
  "Ð¶Ð¸Ð½": 20044,
  "Ð¶Ð¸Ð½Ð°": 14714,
  "Ð¶Ð¸Ð½Ñĥ": 37232,
  "Ð¶Ð¸Ð½Ñĭ": 19481,
  "Ð¶Ð¸Ñģ": 6910,
  "Ð¶Ð¸ÑģÑĮ": 28169,
  "Ð¶Ð¸ÑĤ": 9235,
  "Ð¶Ð¸ÑĤÐµ": 3142,
  "Ð¶Ð¸ÑĤÐµÑģÑĮ": 34058,
  "Ð¶Ð¸ÑĤÑĮ": 10238,
  "Ð¶Ð¸ÑĪÑĮ": 37682,
  "Ð¶ÐºÐ°": 11885,
  "Ð¶ÐºÐ°Ð¼Ð¸": 47657,
  "Ð¶ÐºÐµ": 30345,
  "Ð¶ÐºÐ¸": 7024,
  "Ð¶ÐºÐ¾Ð¹": 32146,
  "Ð¶ÐºÑĥ": 12422,
  "Ð¶Ð¼Ð¸ÑĤÐµ": 40900,
  "Ð¶Ð½Ð°": 36422,
  "Ð¶Ð½Ð°Ñı": 11251,
  "Ð¶Ð½ÐµÐµ": 48772,
  "Ð¶Ð½ÐµÐ¼Ñĥ": 7658,
  "Ð¶Ð½Ð¸Ðº": 38534,
  "Ð¶Ð½Ð¾": 3631,
  "Ð¶Ð½Ð¾Ð³Ð¾": 9995,
  "Ð¶Ð½Ð¾Ðµ": 16270,
  "Ð¶Ð½Ð¾Ð¹": 4647,
  "Ð¶Ð½Ð¾Ð¼": 15249,
  "Ð¶Ð½Ð¾ÑģÑĤÑĮ": 37873,
  "Ð¶Ð½ÑĥÑİ": 14696,
  "Ð¶Ð½ÑĭÐµ": 6363,
  "Ð¶Ð½ÑĭÐ¹": 6361,
  "Ð¶Ð½ÑĭÐ¼": 13757,
  "Ð¶Ð½ÑĭÐ¼Ð¸": 27024,
  "Ð¶Ð½ÑĭÑħ": 5017,
  "Ð¶Ð¾ÑĢ": 35878,
  "Ð¶Ð¾Ñĥ": 47513,
  "Ð¶ÑģÐºÐ¾Ð³Ð¾": 49683,
  "Ð¶Ñĥ": 1735,
  "Ð¶ÑĥÑĢ": 9522,
  "Ð¶ÑĥÑģÑĮ": 20008,
  "Ð¶ÑĥÑĤ": 9079,
  "Ð¶ÑĥÑĤÑģÑı": 13335,
  "Ð¶ÑĮ": 35315,
  "Ð¶ÑĮÑĤÐµ": 45681,
  "Ð·": 290,
  "Ð·Ð°": 440,
  "Ð·Ð°Ð²": 9233,
  "Ð·Ð°Ð²Ð¸Ñģ": 16465,
  "Ð·Ð°Ð²Ð¾Ð´": 37585,
  "Ð·Ð°Ð²ÑĤÑĢÐ°": 24329,
  "Ð·Ð°Ð´": 2209,
  "Ð·Ð°Ð´Ð¸": 11561,
  "Ð·Ð°Ð´Ð¾Ð»Ð³Ð¾": 29007,
  "Ð·Ð°ÐµÑĤ": 12788,
  "Ð·Ð°Ð¸Ð¼": 31508,
  "Ð·Ð°Ð¹": 17519,
  "Ð·Ð°Ð¹Ð½": 23805,
  "Ð·Ð°Ðº": 4909,
  "Ð·Ð°ÐºÐ°": 35002,
  "Ð·Ð°ÐºÐ°Ð·": 40432,
  "Ð·Ð°ÐºÐ¾Ð½": 8526,
  "Ð·Ð°ÐºÑĢÑĭ": 45603,
  "Ð·Ð°Ð»": 16579,
  "Ð·Ð°Ð»Ð°": 34673,
  "Ð·Ð°Ð»Ðµ": 45887,
  "Ð·Ð°Ð»Ð¸": 39648,
  "Ð·Ð°Ð¼": 3769,
  "Ð·Ð°Ð¼Ð¸": 8228,
  "Ð·Ð°Ð½": 1864,
  "Ð·Ð°Ð½Ð°": 18662,
  "Ð·Ð°Ð½Ð¸": 16591,
  "Ð·Ð°Ð½Ð¸Ðµ": 19869,
  "Ð·Ð°Ð½Ð¸Ð¹": 28139,
  "Ð·Ð°Ð½Ð¸Ñı": 12579,
  "Ð·Ð°Ð½Ð½Ð¾Ð¹": 46593,
  "Ð·Ð°Ð½Ð½ÑĭÐµ": 31052,
  "Ð·Ð°Ð½Ð½ÑĭÐ¹": 32827,
  "Ð·Ð°Ð½Ð½ÑĭÑħ": 42587,
  "Ð·Ð°Ð½Ð¾": 7356,
  "Ð·Ð°Ð½Ñĭ": 17109,
  "Ð·Ð°Ð¿": 5212,
  "Ð·Ð°Ð¿Ð°Ð´": 17420,
  "Ð·Ð°Ð¿Ð°Ð´Ðµ": 42541,
  "Ð·Ð°ÑĢ": 8034,
  "Ð·Ð°ÑĤÐµÐ»ÑĮ": 6167,
  "Ð·Ð°ÑĤÐµÐ»ÑĮÐ½Ð¾": 11096,
  "Ð·Ð°ÑĤÐ¾ÑĢ": 27254,
  "Ð·Ð°ÑĤÐ¾ÑĢÑĭ": 42107,
  "Ð·Ð°ÑĤÑĮ": 1265,
  "Ð·Ð°ÑĤÑĮÑģÑı": 21340,
  "Ð·Ð°Ñħ": 5229,
  "Ð·Ð°ÑĨÐ¸ÐµÐ¹": 15631,
  "Ð·Ð°ÑĨÐ¸Ð¸": 1627,
  "Ð·Ð°ÑĨÐ¸Ð¹": 31651,
  "Ð·Ð°ÑĨÐ¸Ñİ": 7883,
  "Ð·Ð°ÑĨÐ¸Ñı": 4114,
  "Ð·Ð°ÑĩÐµÐ¼": 29018,
  "Ð·Ð°ÑīÐ¸ÑĤ": 13215,
  "Ð·Ð°ÑİÑĤ": 18253,
  "Ð·Ð°Ñı": 24459,
  "Ð·Ð²": 13047,
  "Ð·Ð²ÐµÐ·Ð´": 34349,
  "Ð·Ð²Ð¾": 15001,
  "Ð·Ð²Ñĥ": 44315,
  "Ð·Ð´": 27290,
  "Ð·Ð´ÐµÑģÑĮ": 34864,
  "Ð·Ðµ": 4466,
  "Ð·ÐµÐ¹": 6452,
  "Ð·ÐµÐ»": 26286,
  "Ð·ÐµÐ»ÐµÐ½": 17566,
  "Ð·ÐµÐ»Ñĳ": 47586,
  "Ð·ÐµÐ¼": 4677,
  "Ð·ÐµÐ½": 14902,
  "Ð·ÐµÑĢ": 15444,
  "Ð·ÐµÑĢÐ°": 49474,
  "Ð·Ð¸": 796,
  "Ð·Ð¸Ð°ÑĤ": 19997,
  "Ð·Ð¸Ð²": 13183,
  "Ð·Ð¸Ð´": 2742,
  "Ð·Ð¸Ð´ÐµÐ½": 6838,
  "Ð·Ð¸Ð´ÐµÐ½ÑĤ": 16026,
  "Ð·Ð¸Ð´ÐµÐ½ÑĤÐ°": 40319,
  "Ð·Ð¸Ð´Ð¸": 21434,
  "Ð·Ð¸Ð´Ð¸ÑĥÐ¼Ð°": 27906,
  "Ð·Ð¸ÐµÐ¹": 26296,
  "Ð·Ð¸Ð¸": 3501,
  "Ð·Ð¸Ð¹": 11910,
  "Ð·Ð¸Ðº": 44265,
  "Ð·Ð¸Ð»": 39798,
  "Ð·Ð¸Ð»Ð°": 27168,
  "Ð·Ð¸Ð»Ð°ÑģÑĮ": 23634,
  "Ð·Ð¸Ð¼": 36584,
  "Ð·Ð¸Ð½": 3642,
  "Ð·Ð¸Ð½Ð°": 11560,
  "Ð·Ð¸Ð½Ðµ": 17987,
  "Ð·Ð¸Ð½Ð¾": 18751,
  "Ð·Ð¸Ð½Ñĥ": 25032,
  "Ð·Ð¸Ð½Ñĭ": 17753,
  "Ð·Ð¸ÑĢÐ°": 24756,
  "Ð·Ð¸ÑĢÐ°Ñı": 30830,
  "Ð·Ð¸ÑĢÐ¾Ð²Ð°ÑĤÑĮ": 8823,
  "Ð·Ð¸ÑĢÑĥÐµÑĤ": 25300,
  "Ð·Ð¸ÑĤ": 23682,
  "Ð·Ð¸Ñİ": 11621,
  "Ð·Ð¸Ñı": 7617,
  "Ð·Ð»Ð°": 31075,
  "Ð·Ð»Ð¸": 35079,
  "Ð·Ð¼": 7085,
  "Ð·Ð¼Ð°": 6682,
  "Ð·Ð¼Ðµ": 23641,
  "Ð·Ð¼Ð¾Ð²": 43850,
  "Ð·Ð¼Ð¾Ð¼": 23265,
  "Ð·Ð¼Ñĥ": 27903,
  "Ð·Ð¼Ñĭ": 27781,
  "Ð·Ð½Ð°": 928,
  "Ð·Ð½Ð°ÐºÐ¾Ð¼": 25690,
  "Ð·Ð½Ð°ÑĤÑĮ": 45258,
  "Ð·Ð½Ð°Ñĩ": 21996,
  "Ð·Ð½Ð°ÑĩÐ°Ð»ÑĮÐ½Ð¾": 28291,
  "Ð·Ð½Ð°ÑĩÐ¸ÑĤ": 41303,
  "Ð·Ð½Ð°Ñİ": 50165,
  "Ð·Ð¾": 10672,
  "Ð·Ð¾Ð²": 2078,
  "Ð·Ð¾Ð²Ð°ÑĤÑĮ": 38468,
  "Ð·Ð¾Ð¹": 36301,
  "Ð·Ð¾Ð»Ð¾ÑĤ": 31602,
  "Ð·Ð¾Ð¼": 29683,
  "Ð·Ð¾Ð½": 20143,
  "Ð·Ð¾Ð½Ð°": 47525,
  "Ð·Ð¾ÑĢ": 6989,
  "Ð·Ð¾ÑĢÐ°": 13390,
  "Ð·Ð¾ÑĤÐµÑĢÐ¸": 37231,
  "Ð·Ñĥ": 6761,
  "Ð·ÑĥÐµÑĤÑģÑı": 22525,
  "Ð·ÑĥÑĢ": 31543,
  "Ð·Ñĭ": 627,
  "Ð·ÑĭÐ²": 48300,
  "Ð·ÑĭÐ²Ð°": 1194,
  "Ð·ÑĭÐ²Ð°ÐµÐ¼": 41333,
  "Ð·ÑĭÐ²Ð°ÐµÑĤ": 2619,
  "Ð·ÑĭÐ²Ð°ÐµÑĤÑģÑı": 4155,
  "Ð·ÑĭÐ²Ð°Ð¹": 49642,
  "Ð·ÑĭÐ²Ð°Ð¹ÑĤÐµ": 43479,
  "Ð·ÑĭÐ²Ð°Ð»": 5503,
  "Ð·ÑĭÐ²Ð°Ð»Ð°": 9723,
  "Ð·ÑĭÐ²Ð°Ð»Ð¸": 5697,
  "Ð·ÑĭÐ²Ð°Ð»Ð¸ÑģÑĮ": 45452,
  "Ð·ÑĭÐ²Ð°Ð»Ð¾": 25084,
  "Ð·ÑĭÐ²Ð°Ð»Ð¾ÑģÑĮ": 47067,
  "Ð·ÑĭÐ²Ð°Ð»ÑģÑı": 46610,
  "Ð·ÑĭÐ²Ð°Ð½Ð¸Ñı": 47036,
  "Ð·ÑĭÐ²Ð°ÑĤÑĮ": 3487,
  "Ð·ÑĭÐ²Ð°ÑĤÑĮÑģÑı": 14965,
  "Ð·ÑĭÐ²Ð°Ñİ": 17164,
  "Ð·ÑĭÐ²Ð°ÑİÑĤ": 4643,
  "Ð·ÑĭÐ²Ð°ÑİÑĤÑģÑı": 11510,
  "Ð·ÑĭÐ²Ð°Ñı": 8183,
  "Ð·ÑĭÐ¹": 41018,
  "Ð·ÑĭÐº": 17665,
  "Ð·ÑĭÐºÐ°": 23285,
  "Ð·ÑĮ": 3823,
  "Ð·Ñİ": 19289,
  "Ð·Ñı": 2235,
  "Ð·ÑıÐ¼Ð¸": 48641,
  "Ð¸": 267,
  "Ð¸Ð±": 1554,
  "Ð¸Ð±ÐµÑĢ": 23728,
  "Ð¸Ð±ÐµÑĤ": 34477,
  "Ð¸Ð±Ð»ÐµÐ¹": 26632,
  "Ð¸Ð±Ð»Ð¸": 4490,
  "Ð¸Ð±Ð»Ð¸Ñı": 38142,
  "Ð¸Ð±Ð¾Ð»ÐµÐµ": 3392,
  "Ð¸Ð²": 778,
  "Ð¸Ð²Ð°ÐµÑĤ": 30896,
  "Ð¸Ð²Ð°ÐµÑĤÑģÑı": 45032,
  "Ð¸Ð²Ð°Ð»": 7956,
  "Ð¸Ð²Ð°Ð»Ð°": 14604,
  "Ð¸Ð²Ð°Ð»Ð°ÑģÑĮ": 31026,
  "Ð¸Ð²Ð°Ð»Ð¸": 8360,
  "Ð¸Ð²Ð°Ð»Ð¸ÑģÑĮ": 21023,
  "Ð¸Ð²Ð°Ð»Ð¾": 23603,
  "Ð¸Ð²Ð°Ð»ÑģÑı": 20537,
  "Ð¸Ð²Ð°ÑĤÑĮ": 34500,
  "Ð¸Ð²Ð°Ñı": 40450,
  "Ð¸Ð²Ð¸ÑĤÐµÐ»ÑĮÐ½Ð¾": 23832,
  "Ð¸Ð²Ñĥ": 38410,
  "Ð¸Ð²ÑĪÐ°Ñı": 18780,
  "Ð¸Ð²ÑĪÐ°ÑıÑģÑı": 34700,
  "Ð¸Ð²ÑĪÐµÐ³Ð¾": 13918,
  "Ð¸Ð²ÑĪÐµÐ³Ð¾ÑģÑı": 27817,
  "Ð¸Ð²ÑĪÐµÐµ": 45098,
  "Ð¸Ð²ÑĪÐµÐµÑģÑı": 47064,
  "Ð¸Ð²ÑĪÐµÐ¹": 12716,
  "Ð¸Ð²ÑĪÐµÐ¹ÑģÑı": 19330,
  "Ð¸Ð²ÑĪÐµÐ¼Ñĥ": 45972,
  "Ð¸Ð²ÑĪÐ¸Ðµ": 17980,
  "Ð¸Ð²ÑĪÐ¸ÐµÑģÑı": 20506,
  "Ð¸Ð²ÑĪÐ¸Ð¹": 9676,
  "Ð¸Ð²ÑĪÐ¸Ð¹ÑģÑı": 19710,
  "Ð¸Ð²ÑĪÐ¸Ð¼": 22685,
  "Ð¸Ð²ÑĪÐ¸Ð¼ÑģÑı": 44584,
  "Ð¸Ð²ÑĪÐ¸ÑģÑĮ": 8596,
  "Ð¸Ð²ÑĪÐ¸Ñħ": 16680,
  "Ð¸Ð²ÑĪÐ¸ÑħÑģÑı": 18684,
  "Ð¸Ð²ÑĪÑĥÑİÑģÑı": 35134,
  "Ð¸Ð³": 2383,
  "Ð¸Ð³ÑĢ": 42276,
  "Ð¸Ð³ÑĢÐ°": 5158,
  "Ð¸Ð³ÑĢÑĭ": 7690,
  "Ð¸Ð´": 1474,
  "Ð¸Ð´Ð°": 13418,
  "Ð¸Ð´Ðµ": 23632,
  "Ð¸Ð´Ð¸": 43666,
  "Ð¸Ð´Ð¾Ð²": 27749,
  "Ð¸Ð´Ñĭ": 20848,
  "Ð¸Ðµ": 464,
  "Ð¸ÐµÐ²": 8920,
  "Ð¸ÐµÐ²Ð°": 41132,
  "Ð¸ÐµÐ³Ð¾": 40618,
  "Ð¸ÐµÐ¹": 21777,
  "Ð¸ÐµÐ¼": 3442,
  "Ð¸Ð·": 520,
  "Ð¸Ð·Ð²ÐµÑģÑĤ": 14320,
  "Ð¸Ð·Ð²Ð¾Ð´": 6139,
  "Ð¸Ð·ÐµÐ¼": 21295,
  "Ð¸Ð·Ð¸": 9442,
  "Ð¸Ð·Ð¼": 10186,
  "Ð¸Ð·Ð¼Ð°": 12020,
  "Ð¸Ð·Ð¼Ðµ": 32556,
  "Ð¸Ð·Ð¼ÐµÐ½": 47414,
  "Ð¸Ð·Ð¼Ð¾Ð¼": 31659,
  "Ð¸Ð·Ð½Ðµ": 27462,
  "Ð¸Ð·Ð½ÐµÑģ": 13894,
  "Ð¸Ð·Ð½ÐµÑģÐ°": 43729,
  "Ð¸Ð·Ð½Ð¸": 24430,
  "Ð¸Ð·Ð½ÑĮ": 9016,
  "Ð¸Ð·Ð¾Ð»Ñı": 13227,
  "Ð¸Ð·Ñĥ": 24326,
  "Ð¸Ð·ÑĥÑģÑĤÑĮ": 38339,
  "Ð¸Ð·Ñĭ": 31352,
  "Ð¸Ð¸": 1329,
  "Ð¸Ð¹": 495,
  "Ð¸Ðº": 1040,
  "Ð¸ÐºÐ°": 2594,
  "Ð¸ÐºÐ°Ð¼": 36040,
  "Ð¸ÐºÐ°Ð¼Ð¸": 21425,
  "Ð¸ÐºÐ°ÑĢ": 38685,
  "Ð¸ÐºÐ°Ñħ": 38588,
  "Ð¸ÐºÐµ": 5691,
  "Ð¸ÐºÐ¸": 2135,
  "Ð¸ÐºÐ¾": 29585,
  "Ð¸ÐºÐ¾Ð²": 8313,
  "Ð¸ÐºÐ¾Ð¹": 15712,
  "Ð¸ÐºÐ¾Ð¼": 21369,
  "Ð¸ÐºÑĥ": 6758,
  "Ð¸Ð»": 381,
  "Ð¸Ð»Ð°": 1203,
  "Ð¸Ð»Ð°Ðº": 8780,
  "Ð¸Ð»Ð°Ð½": 22478,
  "Ð¸Ð»Ð°Ð½Ð´": 48210,
  "Ð¸Ð»Ð°ÑģÑĮ": 3306,
  "Ð¸Ð»Ð°Ñı": 33760,
  "Ð¸Ð»Ðµ": 6205,
  "Ð¸Ð»ÐµÐ¹": 6068,
  "Ð¸Ð»ÐµÐ¼": 21394,
  "Ð¸Ð»ÐµÐ½": 34186,
  "Ð¸Ð»ÐµÑĤ": 34999,
  "Ð¸Ð»Ð¸": 779,
  "Ð¸Ð»Ð¸Ðµ": 33708,
  "Ð¸Ð»Ð¸Ð¸": 20078,
  "Ð¸Ð»Ð¸ÑģÑĮ": 2517,
  "Ð¸Ð»Ð¸Ñı": 24768,
  "Ð¸Ð»ÐºÐ°": 48290,
  "Ð¸Ð»ÐºÐ¸": 31021,
  "Ð¸Ð»ÐºÑĥ": 40451,
  "Ð¸Ð»Ð»": 12434,
  "Ð¸Ð»Ð»Ð°": 18896,
  "Ð¸Ð»Ð»Ð¸": 9700,
  "Ð¸Ð»Ð»Ñİ": 49989,
  "Ð¸Ð»Ð¾": 967,
  "Ð¸Ð»Ð¾Ð²": 13697,
  "Ð¸Ð»Ð¾Ð²Ð°": 38237,
  "Ð¸Ð»Ð¾Ð¹": 31966,
  "Ð¸Ð»Ð¾Ð¼": 41396,
  "Ð¸Ð»Ð¾ÑģÑĮ": 1473,
  "Ð¸Ð»Ð¾ÑĤ": 23902,
  "Ð¸Ð»ÑģÑı": 972,
  "Ð¸Ð»Ñĥ": 15350,
  "Ð¸Ð»ÑĥÑĩ": 17910,
  "Ð¸Ð»Ñĭ": 11887,
  "Ð¸Ð»ÑĮ": 700,
  "Ð¸Ð»ÑĮÐ½Ð°Ñı": 34016,
  "Ð¸Ð»ÑĮÐ½Ð¸Ðº": 27693,
  "Ð¸Ð»ÑĮÐ½Ð¾": 5843,
  "Ð¸Ð»ÑĮÐ½Ð¾Ð³Ð¾": 45039,
  "Ð¸Ð»ÑĮÐ½Ð¾Ðµ": 32245,
  "Ð¸Ð»ÑĮÐ½Ð¾Ð¹": 29662,
  "Ð¸Ð»ÑĮÐ½ÑĭÐµ": 27615,
  "Ð¸Ð»ÑĮÐ½ÑĭÐ¹": 19621,
  "Ð¸Ð»ÑĮÐ½ÑĭÐ¼": 46404,
  "Ð¸Ð»ÑĮÐ½ÑĭÑħ": 37758,
  "Ð¸Ð»ÑĮÑı": 32462,
  "Ð¸Ð»ÑĮÑıÑĢÐ´": 47511,
  "Ð¸Ð»Ñİ": 26463,
  "Ð¸Ð»Ñı": 5172,
  "Ð¸Ð¼": 407,
  "Ð¸Ð¼Ð°": 5185,
  "Ð¸Ð¼Ð°Ñı": 13977,
  "Ð¸Ð¼Ðµ": 19112,
  "Ð¸Ð¼ÐµÐ½": 8848,
  "Ð¸Ð¼ÐµÐ½Ð½Ð¾": 38504,
  "Ð¸Ð¼Ð¸": 1097,
  "Ð¸Ð¼Ð¾": 863,
  "Ð¸Ð¼Ð¾Ð²": 10993,
  "Ð¸Ð¼Ð¾Ð²Ð°": 38949,
  "Ð¸Ð¼Ð¾Ð²Ð¸Ñĩ": 46747,
  "Ð¸Ð¼Ð¾Ð³Ð¾": 12818,
  "Ð¸Ð¼Ð¾Ðµ": 10087,
  "Ð¸Ð¼Ð¾Ð¹": 8931,
  "Ð¸Ð¼Ð¾Ð¼": 45460,
  "Ð¸Ð¼Ð¾Ð½Ð°": 25134,
  "Ð¸Ð¼Ð¾ÑģÑĤÐ¸": 2556,
  "Ð¸Ð¼Ð¾ÑģÑĤÑĮ": 2813,
  "Ð¸Ð¼Ð¾ÑģÑĤÑĮÑİ": 14286,
  "Ð¸Ð¼ÑģÑı": 4788,
  "Ð¸Ð¼Ñĥ": 4867,
  "Ð¸Ð¼ÑĥÑīÐµÑģÑĤÐ²": 16704,
  "Ð¸Ð¼ÑĥÑİ": 27101,
  "Ð¸Ð¼Ñĭ": 14203,
  "Ð¸Ð¼ÑĭÐµ": 10525,
  "Ð¸Ð¼ÑĭÐ¹": 10856,
  "Ð¸Ð¼ÑĭÐ¼": 12504,
  "Ð¸Ð¼ÑĭÐ¼Ð¸": 24553,
  "Ð¸Ð¼ÑĭÑħ": 9247,
  "Ð¸Ð¼Ñı": 47750,
  "Ð¸Ð½": 388,
  "Ð¸Ð½Ð°": 1015,
  "Ð¸Ð½Ð°Ð»": 12755,
  "Ð¸Ð½Ð°Ð¼": 47567,
  "Ð¸Ð½Ð°Ð¼Ð¸": 12833,
  "Ð¸Ð½Ð°Ð¼Ð¸ÐºÐ°": 48490,
  "Ð¸Ð½Ð°Ð¼Ð¾": 21745,
  "Ð¸Ð½Ð°Ð½": 2878,
  "Ð¸Ð½Ð°ÑĢ": 38515,
  "Ð¸Ð½Ð°ÑĤÑĮ": 43311,
  "Ð¸Ð½Ð°Ñħ": 23990,
  "Ð¸Ð½Ð°Ñı": 19145,
  "Ð¸Ð½Ð²Ð°Ð»Ð¸": 42287,
  "Ð¸Ð½Ð³": 3251,
  "Ð¸Ð½Ð³Ð°": 9694,
  "Ð¸Ð½Ð³Ð²Ð¸": 24338,
  "Ð¸Ð½Ð³Ð¸": 39395,
  "Ð¸Ð½Ð³Ñĥ": 34518,
  "Ð¸Ð½Ð´": 23212,
  "Ð¸Ð½Ð´Ñĥ": 32427,
  "Ð¸Ð½Ðµ": 1246,
  "Ð¸Ð½ÐµÐ¹": 21767,
  "Ð¸Ð½ÐµÐº": 23653,
  "Ð¸Ð½ÐµÑĨ": 29711,
  "Ð¸Ð½Ð¸": 8279,
  "Ð¸Ð½Ðº": 10194,
  "Ð¸Ð½ÐºÐ°": 10396,
  "Ð¸Ð½ÐºÐ°Ð¼Ð¸": 41750,
  "Ð¸Ð½ÐºÐµ": 26043,
  "Ð¸Ð½ÐºÐ¸": 7468,
  "Ð¸Ð½ÐºÐ¾Ð¹": 36277,
  "Ð¸Ð½ÐºÑĥ": 11101,
  "Ð¸Ð½Ð¾": 16178,
  "Ð¸Ð½Ð¾Ð²": 2910,
  "Ð¸Ð½Ð¾Ð³Ð´Ð°": 41134,
  "Ð¸Ð½Ð¾Ð¹": 2747,
  "Ð¸Ð½Ð¾Ðº": 14425,
  "Ð¸Ð½Ð¾Ð¼": 16170,
  "Ð¸Ð½ÑģÐº": 47634,
  "Ð¸Ð½ÑģÐºÐ°Ñı": 22228,
  "Ð¸Ð½ÑģÐºÐ¸Ðµ": 28043,
  "Ð¸Ð½ÑģÐºÐ¸Ð¹": 11883,
  "Ð¸Ð½ÑģÐºÐ¸Ñħ": 34785,
  "Ð¸Ð½ÑģÐºÐ¾Ð³Ð¾": 12006,
  "Ð¸Ð½ÑģÐºÐ¾Ðµ": 47603,
  "Ð¸Ð½ÑģÐºÐ¾Ð¹": 16406,
  "Ð¸Ð½ÑģÐºÐ¾Ð¼": 33931,
  "Ð¸Ð½ÑģÐ¿ÐµÐº": 49244,
  "Ð¸Ð½ÑģÑĤÐ²Ð¾": 10207,
  "Ð¸Ð½ÑĤÐµ": 40361,
  "Ð¸Ð½ÑĤÐµÑĢ": 24091,
  "Ð¸Ð½ÑĤÐµÑĢÐµÑģ": 4188,
  "Ð¸Ð½ÑĤÐµÑĢÐ½Ð°": 45655,
  "Ð¸Ð½Ñĥ": 1096,
  "Ð¸Ð½ÑĥÐ²": 29667,
  "Ð¸Ð½ÑĥÐ»": 22502,
  "Ð¸Ð½ÑĥÐ»Ð°": 42648,
  "Ð¸Ð½ÑĦÐ¾ÑĢÐ¼Ð°": 22672,
  "Ð¸Ð½Ñĭ": 2143,
  "Ð¸Ð½ÑĮ": 18074,
  "Ð¸Ð½Ñİ": 47561,
  "Ð¸Ð½Ñı": 13791,
  "Ð¸Ð¿": 3430,
  "Ð¸Ð¿Ð»Ð¾Ð¼": 33107,
  "Ð¸ÑĢ": 1450,
  "Ð¸ÑĢÐ°": 1686,
  "Ð¸ÑĢÐ°Ð¹": 33321,
  "Ð¸ÑĢÐ°ÑıÑģÑĮ": 17937,
  "Ð¸Ñģ": 657,
  "Ð¸ÑģÐ°": 2494,
  "Ð¸ÑģÐ°Ð½Ð¸Ðµ": 35256,
  "Ð¸ÑģÐº": 7522,
  "Ð¸ÑģÐºÐ°": 33588,
  "Ð¸ÑģÐºÐ¸": 17916,
  "Ð¸ÑģÐºÑĥÑģ": 42597,
  "Ð¸ÑģÐ»": 27195,
  "Ð¸ÑģÐ¿": 6440,
  "Ð¸ÑģÐ¿Ð¾Ð»": 23669,
  "Ð¸ÑģÐ¿Ð¾Ð»ÑĮÐ·": 48135,
  "Ð¸ÑģÑģ": 12299,
  "Ð¸ÑģÑģÐ°": 41678,
  "Ð¸ÑģÑģÐ»ÐµÐ´": 18503,
  "Ð¸ÑģÑģÐ»ÐµÐ´Ð¾Ð²Ð°ÑĤÐµÐ»ÑĮ": 22028,
  "Ð¸ÑģÑĤ": 5922,
  "Ð¸ÑģÑĤÐ°": 44991,
  "Ð¸ÑģÑĤÐ¸Ð½Ñĥ": 34200,
  "Ð¸ÑģÑĤÐ¾": 49850,
  "Ð¸ÑģÑĤÐ¾Ð²": 24863,
  "Ð¸ÑģÑĤÐ¾ÑĢÐ¸": 22000,
  "Ð¸ÑģÑĤÐ¾ÑĩÐ½Ð¸Ðº": 26321,
  "Ð¸ÑģÑĤÑĭ": 26791,
  "Ð¸ÑģÑĭ": 5009,
  "Ð¸ÑģÑĮ": 27741,
  "Ð¸ÑĤ": 340,
  "Ð¸ÑĤÐ°": 1152,
  "Ð¸ÑĤÐ°Ð¹": 3965,
  "Ð¸ÑĤÐ°Ð¼Ð¸": 34514,
  "Ð¸ÑĤÐ°Ð½Ð°": 13237,
  "Ð¸ÑĤÐ°Ð½Ð¸Ðµ": 23645,
  "Ð¸ÑĤÐ°Ð½Ð¸Ñı": 39593,
  "Ð¸ÑĤÐ°ÑĤÐ°": 21738,
  "Ð¸ÑĤÐ°Ñħ": 41803,
  "Ð¸ÑĤÐ°ÑĨÐ¸Ð¸": 21772,
  "Ð¸ÑĤÐ°ÑĨÐ¸Ñı": 28477,
  "Ð¸ÑĤÐ°Ñı": 9558,
  "Ð¸ÑĤÐµ": 791,
  "Ð¸ÑĤÐµÐ±": 34640,
  "Ð¸ÑĤÐµÐº": 5268,
  "Ð¸ÑĤÐµÐ»Ðµ": 40590,
  "Ð¸ÑĤÐµÐ»ÐµÐ¹": 1651,
  "Ð¸ÑĤÐµÐ»ÐµÐ¼": 5331,
  "Ð¸ÑĤÐµÐ»ÐµÐ½": 37409,
  "Ð¸ÑĤÐµÐ»Ð¸": 1985,
  "Ð¸ÑĤÐµÐ»ÑĮ": 614,
  "Ð¸ÑĤÐµÐ»ÑĮÐ½Ð°": 27190,
  "Ð¸ÑĤÐµÐ»ÑĮÐ½Ð°Ñı": 7062,
  "Ð¸ÑĤÐµÐ»ÑĮÐ½ÐµÐµ": 28419,
  "Ð¸ÑĤÐµÐ»ÑĮÐ½Ð¸ÑĨÐ°": 25628,
  "Ð¸ÑĤÐµÐ»ÑĮÐ½Ð¾": 1239,
  "Ð¸ÑĤÐµÐ»ÑĮÐ½Ð¾Ð³Ð¾": 5898,
  "Ð¸ÑĤÐµÐ»ÑĮÐ½Ð¾Ðµ": 5605,
  "Ð¸ÑĤÐµÐ»ÑĮÐ½Ð¾Ð¹": 4989,
  "Ð¸ÑĤÐµÐ»ÑĮÐ½Ð¾Ð¼": 14692,
  "Ð¸ÑĤÐµÐ»ÑĮÐ½Ð¾Ð¼Ñĥ": 28764,
  "Ð¸ÑĤÐµÐ»ÑĮÐ½Ð¾ÑģÑĤÐ¸": 6458,
  "Ð¸ÑĤÐµÐ»ÑĮÐ½Ð¾ÑģÑĤÑĮ": 6871,
  "Ð¸ÑĤÐµÐ»ÑĮÐ½Ð¾ÑģÑĤÑĮÑİ": 23044,
  "Ð¸ÑĤÐµÐ»ÑĮÐ½ÑĥÑİ": 9733,
  "Ð¸ÑĤÐµÐ»ÑĮÐ½Ñĭ": 21273,
  "Ð¸ÑĤÐµÐ»ÑĮÐ½ÑĭÐµ": 4745,
  "Ð¸ÑĤÐµÐ»ÑĮÐ½ÑĭÐ¹": 4611,
  "Ð¸ÑĤÐµÐ»ÑĮÐ½ÑĭÐ¼": 6457,
  "Ð¸ÑĤÐµÐ»ÑĮÐ½ÑĭÐ¼Ð¸": 12581,
  "Ð¸ÑĤÐµÐ»ÑĮÐ½ÑĭÑħ": 5395,
  "Ð¸ÑĤÐµÐ»ÑĮÑģÑĤÐ²Ð°": 7535,
  "Ð¸ÑĤÐµÐ»ÑĮÑģÑĤÐ²Ð¾": 8262,
  "Ð¸ÑĤÐµÐ»Ñİ": 10314,
  "Ð¸ÑĤÐµÐ»Ñı": 1744,
  "Ð¸ÑĤÐµÐ»ÑıÐ¼": 5569,
  "Ð¸ÑĤÐµÐ»ÑıÐ¼Ð¸": 5412,
  "Ð¸ÑĤÐµÐ»ÑıÑħ": 27917,
  "Ð¸ÑĤÐµÑģÑĮ": 3599,
  "Ð¸ÑĤÐµÑĤ": 4883,
  "Ð¸ÑĤÐµÑĤÐ°": 4262,
  "Ð¸ÑĤÐµÑĤÐµ": 12136,
  "Ð¸ÑĤÐµÑĤÑĭ": 46912,
  "Ð¸ÑĤÐµÑħ": 39897,
  "Ð¸ÑĤÐ¸": 4352,
  "Ð¸ÑĤÐ¸Ð²": 8457,
  "Ð¸ÑĤÐ¸Ð¼": 34973,
  "Ð¸ÑĤÐ¸ÑĢÐ¾Ð²Ð°ÑĤÑĮ": 47007,
  "Ð¸ÑĤÐ¸ÑĩÐµÑģÐº": 6610,
  "Ð¸ÑĤÐ¾Ð²": 7731,
  "Ð¸ÑĤÐ¾Ð¹": 43100,
  "Ð¸ÑĤÐ¾Ð¼": 16066,
  "Ð¸ÑĤÑģÑı": 841,
  "Ð¸ÑĤÑĥ": 1407,
  "Ð¸ÑĤÑĥÐ°": 2098,
  "Ð¸ÑĤÑĥÐ°ÑĨÐ¸Ñı": 22575,
  "Ð¸ÑĤÑĥÑĢÐ¸": 45996,
  "Ð¸ÑĤÑĥÑĤ": 4904,
  "Ð¸ÑĤÑĭ": 6291,
  "Ð¸ÑĤÑĭÐµ": 39042,
  "Ð¸ÑĤÑĭÐ¹": 28182,
  "Ð¸ÑĤÑĭÑħ": 45506,
  "Ð¸ÑĤÑĮ": 537,
  "Ð¸ÑĤÑĮÑģÑı": 1414,
  "Ð¸ÑĤÑı": 17779,
  "Ð¸Ñħ": 414,
  "Ð¸ÑħÐ°": 14158,
  "Ð¸ÑĨ": 8436,
  "Ð¸ÑĨÐ°": 19434,
  "Ð¸ÑĨÐµ": 29788,
  "Ð¸ÑĨÑĥ": 32054,
  "Ð¸ÑĨÑĭ": 11615,
  "Ð¸Ñĩ": 1499,
  "Ð¸ÑĩÐ°": 5000,
  "Ð¸ÑĩÐµÐ¼": 31962,
  "Ð¸ÑĩÐµÑģÐº": 1063,
  "Ð¸ÑĩÐµÑģÐºÐ°Ñı": 16762,
  "Ð¸ÑĩÐµÑģÐºÐ¸": 10006,
  "Ð¸ÑĩÐµÑģÐºÐ¸Ðµ": 10787,
  "Ð¸ÑĩÐµÑģÐºÐ¸Ð¹": 12332,
  "Ð¸ÑĩÐµÑģÐºÐ¸Ð¼": 24864,
  "Ð¸ÑĩÐµÑģÐºÐ¸Ð¼Ð¸": 33647,
  "Ð¸ÑĩÐµÑģÐºÐ¸Ñħ": 9747,
  "Ð¸ÑĩÐµÑģÐºÐ¾Ð³Ð¾": 11711,
  "Ð¸ÑĩÐµÑģÐºÐ¾Ðµ": 17491,
  "Ð¸ÑĩÐµÑģÐºÐ¾Ð¹": 11195,
  "Ð¸ÑĩÐµÑģÐºÐ¾Ð¼": 29999,
  "Ð¸ÑĩÐµÑģÐºÑĥÑİ": 31173,
  "Ð¸ÑĩÐ¸": 47480,
  "Ð¸ÑĩÐºÐ¸": 27583,
  "Ð¸ÑĩÐ½Ð¾": 38995,
  "Ð¸ÑĩÐ½Ð¾ÑģÑĤÑĮ": 36256,
  "Ð¸ÑĩÐ½ÑĭÐ¹": 32746,
  "Ð¸ÑĩÑĥ": 23269,
  "Ð¸ÑĪ": 6519,
  "Ð¸ÑĪÐµÑĤ": 32584,
  "Ð¸ÑĪÐ¸ÑĤÐµ": 17736,
  "Ð¸ÑĪÑĮ": 4816,
  "Ð¸ÑĪÑĮÑģÑı": 16125,
  "Ð¸ÑīÐµ": 45816,
  "Ð¸Ñİ": 3405,
  "Ð¸Ñı": 737,
  "Ð¸ÑıÐ¼Ð¸": 44151,
  "Ð¹": 296,
  "Ð¹Ð¼": 35009,
  "Ð¹Ð½": 3426,
  "Ð¹Ð¾ÑĢÐº": 49215,
  "Ð¹ÑģÑı": 8366,
  "Ð¹ÑĤÐµ": 1226,
  "Ð¹ÑĤÐµÑģÑĮ": 4542,
  "Ð¹ÑĤÐ¸": 1755,
  "Ðº": 274,
  "ÐºÐ°": 344,
  "ÐºÐ°Ð´": 35987,
  "ÐºÐ°Ð´ÐµÐ¼": 4844,
  "ÐºÐ°ÐµÑĤ": 7795,
  "ÐºÐ°ÐµÑĤÑģÑı": 27173,
  "ÐºÐ°Ð·": 741,
  "ÐºÐ°Ð·Ð°": 2001,
  "ÐºÐ°Ð·Ð°Ð»Ð¾ÑģÑĮ": 16868,
  "ÐºÐ°Ð·Ð°Ð½Ð¸Ðµ": 49095,
  "ÐºÐ°Ð¹": 31522,
  "ÐºÐ°Ðº": 2834,
  "ÐºÐ°ÐºÐ°Ñı": 31793,
  "ÐºÐ°ÐºÐ¸Ðµ": 17456,
  "ÐºÐ°ÐºÐ¾Ðµ": 45637,
  "ÐºÐ°ÐºÐ¾Ð¹": 21093,
  "ÐºÐ°Ð»": 10744,
  "ÐºÐ°Ð»Ð°": 18381,
  "ÐºÐ°Ð»Ð¸": 13656,
  "ÐºÐ°Ð»Ð¾": 46549,
  "ÐºÐ°Ð»ÑģÑı": 43940,
  "ÐºÐ°Ð»ÑĮ": 22598,
  "ÐºÐ°Ð¼": 2026,
  "ÐºÐ°Ð¼Ð¸": 1120,
  "ÐºÐ°Ð½": 1582,
  "ÐºÐ°Ð½Ð°": 41223,
  "ÐºÐ°Ð½Ð¸Ðµ": 41283,
  "ÐºÐ°Ð½Ð¸Ñı": 28429,
  "ÐºÐ°Ð½Ñĭ": 48697,
  "ÐºÐ°Ð½ÑĮÐµ": 48716,
  "ÐºÐ°Ð½ÑĮÑİ": 44544,
  "ÐºÐ°Ð¿": 45159,
  "ÐºÐ°ÑĢ": 3391,
  "ÐºÐ°ÑĢÐ°": 36432,
  "ÐºÐ°ÑĢÑĤ": 48846,
  "ÐºÐ°Ñģ": 11298,
  "ÐºÐ°ÑĤ": 35576,
  "ÐºÐ°ÑĤÐµÑĢÐ¸": 6259,
  "ÐºÐ°ÑĤÑĮ": 8827,
  "ÐºÐ°ÑĤÑĮÑģÑı": 25317,
  "ÐºÐ°ÑĥÐ½": 14121,
  "ÐºÐ°Ñħ": 1180,
  "ÐºÐ°ÑĩÐµ": 31258,
  "ÐºÐ°Ñİ": 47831,
  "ÐºÐ°ÑİÑĤ": 13914,
  "ÐºÐ°ÑİÑĤÑģÑı": 34165,
  "ÐºÐ°Ñı": 2113,
  "ÐºÐ°ÑıÑģÑĮ": 28468,
  "ÐºÐ²": 31432,
  "ÐºÐ²Ð°": 48988,
  "ÐºÐ²Ð°ÑĢÑĤÐ¸": 26543,
  "ÐºÐ³": 19983,
  "ÐºÐµ": 610,
  "ÐºÐµÐ²Ð¸Ñĩ": 42681,
  "ÐºÐµÐ¹": 16564,
  "ÐºÐµÐ½": 28582,
  "ÐºÐµÑĢ": 11815,
  "ÐºÐµÑĢÐ°": 19933,
  "ÐºÐµÑģ": 48073,
  "ÐºÐµÑĤ": 3956,
  "ÐºÐ¸": 374,
  "ÐºÐ¸Ð´": 15912,
  "ÐºÐ¸Ð´Ñĭ": 13493,
  "ÐºÐ¸Ðµ": 1756,
  "ÐºÐ¸Ð¹": 1358,
  "ÐºÐ¸Ð¼": 2491,
  "ÐºÐ¸Ð¼Ð¸": 3788,
  "ÐºÐ¸Ð½": 4015,
  "ÐºÐ¸Ð½Ð°": 9074,
  "ÐºÐ¸Ð½Ð³": 33007,
  "ÐºÐ¸Ð½Ðµ": 39247,
  "ÐºÐ¸Ð½Ð¾": 25737,
  "ÐºÐ¸Ð½Ð¾Ð¹": 43718,
  "ÐºÐ¸Ð½Ñģ": 44967,
  "ÐºÐ¸Ð½Ñĥ": 35608,
  "ÐºÐ¸Ð¿Ð°": 43277,
  "ÐºÐ¸ÑĢ": 24288,
  "ÐºÐ¸ÑģÐ»": 33871,
  "ÐºÐ¸ÑĤÐ°Ð¹": 42016,
  "ÐºÐ¸Ñħ": 1640,
  "ÐºÐ¸ÑĪÐµ": 40330,
  "ÐºÐ»": 7095,
  "ÐºÐ»Ð°": 1851,
  "ÐºÐ»Ð°Ð´": 7788,
  "ÐºÐ»Ð°Ð´Ñĭ": 4377,
  "ÐºÐ»Ð°Ð´ÑĭÐ²Ð°ÑĤÑĮ": 14437,
  "ÐºÐ»Ð°Ñģ": 12976,
  "ÐºÐ»Ð°ÑģÑģ": 18499,
  "ÐºÐ»Ð°ÑģÑģÐ°": 28789,
  "ÐºÐ»Ð°ÑģÑģÑĭ": 38816,
  "ÐºÐ»Ðµ": 34581,
  "ÐºÐ»Ð¸": 7334,
  "ÐºÐ»Ð¾": 25016,
  "ÐºÐ»Ð¾Ð½": 33400,
  "ÐºÐ»ÑĥÐ±": 26119,
  "ÐºÐ»Ñİ": 1402,
  "ÐºÐ»ÑİÑĩÐµÐ½Ð¸Ðµ": 43055,
  "ÐºÐ»ÑİÑĩÐµÐ½Ð¸Ñı": 45380,
  "ÐºÐ¼": 15237,
  "ÐºÐ½ÐµÑĤ": 36566,
  "ÐºÐ½Ð¸": 26877,
  "ÐºÐ½Ð¸ÑĤÐµ": 47144,
  "ÐºÐ½Ð¾Ð²": 5737,
  "ÐºÐ½Ñĥ": 10356,
  "ÐºÐ½ÑĥÐ²": 22864,
  "ÐºÐ½ÑĥÐ²ÑĪÐ¸ÑģÑĮ": 37166,
  "ÐºÐ½ÑĥÐ»": 4174,
  "ÐºÐ½ÑĥÐ»Ð°": 8336,
  "ÐºÐ½ÑĥÐ»Ð°ÑģÑĮ": 27293,
  "ÐºÐ½ÑĥÐ»Ð¸": 22327,
  "ÐºÐ½ÑĥÐ»Ð¸ÑģÑĮ": 37467,
  "ÐºÐ½ÑĥÐ»Ð¾": 25904,
  "ÐºÐ½ÑĥÐ»ÑģÑı": 17396,
  "ÐºÐ½ÑĥÑĤ": 49272,
  "ÐºÐ½ÑĥÑĤÑĮ": 9169,
  "ÐºÐ½ÑĥÑĤÑĮÑģÑı": 38919,
  "ÐºÐ¾": 412,
  "ÐºÐ¾Ð±": 7780,
  "ÐºÐ¾Ð±ÑĢÐ¸ÑĤÐ°": 9693,
  "ÐºÐ¾Ð²": 548,
  "ÐºÐ¾Ð²Ð°": 3729,
  "ÐºÐ¾Ð²Ð°Ð»": 32832,
  "ÐºÐ¾Ð²Ð°Ð»Ð¸": 49387,
  "ÐºÐ¾Ð²Ð°Ð½Ð¾": 26309,
  "ÐºÐ¾Ð²Ð°ÑĤÑĮ": 19261,
  "ÐºÐ¾Ð²Ð°Ñı": 19190,
  "ÐºÐ¾Ð²Ð¸Ñĩ": 21162,
  "ÐºÐ¾Ð²Ð¸ÑĩÐ°": 33185,
  "ÐºÐ¾Ð²ÐºÐ°": 48894,
  "ÐºÐ¾Ð²Ð½Ð¸Ðº": 18718,
  "ÐºÐ¾Ð²Ð¾": 9078,
  "ÐºÐ¾Ð²Ð¾Ð³Ð¾": 10150,
  "ÐºÐ¾Ð²Ð¾Ð´": 2041,
  "ÐºÐ¾Ð²Ð¾Ðµ": 16660,
  "ÐºÐ¾Ð²Ð¾Ð¹": 6647,
  "ÐºÐ¾Ð²Ð¾Ð¼": 31490,
  "ÐºÐ¾Ð²ÑģÐºÐ°Ñı": 31298,
  "ÐºÐ¾Ð²ÑģÐºÐ¸Ð¹": 12732,
  "ÐºÐ¾Ð²ÑģÐºÐ¾Ð³Ð¾": 12803,
  "ÐºÐ¾Ð²ÑģÐºÐ¾Ð¹": 29686,
  "ÐºÐ¾Ð²Ñĥ": 23516,
  "ÐºÐ¾Ð²ÑĥÑİ": 22913,
  "ÐºÐ¾Ð²Ñĭ": 18974,
  "ÐºÐ¾Ð²ÑĭÐµ": 7470,
  "ÐºÐ¾Ð²ÑĭÐ¹": 10627,
  "ÐºÐ¾Ð²ÑĭÐ¼": 12745,
  "ÐºÐ¾Ð²ÑĭÐ¼Ð¸": 25481,
  "ÐºÐ¾Ð²ÑĭÑħ": 7400,
  "ÐºÐ¾Ð³": 5621,
  "ÐºÐ¾Ð³Ð´Ð°": 7595,
  "ÐºÐ¾Ð³Ð¾": 2193,
  "ÐºÐ¾Ð´": 30611,
  "ÐºÐ¾Ðµ": 2978,
  "ÐºÐ¾Ð·": 19571,
  "ÐºÐ¾Ð¹": 799,
  "ÐºÐ¾Ðº": 24866,
  "ÐºÐ¾Ð»": 9966,
  "ÐºÐ¾Ð»ÐµÐ¿": 33452,
  "ÐºÐ¾Ð»Ð¸": 46314,
  "ÐºÐ¾Ð»ÑĮ": 39229,
  "ÐºÐ¾Ð¼": 663,
  "ÐºÐ¾Ð¼Ð°": 10141,
  "ÐºÐ¾Ð¼Ð°Ð½": 19153,
  "ÐºÐ¾Ð¼ÐµÐ½": 3389,
  "ÐºÐ¾Ð¼Ð¼ÑĥÐ½": 36241,
  "ÐºÐ¾Ð¼Ð½Ð°ÑĤ": 20612,
  "ÐºÐ¾Ð¼Ð¿": 14726,
  "ÐºÐ¾Ð¼Ð¿Ð»ÐµÐº": 37392,
  "ÐºÐ¾Ð¼Ð¿Ð»ÐµÐºÑĤ": 46267,
  "ÐºÐ¾Ð¼Ñĥ": 4084,
  "ÐºÐ¾Ð½": 2566,
  "ÐºÐ¾Ð½Ð°": 11001,
  "ÐºÐ¾Ð½ÐµÑĩÐ½Ð¾": 26501,
  "ÐºÐ¾Ð½ÑĤÐ°ÐºÑĤÐµ": 22527,
  "ÐºÐ¾Ð½ÑĤÑĢ": 18904,
  "ÐºÐ¾Ð½ÑĦÐµÑĢÐµÐ½": 18168,
  "ÐºÐ¾Ð½ÑĦÐµÑĢÐµÐ½ÑĨÐ¸Ð¸": 26087,
  "ÐºÐ¾Ð½Ñĭ": 16825,
  "ÐºÐ¾Ð¾Ð±ÑĢÐ°Ð·": 48152,
  "ÐºÐ¾Ð¿": 14702,
  "ÐºÐ¾ÑĢ": 3903,
  "ÐºÐ¾ÑĢÐ°": 7942,
  "ÐºÐ¾ÑĢÐ¸": 17571,
  "ÐºÐ¾ÑĢÐ¸ÑĩÐ½Ðµ": 36319,
  "ÐºÐ¾ÑĢÐ¼": 30653,
  "ÐºÐ¾ÑĢÑĢÐµÐº": 25116,
  "ÐºÐ¾ÑĢÑĤÐ¾": 34658,
  "ÐºÐ¾Ñģ": 12333,
  "ÐºÐ¾ÑģÐ½Ð¾Ð²": 34795,
  "ÐºÐ¾ÑģÑĤÐ¸": 6535,
  "ÐºÐ¾ÑģÑĤÑĮ": 5351,
  "ÐºÐ¾ÑģÑĤÑĮÑİ": 16667,
  "ÐºÐ¾ÑĤ": 23338,
  "ÐºÐ¾ÑĤÐ°": 37478,
  "ÐºÐ¾ÑĤÐ¾ÑĢÐ°Ñı": 39928,
  "ÐºÐ¾ÑĤÐ¾ÑĢÐ¾Ðµ": 25658,
  "ÐºÐ¾ÑĤÐ¾ÑĢÑĭ": 5240,
  "ÐºÐ¾ÑĤÐ¾ÑĢÑĭÐµ": 6350,
  "ÐºÐ¾ÑĤÐ¾ÑĢÑĭÐ¹": 26368,
  "ÐºÐ¾ÑĤÐ¾ÑĢÑĭÐ¼": 49844,
  "ÐºÐ¾ÑĤÐ¾ÑĢÑĭÑħ": 49397,
  "ÐºÐ¾ÑĤÑĮ": 46662,
  "ÐºÐ¾Ñİ": 31294,
  "ÐºÑĢ": 32048,
  "ÐºÑĢÐ°": 910,
  "ÐºÑĢÐ°Ñģ": 8200,
  "ÐºÑĢÐ°ÑģÐ¸": 21282,
  "ÐºÑĢÐ°ÑģÐ½Ð¾": 28018,
  "ÐºÑĢÐ°ÑģÐ½ÑĭÐ¹": 35980,
  "ÐºÑĢÐµ": 18455,
  "ÐºÑĢÐµÐ´Ð¸ÑĤ": 45944,
  "ÐºÑĢÐµÐ¿": 34373,
  "ÐºÑĢÐµÑĤ": 4292,
  "ÐºÑĢÐ¸": 24446,
  "ÐºÑĢÐ¾Ð²": 44624,
  "ÐºÑĢÐ¾Ð¼Ðµ": 26916,
  "ÐºÑĢÑĥ": 40307,
  "ÐºÑĢÑĥÐ³": 42627,
  "ÐºÑĢÑĭ": 1089,
  "ÐºÑģ": 5311,
  "ÐºÑģÐ°": 41289,
  "ÐºÑģÑĤÐ°ÑĤÐ¸": 35985,
  "ÐºÑĤÐ¾": 8872,
  "ÐºÑĤÑĭ": 45270,
  "ÐºÑĥ": 467,
  "ÐºÑĥÐ´Ð°": 2977,
  "ÐºÑĥÐ»ÑĮ": 8919,
  "ÐºÑĥÐ»ÑĮÑĤÑĥÑĢ": 20652,
  "ÐºÑĥÐ»ÑıÑĢ": 48201,
  "ÐºÑĥÐ½": 38169,
  "ÐºÑĥÐ¿": 9240,
  "ÐºÑĥÐ¿Ðµ": 50087,
  "ÐºÑĥÐ¿Ð¸ÑĤÑĮ": 38038,
  "ÐºÑĥÑĢ": 2986,
  "ÐºÑĥÑĢÑģ": 19269,
  "ÐºÑĥÑĢÑģÐ°": 41752,
  "ÐºÑĥÑģ": 11181,
  "ÐºÑĥÑĤ": 9739,
  "ÐºÑĥÑİ": 3756,
  "Ð»": 272,
  "Ð»Ð°": 334,
  "Ð»Ð°Ð±": 5557,
  "Ð»Ð°Ð²": 1376,
  "Ð»Ð°Ð²Ð°": 4403,
  "Ð»Ð°Ð²Ð»Ð¸": 31866,
  "Ð»Ð°Ð³": 3935,
  "Ð»Ð°Ð³Ð°": 2427,
  "Ð»Ð°Ð³Ð¾Ð²": 40308,
  "Ð»Ð°Ð³Ð¾Ð´Ð°": 12310,
  "Ð»Ð°Ð³Ð¾Ð´Ð°ÑĢ": 17236,
  "Ð»Ð°Ð´": 1289,
  "Ð»Ð°Ð´Ð°": 30503,
  "Ð»Ð°Ð´ÐµÐ»ÑĮ": 17773,
  "Ð»Ð°Ð´ÐµÐ»ÑĮÑĨÑĭ": 45006,
  "Ð»Ð°Ð´Ð¸": 2421,
  "Ð»Ð°Ð´Ð¸Ð»": 34410,
  "Ð»Ð°Ð´Ð¸ÑĤÑĮ": 30696,
  "Ð»Ð°Ð´ÐºÐ¸": 16324,
  "Ð»Ð°Ð´Ñĥ": 49651,
  "Ð»Ð°Ð´Ñĭ": 5033,
  "Ð»Ð°Ð¶": 10942,
  "Ð»Ð°Ð¶Ð¸": 30033,
  "Ð»Ð°Ð·": 8753,
  "Ð»Ð°Ð¹": 14718,
  "Ð»Ð°Ð¹Ð½": 5644,
  "Ð»Ð°Ðº": 4777,
  "Ð»Ð°ÐºÐ°": 45103,
  "Ð»Ð°ÐºÐ¸": 44702,
  "Ð»Ð°Ð»": 47872,
  "Ð»Ð°Ð¼": 7221,
  "Ð»Ð°Ð¼Ð°": 28254,
  "Ð»Ð°Ð¼Ð¸": 7202,
  "Ð»Ð°Ð¼Ñĭ": 45286,
  "Ð»Ð°Ð½": 2109,
  "Ð»Ð°Ð½Ð°": 10768,
  "Ð»Ð°Ð½Ð´": 7626,
  "Ð»Ð°Ð½Ð´Ð¸Ð¸": 15032,
  "Ð»Ð°Ð½Ð´Ð¸Ñı": 33201,
  "Ð»Ð°ÑĢ": 34998,
  "Ð»Ð°Ñģ": 1121,
  "Ð»Ð°ÑģÐ¸Ð»": 16116,
  "Ð»Ð°ÑģÑģ": 6434,
  "Ð»Ð°ÑģÑģÐ¸": 19981,
  "Ð»Ð°ÑģÑĤÐ¸": 11317,
  "Ð»Ð°ÑģÑĮ": 805,
  "Ð»Ð°ÑĤ": 17607,
  "Ð»Ð°ÑĤÑĭ": 46435,
  "Ð»Ð°ÑĤÑĮ": 34634,
  "Ð»Ð°Ñħ": 9769,
  "Ð»Ð°Ñı": 7262,
  "Ð»Ðµ": 586,
  "Ð»ÐµÐ±": 10638,
  "Ð»ÐµÐ±Ñĭ": 46503,
  "Ð»ÐµÐ²": 4822,
  "Ð»ÐµÐ²Ð°": 18085,
  "Ð»ÐµÐ²Ð°ÑĤÑĮ": 22818,
  "Ð»ÐµÐ²Ð¾Ð¹": 45680,
  "Ð»ÐµÐ³": 3174,
  "Ð»ÐµÐ³Ð°": 12230,
  "Ð»ÐµÐ³Ð°Ð½ÑĤ": 17747,
  "Ð»ÐµÐ´": 1862,
  "Ð»ÐµÐ´ÑģÑĤÐ²Ð¸Ð¸": 9587,
  "Ð»ÐµÐµ": 15827,
  "Ð»ÐµÐ¶": 3911,
  "Ð»ÐµÐ¶Ð°": 7368,
  "Ð»ÐµÐ·": 8358,
  "Ð»ÐµÐ¸": 16533,
  "Ð»ÐµÐ¹": 1558,
  "Ð»ÐµÐ¹Ð½": 49148,
  "Ð»ÐµÐ¹ÑĤÐµÐ½Ð°Ð½ÑĤ": 42274,
  "Ð»ÐµÐº": 801,
  "Ð»ÐµÐºÐ¾Ð¿": 40622,
  "Ð»ÐµÐºÐ¾Ð¿Ð¸ÑĤÐ°": 43123,
  "Ð»ÐµÐºÑģ": 1601,
  "Ð»ÐµÐºÑĤ": 6961,
  "Ð»ÐµÐºÑĤÑĢÐ¸": 21831,
  "Ð»ÐµÐ»": 45451,
  "Ð»ÐµÐ¼": 1074,
  "Ð»ÐµÐ¼Ñĥ": 9637,
  "Ð»ÐµÐ½": 672,
  "Ð»ÐµÐ½Ð°": 2965,
  "Ð»ÐµÐ½Ð´": 23455,
  "Ð»ÐµÐ½Ð¸": 29599,
  "Ð»ÐµÐ½Ð¸Ðµ": 1068,
  "Ð»ÐµÐ½Ð¸ÐµÐ¼": 3204,
  "Ð»ÐµÐ½Ð¸Ð¸": 2632,
  "Ð»ÐµÐ½Ð¸Ð¹": 3716,
  "Ð»ÐµÐ½Ð¸Ñİ": 3859,
  "Ð»ÐµÐ½Ð¸Ñı": 925,
  "Ð»ÐµÐ½Ð¸ÑıÐ¼Ð¸": 35255,
  "Ð»ÐµÐ½ÐºÐ¾": 42116,
  "Ð»ÐµÐ½Ð½Ð°Ñı": 8735,
  "Ð»ÐµÐ½Ð½ÐµÐµ": 36028,
  "Ð»ÐµÐ½Ð½Ð¾": 3197,
  "Ð»ÐµÐ½Ð½Ð¾Ð³Ð¾": 7718,
  "Ð»ÐµÐ½Ð½Ð¾Ðµ": 10178,
  "Ð»ÐµÐ½Ð½Ð¾Ð¹": 6673,
  "Ð»ÐµÐ½Ð½Ð¾Ð¼": 18719,
  "Ð»ÐµÐ½Ð½Ð¾Ð¼Ñĥ": 30448,
  "Ð»ÐµÐ½Ð½Ð¾ÑģÑĤÐ¸": 29655,
  "Ð»ÐµÐ½Ð½Ð¾ÑģÑĤÑĮ": 26411,
  "Ð»ÐµÐ½Ð½ÑĥÑİ": 11257,
  "Ð»ÐµÐ½Ð½ÑĭÐµ": 4680,
  "Ð»ÐµÐ½Ð½ÑĭÐ¹": 5099,
  "Ð»ÐµÐ½Ð½ÑĭÐ¼": 8793,
  "Ð»ÐµÐ½Ð½ÑĭÐ¼Ð¸": 15476,
  "Ð»ÐµÐ½Ð½ÑĭÑħ": 4679,
  "Ð»ÐµÐ½Ð¾": 4265,
  "Ð»ÐµÐ½Ñĭ": 2819,
  "Ð»ÐµÐ¿": 10504,
  "Ð»ÐµÑĢ": 3562,
  "Ð»ÐµÑĢÐ°": 9610,
  "Ð»ÐµÑĢÐ¾Ð²": 15950,
  "Ð»ÐµÑĢÐ¾Ð¼": 31727,
  "Ð»ÐµÑĢÑĭ": 37083,
  "Ð»ÐµÑģ": 10821,
  "Ð»ÐµÑģÐº": 21823,
  "Ð»ÐµÑģÐºÐ¸": 32157,
  "Ð»ÐµÑģÑĤ": 24076,
  "Ð»ÐµÑĤ": 1205,
  "Ð»ÐµÑĤÐ°": 8440,
  "Ð»ÐµÑĤÐ°ÐµÑĤ": 40414,
  "Ð»ÐµÑĤÐ²Ð¾ÑĢ": 33615,
  "Ð»ÐµÑĤÐµ": 36673,
  "Ð»ÐµÑĤÐ¸Ðµ": 31954,
  "Ð»ÐµÑĤÐ¸Ñİ": 22265,
  "Ð»ÐµÑĤÐ¸Ñı": 23985,
  "Ð»ÐµÑĤÐºÐ¸": 30560,
  "Ð»ÐµÑĤÐ½ÐµÐ³Ð¾": 15052,
  "Ð»ÐµÑĤÐ½ÐµÐ¹": 19790,
  "Ð»ÐµÑĤÐ½ÐµÐ¼Ñĥ": 47441,
  "Ð»ÐµÑĤÐ½Ð¸Ð¹": 10162,
  "Ð»ÐµÑĤÐ½Ð¸Ð¼": 40243,
  "Ð»ÐµÑĤÐ½ÑİÑİ": 40698,
  "Ð»ÐµÑĤÐ½ÑıÑı": 20332,
  "Ð»ÐµÑĤÑĢÑıÑģ": 24088,
  "Ð»ÐµÑĤÑĭ": 20443,
  "Ð»ÐµÑĤÑĮ": 44415,
  "Ð»ÐµÑĨ": 24381,
  "Ð»ÐµÑı": 26724,
  "Ð»Ð·": 33181,
  "Ð»Ð¸": 327,
  "Ð»Ð¸Ð±Ð¾": 3951,
  "Ð»Ð¸Ð²": 3376,
  "Ð»Ð¸Ð²Ð°": 8512,
  "Ð»Ð¸Ð²Ð°Ð»Ð°ÑģÑĮ": 42629,
  "Ð»Ð¸Ð²Ð°Ð»Ð¸ÑģÑĮ": 27841,
  "Ð»Ð¸Ð²Ð°ÑĤÑĮ": 23508,
  "Ð»Ð¸Ð²Ð°Ñı": 16532,
  "Ð»Ð¸Ð²Ð¾": 2971,
  "Ð»Ð¸Ð²Ð¾Ð³Ð¾": 19829,
  "Ð»Ð¸Ð²Ð¾Ðµ": 29260,
  "Ð»Ð¸Ð²Ð¾Ð¹": 19382,
  "Ð»Ð¸Ð²Ð¾ÑģÑĤÐ¸": 40660,
  "Ð»Ð¸Ð²Ð¾ÑģÑĤÑĮ": 26886,
  "Ð»Ð¸Ð²ÑĥÐ´": 26825,
  "Ð»Ð¸Ð²ÑĥÑİ": 33842,
  "Ð»Ð¸Ð²Ñĭ": 35196,
  "Ð»Ð¸Ð²ÑĭÐµ": 13997,
  "Ð»Ð¸Ð²ÑĭÐ¹": 10958,
  "Ð»Ð¸Ð²ÑĭÐ¼": 18260,
  "Ð»Ð¸Ð²ÑĭÐ¼Ð¸": 35312,
  "Ð»Ð¸Ð²ÑĭÑħ": 18121,
  "Ð»Ð¸ÐµÐ¹": 33747,
  "Ð»Ð¸Ð¶Ðµ": 16008,
  "Ð»Ð¸Ð·": 6211,
  "Ð»Ð¸Ð·Ð°": 11598,
  "Ð»Ð¸Ð·Ð°Ð±ÐµÑĤ": 28064,
  "Ð»Ð¸Ð·Ð°ÑĨÐ¸Ð¸": 33365,
  "Ð»Ð¸Ð·Ð¼": 39676,
  "Ð»Ð¸Ð·Ð¼Ð°": 40970,
  "Ð»Ð¸Ð·Ð¾Ð²": 16518,
  "Ð»Ð¸Ð·Ð¾ÑģÑĤÐ¸": 23325,
  "Ð»Ð¸Ð¸": 8234,
  "Ð»Ð¸Ð¹": 13143,
  "Ð»Ð¸Ðº": 2932,
  "Ð»Ð¸ÐºÐ°": 21688,
  "Ð»Ð¸ÐºÐ¸": 30554,
  "Ð»Ð¸ÐºÐ¾Ð²": 47495,
  "Ð»Ð¸ÐºÑĥ": 40384,
  "Ð»Ð¸Ð»": 12934,
  "Ð»Ð¸Ð»Ð°": 29153,
  "Ð»Ð¸Ð»Ð°ÑģÑĮ": 35971,
  "Ð»Ð¸Ð»Ð¸": 27139,
  "Ð»Ð¸Ð»ÑģÑı": 22332,
  "Ð»Ð¸Ð¼": 5437,
  "Ð»Ð¸Ð½": 1592,
  "Ð»Ð¸Ð½Ð°": 4281,
  "Ð»Ð¸Ð½Ð³": 14764,
  "Ð»Ð¸Ð½Ð³Ð°": 39038,
  "Ð»Ð¸Ð½Ð³Ð¾Ð²": 43659,
  "Ð»Ð¸Ð½Ð´": 16903,
  "Ð»Ð¸Ð½Ðµ": 24402,
  "Ð»Ð¸Ð½ÑģÐºÐ¸Ð¹": 50101,
  "Ð»Ð¸Ð½Ñĭ": 41294,
  "Ð»Ð¸Ð¿": 34012,
  "Ð»Ð¸Ñģ": 40890,
  "Ð»Ð¸ÑģÑĤ": 31498,
  "Ð»Ð¸ÑģÑĮ": 974,
  "Ð»Ð¸ÑĤ": 5092,
  "Ð»Ð¸ÑĤÐ°": 40682,
  "Ð»Ð¸ÑĤÑģÑı": 26691,
  "Ð»Ð¸ÑĤÑĮ": 9829,
  "Ð»Ð¸ÑĤÑĮÑģÑı": 34075,
  "Ð»Ð¸ÑĨ": 22961,
  "Ð»Ð¸ÑĨÐ°": 14307,
  "Ð»Ð¸ÑĨÐµ": 48041,
  "Ð»Ð¸ÑĨÑĭ": 33276,
  "Ð»Ð¸Ñĩ": 1313,
  "Ð»Ð¸ÑĩÐ¸Ðµ": 38117,
  "Ð»Ð¸ÑĩÐ½Ð¾": 9608,
  "Ð»Ð¸ÑĩÐ½ÑĭÐµ": 31743,
  "Ð»Ð¸ÑĩÐ½ÑĭÐ¹": 46290,
  "Ð»Ð¸ÑĪÐºÐ¾Ð¼": 17559,
  "Ð»Ð¸Ñİ": 14747,
  "Ð»Ð¸Ñı": 2040,
  "Ð»Ð¸ÑıÐ½Ð¸Ðµ": 38763,
  "Ð»Ð¸ÑıÑĤÑĮ": 25149,
  "Ð»ÐºÐ°": 19477,
  "Ð»ÐºÐµ": 31663,
  "Ð»ÐºÐ¸": 20942,
  "Ð»ÐºÑĥ": 26890,
  "Ð»Ð»": 6709,
  "Ð»Ð»Ð°": 23002,
  "Ð»Ð»ÐµÐ»ÑĮÐ½Ð¾": 45584,
  "Ð»Ð»ÐµÑĢ": 38078,
  "Ð»Ð»ÐµÑĤ": 33093,
  "Ð»Ð»Ð¸": 8620,
  "Ð»Ð»Ñİ": 6767,
  "Ð»Ð½": 37466,
  "Ð»Ð¾": 473,
  "Ð»Ð¾Ð±": 10521,
  "Ð»Ð¾Ð²": 1539,
  "Ð»Ð¾Ð²Ð°": 8364,
  "Ð»Ð¾Ð²Ð¸": 28718,
  "Ð»Ð¾Ð²Ð¸Ñĩ": 39321,
  "Ð»Ð¾Ð²Ð¾Ð¹": 27742,
  "Ð»Ð¾Ð²ÑģÐºÐ¸Ð¹": 43784,
  "Ð»Ð¾Ð³": 11199,
  "Ð»Ð¾Ð³Ð¸": 27252,
  "Ð»Ð¾Ð³Ð¾": 13245,
  "Ð»Ð¾Ð´": 8292,
  "Ð»Ð¾Ð´Ð¸": 47451,
  "Ð»Ð¾Ð´Ð¸Ñģ": 35177,
  "Ð»Ð¾Ð´Ð¾ÑĤÐ²Ð¾ÑĢ": 48156,
  "Ð»Ð¾Ðµ": 16679,
  "Ð»Ð¾Ð¶": 1166,
  "Ð»Ð¾Ð¶ÐµÐ½Ð¸Ðµ": 13627,
  "Ð»Ð¾Ð¶ÐµÐ½Ð¸Ñı": 11876,
  "Ð»Ð¾Ð¶Ð¸ÑĤÑĮ": 8479,
  "Ð»Ð¾Ð¹": 8283,
  "Ð»Ð¾Ðº": 2203,
  "Ð»Ð¾ÐºÐ°": 24628,
  "Ð»Ð¾ÐºÐ¸": 9479,
  "Ð»Ð¾ÐºÐ¾ÑĤ": 44293,
  "Ð»Ð¾Ð¼": 1799,
  "Ð»Ð¾Ð¼Ð°": 42117,
  "Ð»Ð¾Ð¼Ñĥ": 47810,
  "Ð»Ð¾Ð½": 2333,
  "Ð»Ð¾Ð½Ð°": 19161,
  "Ð»Ð¾Ð½Ð´Ð¸Ð½": 16547,
  "Ð»Ð¾Ð½Ðµ": 23643,
  "Ð»Ð¾Ð½Ð¾Ð²": 30540,
  "Ð»Ð¾Ð½Ð¾Ð¼": 32032,
  "Ð»Ð¾Ð½Ñĭ": 30242,
  "Ð»Ð¾Ð¿": 3465,
  "Ð»Ð¾ÑĢ": 23181,
  "Ð»Ð¾ÑĢÐ°": 38595,
  "Ð»Ð¾ÑĢÐ¸": 23688,
  "Ð»Ð¾Ñģ": 11197,
  "Ð»Ð¾ÑģÑĤÐ¸": 35204,
  "Ð»Ð¾ÑģÑĤÑĮ": 32292,
  "Ð»Ð¾ÑģÑĥ": 18756,
  "Ð»Ð¾ÑģÑĮ": 1589,
  "Ð»Ð¾ÑĤ": 4756,
  "Ð»Ð¾ÑĤÐ°": 42102,
  "Ð»Ð¾ÑĤÐ½ÑĥÑİ": 25666,
  "Ð»Ð¾ÑĤÑĮ": 12697,
  "Ð»Ð¾Ñĥ": 23612,
  "Ð»Ð¾Ñħ": 15812,
  "Ð»Ð¾ÑĩÐºÐ°": 37608,
  "Ð»Ð¾ÑĩÐºÐ¸": 24836,
  "Ð»Ð¾ÑĩÐºÑĥ": 32342,
  "Ð»Ñģ": 42002,
  "Ð»ÑģÑı": 858,
  "Ð»Ñĥ": 2018,
  "Ð»ÑĥÐ±": 2744,
  "Ð»ÑĥÐ±Ðµ": 16482,
  "Ð»ÑĥÐ¶": 23794,
  "Ð»ÑĥÐ¿": 13132,
  "Ð»ÑĥÑħ": 30955,
  "Ð»ÑĥÑĩ": 7235,
  "Ð»ÑĥÑĩÐ°": 27030,
  "Ð»ÑĥÑĩÑĪÐµ": 28485,
  "Ð»ÑĥÑĪ": 6041,
  "Ð»ÑĥÑĪÐ°": 35101,
  "Ð»ÑĥÑĪÐ°Ð¹": 20106,
  "Ð»ÑĥÑĪÐ°Ð¹ÑĤÐµ": 32629,
  "Ð»ÑĥÑİ": 21805,
  "Ð»Ñĭ": 1117,
  "Ð»ÑĭÐ±": 16613,
  "Ð»ÑĭÐµ": 8682,
  "Ð»ÑĭÐ¹": 7269,
  "Ð»ÑĭÐº": 39520,
  "Ð»ÑĭÐ»": 47027,
  "Ð»ÑĭÐ¼": 7764,
  "Ð»ÑĭÐ¼Ð¸": 13959,
  "Ð»ÑĭÑħ": 13694,
  "Ð»ÑĮ": 549,
  "Ð»ÑĮÐµ": 48917,
  "Ð»ÑĮÐºÐ°": 41103,
  "Ð»ÑĮÐ½Ð°Ñı": 18333,
  "Ð»ÑĮÐ½Ð¾": 40054,
  "Ð»ÑĮÐ½Ð¾Ð³Ð¾": 6334,
  "Ð»ÑĮÐ½Ð¾Ðµ": 26044,
  "Ð»ÑĮÐ½Ð¾Ð¹": 7751,
  "Ð»ÑĮÐ½Ð¾Ð¼": 43903,
  "Ð»ÑĮÐ½Ð¾Ð¼Ñĥ": 41267,
  "Ð»ÑĮÐ½ÑĥÑİ": 31419,
  "Ð»ÑĮÐ½ÑĭÐµ": 17190,
  "Ð»ÑĮÐ½ÑĭÐ¹": 7199,
  "Ð»ÑĮÐ½ÑĭÐ¼": 17345,
  "Ð»ÑĮÐ½ÑĭÐ¼Ð¸": 44589,
  "Ð»ÑĮÐ½ÑĭÑħ": 15347,
  "Ð»ÑĮÐ¿": 11862,
  "Ð»ÑĮÑİ": 41947,
  "Ð»ÑĮÑı": 6478,
  "Ð»Ñİ": 636,
  "Ð»ÑİÐ±": 4332,
  "Ð»ÑİÐ±Ð¸Ð»Ð°ÑģÑĮ": 37831,
  "Ð»ÑİÐ´": 5136,
  "Ð»ÑİÐ´ÐµÐ½Ð¸Ðµ": 47866,
  "Ð»ÑİÐ´Ð¸": 38628,
  "Ð»ÑİÐ·Ð¸Ð²": 16562,
  "Ð»ÑİÑģ": 14201,
  "Ð»ÑİÑģÑĮ": 12079,
  "Ð»ÑİÑĤ": 34413,
  "Ð»ÑİÑĩ": 2448,
  "Ð»ÑİÑĩÐµÐ½Ð¸Ðµ": 29197,
  "Ð»Ñı": 375,
  "Ð»ÑıÐµÐ¼": 11240,
  "Ð»ÑıÐµÑĤ": 5087,
  "Ð»ÑıÐµÑĤÑģÑı": 4391,
  "Ð»ÑıÐ¶": 47811,
  "Ð»ÑıÐ¹": 43286,
  "Ð»ÑıÐ¹ÑĤÐµ": 41631,
  "Ð»ÑıÐ»": 9938,
  "Ð»ÑıÐ»Ð°": 22639,
  "Ð»ÑıÐ»Ð°ÑģÑĮ": 26606,
  "Ð»ÑıÐ»Ð¸": 10287,
  "Ð»ÑıÐ»Ð¸ÑģÑĮ": 22299,
  "Ð»ÑıÐ»ÑģÑı": 13854,
  "Ð»ÑıÐ¼": 33495,
  "Ð»ÑıÐ¼Ð¸": 13892,
  "Ð»ÑıÐ½": 5426,
  "Ð»ÑıÐ½Ð´": 47911,
  "Ð»ÑıÑĢ": 4798,
  "Ð»ÑıÑĤ": 27586,
  "Ð»ÑıÑĤÐ¾ÑĢ": 17555,
  "Ð»ÑıÑĤÑģÑı": 46780,
  "Ð»ÑıÑĤÑĮ": 3276,
  "Ð»ÑıÑĤÑĮÐµ": 50136,
  "Ð»ÑıÑĤÑĮÑģÑı": 7759,
  "Ð»ÑıÑħ": 9469,
  "Ð»ÑıÑĨÐ¸Ð¸": 8533,
  "Ð»ÑıÑĨÐ¸Ñİ": 28479,
  "Ð»ÑıÑĨÐ¸Ñı": 16348,
  "Ð»ÑıÑİ": 13698,
  "Ð»ÑıÑİÑģÑĮ": 49316,
  "Ð»ÑıÑİÑĤ": 8293,
  "Ð»ÑıÑİÑĤÑģÑı": 10254,
  "Ð»ÑıÑİÑīÐ¸Ðµ": 41939,
  "Ð»ÑıÑİÑīÐ¸Ð¹": 36631,
  "Ð»ÑıÑİÑīÐ¸Ñħ": 48944,
  "Ð»ÑıÑı": 12185,
  "Ð»ÑıÑıÑģÑĮ": 27853,
  "Ð»Ñĳ": 8613,
  "Ð»ÑĳÐ²": 41959,
  "Ð»ÑĳÐ¹": 42692,
  "Ð»ÑĳÐº": 43554,
  "Ð»ÑĳÐ¼": 44052,
  "Ð»ÑĳÐ½": 12358,
  "Ð»ÑĳÐ½Ð½Ð¾": 47487,
  "Ð»ÑĳÑĤ": 38988,
  "Ð¼": 278,
  "Ð¼Ð°": 434,
  "Ð¼Ð°Ð³": 31125,
  "Ð¼Ð°Ð³Ð°": 9423,
  "Ð¼Ð°Ð³Ð°Ð·Ð¸Ð½": 20769,
  "Ð¼Ð°Ð³Ð°Ð·Ð¸Ð½Ð°": 33392,
  "Ð¼Ð°Ð³Ð°Ð·Ð¸Ð½Ðµ": 27160,
  "Ð¼Ð°Ð´": 41944,
  "Ð¼Ð°Ð·": 9521,
  "Ð¼Ð°Ð¹": 9973,
  "Ð¼Ð°Ð¹Ð¾ÑĢ": 41770,
  "Ð¼Ð°Ðº": 15705,
  "Ð¼Ð°Ð»": 13827,
  "Ð¼Ð°Ð»Ð°": 42547,
  "Ð¼Ð°Ð»ÑĮ": 29836,
  "Ð¼Ð°Ð¼": 24312,
  "Ð¼Ð°Ð¼Ð°": 48574,
  "Ð¼Ð°Ð¼Ð¸": 13718,
  "Ð¼Ð°Ð½": 1737,
  "Ð¼Ð°Ð½Ð°": 6950,
  "Ð¼Ð°Ð½ÐµÐ½ÑĤ": 48678,
  "Ð¼Ð°Ð½Ð¸": 22246,
  "Ð¼Ð°Ð½Ð¸Ñı": 35332,
  "Ð¼Ð°Ð½Ð¾Ð²": 20137,
  "Ð¼Ð°Ð½Ð¾Ð¼": 28590,
  "Ð¼Ð°Ð½ÑģÐºÐ¾Ð¹": 43975,
  "Ð¼Ð°Ð½Ñĥ": 28904,
  "Ð¼Ð°Ð½Ñĭ": 11795,
  "Ð¼Ð°ÑĢ": 3902,
  "Ð¼Ð°ÑĢÐ°": 26033,
  "Ð¼Ð°ÑĢÐº": 20901,
  "Ð¼Ð°ÑĢÐºÐµÑĤ": 22710,
  "Ð¼Ð°ÑĢÑĤ": 10353,
  "Ð¼Ð°Ñģ": 9842,
  "Ð¼Ð°ÑģÑģ": 28382,
  "Ð¼Ð°ÑģÑĤÐµÑĢ": 28476,
  "Ð¼Ð°ÑĤ": 7343,
  "Ð¼Ð°ÑĤÐ°": 42829,
  "Ð¼Ð°ÑĤÐµÐ¼Ð°": 44001,
  "Ð¼Ð°ÑĤÐµÑĢÐ¸": 17103,
  "Ð¼Ð°ÑĤÐ¸": 15572,
  "Ð¼Ð°ÑĤÐ¾": 37085,
  "Ð¼Ð°ÑĤÐ¾Ð²": 40858,
  "Ð¼Ð°ÑĤÑĢÐ¸": 2914,
  "Ð¼Ð°ÑĤÑĢÐ¸Ð²Ð°ÑĤÑĮ": 46429,
  "Ð¼Ð°ÑĤÑĢÐ¸Ð²Ð°Ñı": 45034,
  "Ð¼Ð°ÑĤÑĭ": 14157,
  "Ð¼Ð°ÑĤÑĮ": 12233,
  "Ð¼Ð°Ñħ": 3792,
  "Ð¼Ð°ÑĨÐµÐ²": 26475,
  "Ð¼Ð°ÑĪ": 40146,
  "Ð¼Ð°Ñı": 11688,
  "Ð¼Ðµ": 504,
  "Ð¼ÐµÐ³Ð°": 38889,
  "Ð¼ÐµÐ´": 17311,
  "Ð¼ÐµÐ´Ð¸": 30168,
  "Ð¼ÐµÐ¶Ð´Ñĥ": 42029,
  "Ð¼ÐµÐ¹": 6108,
  "Ð¼ÐµÐ¹ÑģÑĤÐµÑĢ": 43272,
  "Ð¼ÐµÐº": 48681,
  "Ð¼ÐµÐ»": 13579,
  "Ð¼ÐµÐ»Ð¸": 33244,
  "Ð¼ÐµÐ»ÑĮ": 10268,
  "Ð¼ÐµÐ¼": 36011,
  "Ð¼ÐµÐ½": 510,
  "Ð¼ÐµÐ½Ð°": 4370,
  "Ð¼ÐµÐ½ÐµÐ´Ð¶": 26714,
  "Ð¼ÐµÐ½ÐµÐµ": 23930,
  "Ð¼ÐµÐ½ÐµÐ½Ð¸Ðµ": 18064,
  "Ð¼ÐµÐ½ÐµÐ½Ð¸Ñı": 33690,
  "Ð¼ÐµÐ½Ð¸": 1656,
  "Ð¼ÐµÐ½Ð¸ÑĤÑĮ": 6662,
  "Ð¼ÐµÐ½ÐºÐ¾": 45639,
  "Ð¼ÐµÐ½Ð½Ð°Ñı": 43397,
  "Ð¼ÐµÐ½Ð½Ð¾": 1389,
  "Ð¼ÐµÐ½Ð½Ð¾Ð¹": 37410,
  "Ð¼ÐµÐ½Ð½ÑĭÐµ": 41007,
  "Ð¼ÐµÐ½Ð½ÑĭÐ¹": 32066,
  "Ð¼ÐµÐ½ÑĤ": 2271,
  "Ð¼ÐµÐ½ÑĤÐ°": 1718,
  "Ð¼ÐµÐ½ÑĤÐ°Ð¼Ð¸": 31741,
  "Ð¼ÐµÐ½ÑĤÐµ": 11573,
  "Ð¼ÐµÐ½ÑĤÐ¸": 8164,
  "Ð¼ÐµÐ½ÑĤÐ¸ÑĢÐ¾Ð²Ð°ÑĤÑĮ": 18640,
  "Ð¼ÐµÐ½ÑĤÐ¾Ð²": 6902,
  "Ð¼ÐµÐ½ÑĤÐ¾Ð·": 45352,
  "Ð¼ÐµÐ½ÑĤÐ¾Ð¼": 12456,
  "Ð¼ÐµÐ½ÑĤÑĥ": 27756,
  "Ð¼ÐµÐ½ÑĤÑĭ": 5276,
  "Ð¼ÐµÐ½Ñĭ": 6368,
  "Ð¼ÐµÐ½ÑĮ": 4692,
  "Ð¼ÐµÐ½Ñı": 13419,
  "Ð¼ÐµÑĢ": 721,
  "Ð¼ÐµÑĢÐ°": 20199,
  "Ð¼ÐµÑĢÐ·": 37541,
  "Ð¼ÐµÑĢÐ¸": 1984,
  "Ð¼ÐµÑĢÐ¸ÐºÐ°Ð½": 2806,
  "Ð¼ÐµÑĢÐ½Ð¾": 29398,
  "Ð¼ÐµÑĢÑĤ": 42315,
  "Ð¼ÐµÑĢÑĤÑĮ": 15296,
  "Ð¼ÐµÑĢÑĭ": 24377,
  "Ð¼ÐµÑģ": 36821,
  "Ð¼ÐµÑģÑı": 23161,
  "Ð¼ÐµÑĤ": 991,
  "Ð¼ÐµÑĤÐ¾Ð´": 30027,
  "Ð¼ÐµÑĤÑĢÐ°": 48526,
  "Ð¼ÐµÑĤÑĢÐ¸": 31302,
  "Ð¼ÐµÑĤÑĢÐ¾Ð²": 12997,
  "Ð¼ÐµÑĤÑĮ": 15077,
  "Ð¼ÐµÑħÐ°": 45507,
  "Ð¼ÐµÑĨ": 4421,
  "Ð¼ÐµÑĩ": 44120,
  "Ð¼ÐµÑĩÐ°": 8091,
  "Ð¼ÐµÑĪÑĮ": 22333,
  "Ð¼Ð¸": 356,
  "Ð¼Ð¸Ð³": 49196,
  "Ð¼Ð¸Ð¸": 29594,
  "Ð¼Ð¸Ð¹": 36352,
  "Ð¼Ð¸Ðº": 27196,
  "Ð¼Ð¸ÐºÐ¾Ð¼": 41677,
  "Ð¼Ð¸Ð»": 41178,
  "Ð¼Ð¸Ð»Ð°": 16398,
  "Ð¼Ð¸Ð»Ð¸": 13294,
  "Ð¼Ð¸Ð»Ð»Ð¸": 24558,
  "Ð¼Ð¸Ð½": 4196,
  "Ð¼Ð¸Ð½Ð°": 8149,
  "Ð¼Ð¸Ð½Ð³": 49230,
  "Ð¼Ð¸Ð½Ð¸": 2348,
  "Ð¼Ð¸Ð½Ð¸ÑģÑĤÑĢ": 20358,
  "Ð¼Ð¸Ð½Ð¸ÑģÑĤÑĢÐ°": 2759,
  "Ð¼Ð¸Ð½Ð¸ÑģÑĤÑĢÐ¸": 49228,
  "Ð¼Ð¸Ð½Ñĥ": 23252,
  "Ð¼Ð¸Ð½ÑĥÑģ": 17306,
  "Ð¼Ð¸Ð½ÑĥÑĤ": 28075,
  "Ð¼Ð¸ÑĢ": 7513,
  "Ð¼Ð¸ÑĢÐ°": 4646,
  "Ð¼Ð¸ÑĢÐ°Ð»": 18427,
  "Ð¼Ð¸ÑĢÐ¸": 47655,
  "Ð¼Ð¸ÑĢÐ¾Ð²Ð°Ð½Ð¸Ðµ": 31575,
  "Ð¼Ð¸Ñģ": 24807,
  "Ð¼Ð¸ÑĤ": 3456,
  "Ð¼Ð¸ÑĤÐ°": 26099,
  "Ð¼Ð¸ÑĤÐµ": 7272,
  "Ð¼Ð¸ÑĤÐ¸Ð²": 19697,
  "Ð¼Ð¸ÑĤÑĮ": 10669,
  "Ð¼Ð¸Ñı": 22700,
  "Ð¼Ð»": 19732,
  "Ð¼Ð»Ð°Ð´": 34628,
  "Ð¼Ð»Ð¸": 29714,
  "Ð¼Ð»Ð½": 45113,
  "Ð¼Ð¼": 6401,
  "Ð¼Ð¼Ð¼Ð¼": 45054,
  "Ð¼Ð½Ðµ": 13979,
  "Ð¼Ð½Ð¾Ð³Ð¾": 23230,
  "Ð¼Ð¾": 1080,
  "Ð¼Ð¾Ð±": 43767,
  "Ð¼Ð¾Ð²": 3695,
  "Ð¼Ð¾Ð³": 20146,
  "Ð¼Ð¾Ð³Ð¾": 17856,
  "Ð¼Ð¾Ð³Ñĥ": 49269,
  "Ð¼Ð¾Ð´": 14435,
  "Ð¼Ð¾Ðµ": 26544,
  "Ð¼Ð¾ÐµÐ¼Ñĥ": 11092,
  "Ð¼Ð¾Ð¶": 846,
  "Ð¼Ð¾Ð¶ÐµÑĤ": 15536,
  "Ð¼Ð¾Ð¶Ð½Ð¾": 2537,
  "Ð¼Ð¾Ð·": 8924,
  "Ð¼Ð¾Ð·Ð³": 45244,
  "Ð¼Ð¾Ð¹": 4812,
  "Ð¼Ð¾Ðº": 25501,
  "Ð¼Ð¾Ð»": 6697,
  "Ð¼Ð¾Ð»Ð¾Ð´": 33894,
  "Ð¼Ð¾Ð¼": 4891,
  "Ð¼Ð¾Ð½": 2698,
  "Ð¼Ð¾Ð½Ð°": 12421,
  "Ð¼Ð¾Ð½Ð°Ð²": 18315,
  "Ð¼Ð¾Ð½Ð´": 39741,
  "Ð¼Ð¾Ð½Ð¸": 47533,
  "Ð¼Ð¾Ð½Ð¸Ð¸": 38564,
  "Ð¼Ð¾Ð½Ð¸Ñı": 46351,
  "Ð¼Ð¾Ð½Ð¾Ð²": 32550,
  "Ð¼Ð¾Ð½Ð¾Ð¿Ð¾Ð»ÑĮ": 46176,
  "Ð¼Ð¾Ð½Ñĭ": 41219,
  "Ð¼Ð¾ÑĢ": 5046,
  "Ð¼Ð¾ÑĢÐ°": 13021,
  "Ð¼Ð¾ÑĢÐ¾Ð·": 34433,
  "Ð¼Ð¾Ñģ": 4233,
  "Ð¼Ð¾ÑģÐ°": 42162,
  "Ð¼Ð¾ÑģÐºÐ¾Ð²": 12178,
  "Ð¼Ð¾ÑĤ": 767,
  "Ð¼Ð¾ÑĤÑĢ": 4208,
  "Ð¼Ð¾ÑĤÑĢÐ°": 9200,
  "Ð¼Ð¾ÑĤÑĢÐµ": 1277,
  "Ð¼Ð¾ÑĤÑĢÐµÐ²": 18093,
  "Ð¼Ð¾ÑĤÑĢÐµÐ»": 3321,
  "Ð¼Ð¾ÑĤÑĢÐµÐ»Ð°": 5284,
  "Ð¼Ð¾ÑĤÑĢÐµÐ»Ð¸": 7877,
  "Ð¼Ð¾ÑĤÑĢÐµÐ½": 8395,
  "Ð¼Ð¾ÑĤÑĢÐµÑĤÑĮ": 2291,
  "Ð¼Ð¾ÑĤÑĢÐ¸": 2768,
  "Ð¼Ð¾ÑĤÑĢÐ¸Ð¼": 7305,
  "Ð¼Ð¾ÑĤÑĢÐ¸ÑĤ": 31582,
  "Ð¼Ð¾ÑĤÑĢÐ¸ÑĤÐµ": 5870,
  "Ð¼Ð¾ÑĤÑĢÐ¾Ð²": 19001,
  "Ð¼Ð¾ÑĤÑĢÐ¾Ð¼": 37777,
  "Ð¼Ð¾ÑĤÑĢÑĥ": 44084,
  "Ð¼Ð¾ÑĤÑĢÑİ": 20262,
  "Ð¼Ð¾ÑĤÑĢÑı": 3130,
  "Ð¼Ð¾ÑĨÐ¸Ð¾Ð½": 42246,
  "Ð¼Ð¾Ñı": 49450,
  "Ð¼Ñģ": 12827,
  "Ð¼ÑģÐ°": 30374,
  "Ð¼ÑģÑı": 26403,
  "Ð¼Ñĥ": 653,
  "Ð¼ÑĥÐ´": 33681,
  "Ð¼ÑĥÐ¶": 17931,
  "Ð¼ÑĥÐ·Ñĭ": 44147,
  "Ð¼ÑĥÐ»Ð¸": 8469,
  "Ð¼ÑĥÐ»ÑĮ": 31266,
  "Ð¼ÑĥÐ»Ñı": 10513,
  "Ð¼ÑĥÐ¼": 49189,
  "Ð¼ÑĥÐ½": 15990,
  "Ð¼ÑĥÐ½Ð´": 39697,
  "Ð¼ÑĥÐ½Ð¸": 19591,
  "Ð¼ÑĥÐ½Ð¸ÐºÐ°": 23000,
  "Ð¼ÑĥÑĢ": 10441,
  "Ð¼ÑĥÑģ": 42746,
  "Ð¼ÑĥÑĤ": 14774,
  "Ð¼ÑĥÑĩ": 28609,
  "Ð¼ÑĥÑİ": 11765,
  "Ð¼Ñĭ": 764,
  "Ð¼ÑĭÐµ": 14167,
  "Ð¼ÑĭÐ¹": 13981,
  "Ð¼ÑĭÐ¼": 15799,
  "Ð¼ÑĭÐ¼Ð¸": 36674,
  "Ð¼ÑĭÑģÐ»": 6611,
  "Ð¼ÑĭÑģÐ»Ð¸": 13867,
  "Ð¼ÑĭÑģÐ»Ð¸ÑĤÑĮ": 42343,
  "Ð¼ÑĭÑħ": 18666,
  "Ð¼ÑĭÑĪ": 5713,
  "Ð¼ÑĭÑĪÐ»ÐµÐ½": 28136,
  "Ð¼Ñı": 5582,
  "Ð¼ÑıÐ³": 33520,
  "Ð¼ÑıÐ½": 15377,
  "Ð¼ÑıÑĤÐµ": 34079,
  "Ð½": 269,
  "Ð½o": 43454,
  "Ð½Ð°": 325,
  "Ð½Ð°Ð±": 9003,
  "Ð½Ð°Ð±Ð¶ÐµÐ½Ð¸Ñı": 47351,
  "Ð½Ð°Ð±Ð»Ñİ": 37828,
  "Ð½Ð°Ð²": 3263,
  "Ð½Ð°Ð²Ð»Ð¸": 3904,
  "Ð½Ð°Ð³": 13496,
  "Ð½Ð°Ð´": 1759,
  "Ð½Ð°Ð´Ðµ": 12348,
  "Ð½Ð°Ð´Ð·Ð¾ÑĢ": 24536,
  "Ð½Ð°Ð´Ð·Ð¾ÑĢÐ°": 24236,
  "Ð½Ð°Ð´Ð¾": 21084,
  "Ð½Ð°Ð´Ð¾Ð±": 7871,
  "Ð½Ð°Ð´ÑĨÐ°": 29412,
  "Ð½Ð°Ð´ÑĨÐ°ÑĤ": 16693,
  "Ð½Ð°Ð´ÑĨÐ°ÑĤÐ¸": 11003,
  "Ð½Ð°Ð´ÑĨÐ°ÑĤÐ¾Ð³Ð¾": 27908,
  "Ð½Ð°Ð´ÑĨÐ°ÑĤÑĭÐ¹": 39169,
  "Ð½Ð°Ð´ÑĨÐ°ÑĤÑĮ": 5996,
  "Ð½Ð°Ð·": 41993,
  "Ð½Ð°Ð·Ð½Ð°": 4930,
  "Ð½Ð°Ð¹": 15200,
  "Ð½Ð°Ðº": 27243,
  "Ð½Ð°ÐºÐ°": 48416,
  "Ð½Ð°ÐºÐ°Ð·": 35905,
  "Ð½Ð°ÐºÐ¾": 1574,
  "Ð½Ð°ÐºÐ¾Ð¼": 35950,
  "Ð½Ð°Ð»": 1795,
  "Ð½Ð°Ð»Ð°": 3310,
  "Ð½Ð°Ð»Ð¸": 2514,
  "Ð½Ð°Ð»ÑģÑı": 50110,
  "Ð½Ð°Ð¼": 3143,
  "Ð½Ð°Ð¼ÐµÑĢ": 40772,
  "Ð½Ð°Ð¼Ð¸": 2309,
  "Ð½Ð°Ð½": 8465,
  "Ð½Ð°Ð¿ÑĢÐ¸Ð¼ÐµÑĢ": 11220,
  "Ð½Ð°ÑĢ": 15246,
  "Ð½Ð°ÑĢÐ¾Ð´": 2775,
  "Ð½Ð°ÑĢÑĥÐ¶": 45081,
  "Ð½Ð°ÑĢÑĥÐ¶Ð¸": 39746,
  "Ð½Ð°Ñģ": 18947,
  "Ð½Ð°ÑģÐ»ÐµÐ´": 29323,
  "Ð½Ð°ÑģÑĤÐ¾Ñı": 10864,
  "Ð½Ð°ÑģÑĤÐ¾ÑıÑīÐµÐ¼Ñĥ": 12480,
  "Ð½Ð°ÑĤ": 4742,
  "Ð½Ð°ÑĤÐ°": 13741,
  "Ð½Ð°ÑĤÑĮ": 9470,
  "Ð½Ð°ÑĥÑĩ": 35769,
  "Ð½Ð°Ñħ": 2198,
  "Ð½Ð°ÑĨÐ¸Ð¾Ð½": 13233,
  "Ð½Ð°Ñĩ": 1943,
  "Ð½Ð°ÑĩÐ°Ð»Ð°": 3381,
  "Ð½Ð°ÑĩÐ°Ð»Ðµ": 12754,
  "Ð½Ð°ÑĩÐ°Ð»Ñĥ": 21207,
  "Ð½Ð°ÑĩÐ°Ð»ÑĮ": 44907,
  "Ð½Ð°ÑĩÐ°Ð»ÑĮÐ½Ð¾": 8936,
  "Ð½Ð°ÑĩÐµ": 3880,
  "Ð½Ð°ÑĪÐ¸": 35216,
  "Ð½Ð°Ñı": 551,
  "Ð½Ð³": 11655,
  "Ð½Ð³Ð°": 35179,
  "Ð½Ð´": 3627,
  "Ð½Ðµ": 405,
  "Ð½ÐµÐ±ÐµÑģ": 47781,
  "Ð½ÐµÐ²": 2376,
  "Ð½ÐµÐ²Ð°": 30555,
  "Ð½ÐµÐ²ÐµÐº": 13174,
  "Ð½ÐµÐ²Ð½Ð¸Ðº": 49731,
  "Ð½ÐµÐ²Ð½Ð¾": 9387,
  "Ð½ÐµÐ²Ð¾Ð³Ð¾": 30366,
  "Ð½ÐµÐ²Ð¾ÑģÑĤÐ¾": 28752,
  "Ð½ÐµÐ²ÑĥÑİ": 43868,
  "Ð½ÐµÐ³": 43745,
  "Ð½ÐµÐ³Ð¾": 1760,
  "Ð½ÐµÐ´": 5783,
  "Ð½ÐµÐ´Ð¸": 43687,
  "Ð½ÐµÐµ": 990,
  "Ð½ÐµÐµÑĤ": 29069,
  "Ð½ÐµÐ¶": 8935,
  "Ð½ÐµÐ·": 41895,
  "Ð½ÐµÐ·Ð°Ð¿": 17875,
  "Ð½ÐµÐ·Ð°Ð¿Ð½Ð¾": 19988,
  "Ð½ÐµÐ¹": 887,
  "Ð½ÐµÐ¹ÑĪÐ°Ñı": 24140,
  "Ð½ÐµÐ¹ÑĪÐµÐ³Ð¾": 33575,
  "Ð½ÐµÐ¹ÑĪÐµÐµ": 23573,
  "Ð½ÐµÐ¹ÑĪÐµÐ¹": 27224,
  "Ð½ÐµÐ¹ÑĪÐ¸Ðµ": 17877,
  "Ð½ÐµÐ¹ÑĪÐ¸Ð¹": 14343,
  "Ð½ÐµÐ¹ÑĪÐ¸Ð¼": 21525,
  "Ð½ÐµÐ¹ÑĪÐ¸Ñħ": 8053,
  "Ð½ÐµÐ¹ÑĪÑĥÑİ": 44594,
  "Ð½ÐµÐº": 11521,
  "Ð½ÐµÐºÐ´": 17338,
  "Ð½ÐµÐ»": 14061,
  "Ð½ÐµÐ»Ð°": 25783,
  "Ð½ÐµÐ»Ð¸": 27976,
  "Ð½ÐµÐ»Ð¾": 26344,
  "Ð½ÐµÐ¼": 1660,
  "Ð½ÐµÐ¼ÐµÑĨ": 40826,
  "Ð½ÐµÐ¼ÑģÑı": 20611,
  "Ð½ÐµÐ¼Ñĥ": 4324,
  "Ð½ÐµÐ½": 3281,
  "Ð½ÐµÐ½Ð°": 16715,
  "Ð½ÐµÐ½Ð¸Ðµ": 3200,
  "Ð½ÐµÐ½Ð¸ÐµÐ¼": 12475,
  "Ð½ÐµÐ½Ð¸Ð¸": 6868,
  "Ð½ÐµÐ½Ð¸Ð¹": 6445,
  "Ð½ÐµÐ½Ð¸Ñİ": 5882,
  "Ð½ÐµÐ½Ð¸Ñı": 2204,
  "Ð½ÐµÐ½ÐºÐ¾": 44791,
  "Ð½ÐµÐ½Ð½Ð°Ñı": 25196,
  "Ð½ÐµÐ½Ð½Ð¾": 8009,
  "Ð½ÐµÐ½Ð½Ð¾Ð³Ð¾": 29265,
  "Ð½ÐµÐ½Ð½Ð¾Ðµ": 25857,
  "Ð½ÐµÐ½Ð½Ð¾Ð¹": 21088,
  "Ð½ÐµÐ½Ð½ÑĥÑİ": 35849,
  "Ð½ÐµÐ½Ð½ÑĭÐµ": 17013,
  "Ð½ÐµÐ½Ð½ÑĭÐ¹": 15304,
  "Ð½ÐµÐ½Ð½ÑĭÐ¼": 23365,
  "Ð½ÐµÐ½Ð½ÑĭÐ¼Ð¸": 41992,
  "Ð½ÐµÐ½Ð½ÑĭÑħ": 20498,
  "Ð½ÐµÐ½Ð¾": 23623,
  "Ð½ÐµÐ½Ñĭ": 18370,
  "Ð½ÐµÐ½ÑĮÐºÐ¾": 24350,
  "Ð½ÐµÐ¿": 12312,
  "Ð½ÐµÑĢ": 1464,
  "Ð½ÐµÑĢÐ°": 8143,
  "Ð½ÐµÑĢÐ°Ð´Ð¾": 34806,
  "Ð½ÐµÑĢÐ¾Ð²": 22839,
  "Ð½ÐµÑĢÐ¾Ð¼": 46193,
  "Ð½ÐµÑĢÑĥÑģ": 38458,
  "Ð½ÐµÑĢÑĭ": 20562,
  "Ð½ÐµÑģ": 1352,
  "Ð½ÐµÑģÐ°": 49537,
  "Ð½ÐµÑģÐ¸": 35609,
  "Ð½ÐµÑģÐ»Ð¸": 8972,
  "Ð½ÐµÑģÐ»Ð¸ÑģÑĮ": 36908,
  "Ð½ÐµÑģÐ»Ð¾": 16638,
  "Ð½ÐµÑģÑģÐ°": 46479,
  "Ð½ÐµÑģÑĤ": 27258,
  "Ð½ÐµÑģÑĤÐ¸": 5303,
  "Ð½ÐµÑģÑĤÑĢÐ¾Ð²": 40373,
  "Ð½ÐµÑģÑı": 41797,
  "Ð½ÐµÑĤ": 1467,
  "Ð½ÐµÑĤÐ°": 9438,
  "Ð½ÐµÑĤÐµ": 6037,
  "Ð½ÐµÑĤÑģÑı": 7132,
  "Ð½ÐµÑĤÑĮ": 37016,
  "Ð½ÐµÑĦ": 16961,
  "Ð½ÐµÑĦÑĤÐ¸": 43415,
  "Ð½ÐµÑĦÑĤÑĮ": 32323,
  "Ð½ÐµÑĨ": 7377,
  "Ð½ÐµÑĨÐ¾Ð²": 22046,
  "Ð½ÐµÑĨÑĭ": 36240,
  "Ð½ÐµÑĪ": 11691,
  "Ð½ÐµÑĪÑĮ": 15932,
  "Ð½ÐµÑĪÑĮÑģÑı": 34269,
  "Ð½ÐµÑı": 37208,
  "Ð½Ð¸": 309,
  "Ð½Ð¸Ð±": 45114,
  "Ð½Ð¸Ð±ÑĥÐ´ÑĮ": 2034,
  "Ð½Ð¸Ð²": 7621,
  "Ð½Ð¸Ð²ÐµÑĢÑģ": 11135,
  "Ð½Ð¸Ð²ÑĪÐ¸ÑģÑĮ": 20328,
  "Ð½Ð¸Ðµ": 582,
  "Ð½Ð¸ÐµÐ¹": 6242,
  "Ð½Ð¸ÐµÐ¼": 1576,
  "Ð½Ð¸ÐµÐ½Ð¾Ñģ": 43501,
  "Ð½Ð¸Ð·": 1961,
  "Ð½Ð¸Ð·Ð°ÑĨÐ¸Ð¸": 37592,
  "Ð½Ð¸Ð·Ð¸": 31717,
  "Ð½Ð¸Ð·Ð¼": 13559,
  "Ð½Ð¸Ð·Ð¼Ð°": 14936,
  "Ð½Ð¸Ð·Ð¼Ð¾Ð¼": 46597,
  "Ð½Ð¸Ð·Ñĥ": 25576,
  "Ð½Ð¸Ð¸": 788,
  "Ð½Ð¸Ð¹": 917,
  "Ð½Ð¸Ðº": 780,
  "Ð½Ð¸ÐºÐ°": 888,
  "Ð½Ð¸ÐºÐ°ÐµÑĤ": 43369,
  "Ð½Ð¸ÐºÐ°Ðº": 24944,
  "Ð½Ð¸ÐºÐ°Ð¼": 4317,
  "Ð½Ð¸ÐºÐ°Ð¼Ð¸": 3567,
  "Ð½Ð¸ÐºÐ°Ñħ": 7161,
  "Ð½Ð¸ÐºÐµ": 4247,
  "Ð½Ð¸ÐºÐ¸": 1185,
  "Ð½Ð¸ÐºÐ¾Ð²": 1122,
  "Ð½Ð¸ÐºÐ¾Ð²Ð°": 13273,
  "Ð½Ð¸ÐºÐ¾Ð²Ð¾Ð¹": 42017,
  "Ð½Ð¸ÐºÐ¾Ð³Ð´Ð°": 50002,
  "Ð½Ð¸ÐºÐ¾Ð¹": 16152,
  "Ð½Ð¸ÐºÐ¾Ð¼": 2655,
  "Ð½Ð¸ÐºÑĥ": 3190,
  "Ð½Ð¸Ð»": 2258,
  "Ð½Ð¸Ð»Ð°": 4173,
  "Ð½Ð¸Ð»Ð°ÑģÑĮ": 9264,
  "Ð½Ð¸Ð»Ð¸": 3977,
  "Ð½Ð¸Ð»Ð¸ÑģÑĮ": 8800,
  "Ð½Ð¸Ð»Ð¾": 17521,
  "Ð½Ð¸Ð»Ð¾ÑģÑĮ": 6241,
  "Ð½Ð¸Ð»ÑģÑı": 5837,
  "Ð½Ð¸Ð¼": 1046,
  "Ð½Ð¸Ð¼Ð°": 723,
  "Ð½Ð¸Ð¼Ð°ÐµÑĤ": 20704,
  "Ð½Ð¸Ð¼Ð°Ð»": 5261,
  "Ð½Ð¸Ð¼Ð°Ð»Ð°": 11053,
  "Ð½Ð¸Ð¼Ð°Ð»Ð¸": 9385,
  "Ð½Ð¸Ð¼Ð°Ð»Ð¸ÑģÑĮ": 35161,
  "Ð½Ð¸Ð¼Ð°Ð»ÑģÑı": 35747,
  "Ð½Ð¸Ð¼Ð°Ð½Ð¸Ðµ": 11011,
  "Ð½Ð¸Ð¼Ð°Ð½Ð¸Ñı": 34782,
  "Ð½Ð¸Ð¼Ð°ÑĤÑĮ": 18991,
  "Ð½Ð¸Ð¼Ð°Ñİ": 28740,
  "Ð½Ð¸Ð¼Ð°ÑİÑĤ": 39059,
  "Ð½Ð¸Ð¼Ð°Ñı": 21812,
  "Ð½Ð¸Ð¼ÐµÑĤ": 43556,
  "Ð½Ð¸Ð¼Ð¸": 5987,
  "Ð½Ð¸Ð¼Ð¾": 39876,
  "Ð½Ð¸Ð½": 3414,
  "Ð½Ð¸Ð½Ð°": 5954,
  "Ð½Ð¸Ð½Ð³": 21597,
  "Ð½Ð¸Ð½Ðµ": 42105,
  "Ð½Ð¸Ð½Ð¾Ð¹": 36380,
  "Ð½Ð¸Ð½Ð¾Ð¼": 27889,
  "Ð½Ð¸Ð½Ñĥ": 17070,
  "Ð½Ð¸Ð½Ñĭ": 21355,
  "Ð½Ð¸ÑĢ": 42986,
  "Ð½Ð¸ÑĢÐ¾Ð²Ð°ÑĤÑĮ": 29297,
  "Ð½Ð¸Ñģ": 12092,
  "Ð½Ð¸ÑģÐ°": 45634,
  "Ð½Ð¸ÑģÑĤ": 26622,
  "Ð½Ð¸ÑģÑĤÐ¾Ð²": 38696,
  "Ð½Ð¸ÑģÑĤÑĭ": 44511,
  "Ð½Ð¸ÑģÑĮ": 19162,
  "Ð½Ð¸ÑĤ": 2162,
  "Ð½Ð¸ÑĤÐ°": 20267,
  "Ð½Ð¸ÑĤÐ°ÑĢ": 8957,
  "Ð½Ð¸ÑĤÐµ": 2962,
  "Ð½Ð¸ÑĤÐµÐ»ÐµÐ¹": 26675,
  "Ð½Ð¸ÑĤÐµÐ»ÐµÐ¼": 45687,
  "Ð½Ð¸ÑĤÐµÐ»Ð¸": 24648,
  "Ð½Ð¸ÑĤÐµÐ»ÑĮ": 2147,
  "Ð½Ð¸ÑĤÐµÐ»ÑĮÐ½Ð°Ñı": 28782,
  "Ð½Ð¸ÑĤÐµÐ»ÑĮÐ½Ð¾": 8452,
  "Ð½Ð¸ÑĤÐµÐ»ÑĮÐ½Ð¾Ð³Ð¾": 41701,
  "Ð½Ð¸ÑĤÐµÐ»ÑĮÐ½Ð¾Ðµ": 41881,
  "Ð½Ð¸ÑĤÐµÐ»ÑĮÐ½Ð¾Ð¹": 28730,
  "Ð½Ð¸ÑĤÐµÐ»ÑĮÐ½ÑĥÑİ": 45684,
  "Ð½Ð¸ÑĤÐµÐ»ÑĮÐ½ÑĭÐµ": 20399,
  "Ð½Ð¸ÑĤÐµÐ»ÑĮÐ½ÑĭÐ¹": 26153,
  "Ð½Ð¸ÑĤÐµÐ»ÑĮÐ½ÑĭÑħ": 39063,
  "Ð½Ð¸ÑĤÐµÐ»Ñı": 25954,
  "Ð½Ð¸ÑĤÐµÑģÑĮ": 27236,
  "Ð½Ð¸ÑĤÑģÑı": 7519,
  "Ð½Ð¸ÑĤÑĮ": 1526,
  "Ð½Ð¸ÑĤÑĮÑģÑı": 7487,
  "Ð½Ð¸Ñħ": 1680,
  "Ð½Ð¸ÑĨ": 2636,
  "Ð½Ð¸ÑĨÐ°": 2056,
  "Ð½Ð¸ÑĨÐ°Ð¼": 26252,
  "Ð½Ð¸ÑĨÐ°Ð¼Ð¸": 16647,
  "Ð½Ð¸ÑĨÐ°Ñħ": 10068,
  "Ð½Ð¸ÑĨÐµ": 3407,
  "Ð½Ð¸ÑĨÐµÐ¹": 6262,
  "Ð½Ð¸ÑĨÐ¸Ð¿": 5514,
  "Ð½Ð¸ÑĨÐºÐ¸Ð¹": 37421,
  "Ð½Ð¸ÑĨÐºÐ¾Ð³Ð¾": 46721,
  "Ð½Ð¸ÑĨÑĥ": 3141,
  "Ð½Ð¸ÑĨÑĭ": 2293,
  "Ð½Ð¸Ñĩ": 1733,
  "Ð½Ð¸ÑĩÐ°ÐµÑĤ": 45251,
  "Ð½Ð¸ÑĩÐ°Ð»": 29682,
  "Ð½Ð¸ÑĩÐ°Ð»Ð°": 49130,
  "Ð½Ð¸ÑĩÐ°ÑĤÑĮ": 20766,
  "Ð½Ð¸ÑĩÐµÐ³Ð¾": 28154,
  "Ð½Ð¸ÑĩÐµÑģÐºÐ°Ñı": 29453,
  "Ð½Ð¸ÑĩÐµÑģÐºÐ¸Ðµ": 17840,
  "Ð½Ð¸ÑĩÐµÑģÐºÐ¸Ð¹": 20629,
  "Ð½Ð¸ÑĩÐµÑģÐºÐ¸Ñħ": 24157,
  "Ð½Ð¸ÑĩÐµÑģÐºÐ¾Ð³Ð¾": 25052,
  "Ð½Ð¸ÑĩÐµÑģÐºÐ¾Ðµ": 40174,
  "Ð½Ð¸ÑĩÐµÑģÐºÐ¾Ð¹": 24777,
  "Ð½Ð¸ÑĩÐµÑģÑĤÐ²Ð°": 22344,
  "Ð½Ð¸ÑĩÐµÑģÑĤÐ²Ðµ": 37159,
  "Ð½Ð¸ÑĩÐµÑģÑĤÐ²Ð¾": 19135,
  "Ð½Ð¸ÑĩÐºÐ°": 43105,
  "Ð½Ð¸ÑĩÐºÐ¸": 31933,
  "Ð½Ð¸ÑĩÐ½Ð°Ñı": 23892,
  "Ð½Ð¸ÑĩÐ½Ð¾": 20889,
  "Ð½Ð¸ÑĩÐ½Ð¾Ð³Ð¾": 20549,
  "Ð½Ð¸ÑĩÐ½Ð¾Ðµ": 33539,
  "Ð½Ð¸ÑĩÐ½Ð¾Ð¹": 14424,
  "Ð½Ð¸ÑĩÐ½Ð¾Ð¼": 38867,
  "Ð½Ð¸ÑĩÐ½ÑĥÑİ": 38490,
  "Ð½Ð¸ÑĩÐ½ÑĭÐµ": 19092,
  "Ð½Ð¸ÑĩÐ½ÑĭÐ¹": 15805,
  "Ð½Ð¸ÑĩÐ½ÑĭÐ¼": 34984,
  "Ð½Ð¸ÑĩÐ½ÑĭÑħ": 17530,
  "Ð½Ð¸ÑĩÑĤÐ¾Ð¶": 34210,
  "Ð½Ð¸ÑĪÑĮ": 11453,
  "Ð½Ð¸Ñİ": 1504,
  "Ð½Ð¸Ñı": 544,
  "Ð½Ð¸ÑıÐ¼": 12121,
  "Ð½Ð¸ÑıÐ¼Ð¸": 9594,
  "Ð½Ð¸ÑıÑħ": 9644,
  "Ð½Ðº": 3238,
  "Ð½ÐºÐ°": 17014,
  "Ð½ÐºÐµ": 39406,
  "Ð½ÐºÐ¸": 22082,
  "Ð½ÐºÑĥ": 27655,
  "Ð½Ð½Ð¾Ð¹": 25809,
  "Ð½Ð¾": 311,
  "Ð½Ð¾Ð±": 19844,
  "Ð½Ð¾Ð±Ð¾Ð¹": 44467,
  "Ð½Ð¾Ð±Ñĭ": 34407,
  "Ð½Ð¾Ð±ÑĭÐ»ÑĮ": 45108,
  "Ð½Ð¾Ð²": 697,
  "Ð½Ð¾Ð²Ð°": 1257,
  "Ð½Ð¾Ð²Ð°Ð½Ð¸Ðµ": 21175,
  "Ð½Ð¾Ð²Ð°Ð½Ð¸Ñı": 5470,
  "Ð½Ð¾Ð²Ð°ÑĤÐ¾": 25801,
  "Ð½Ð¾Ð²Ð°ÑĤÑĮ": 19151,
  "Ð½Ð¾Ð²Ð°ÑĤÑĮÑģÑı": 29006,
  "Ð½Ð¾Ð²Ð°Ñı": 28963,
  "Ð½Ð¾Ð²Ðµ": 11767,
  "Ð½Ð¾Ð²ÐµÐ½Ð¸Ðµ": 16496,
  "Ð½Ð¾Ð²ÐµÐ½Ð¸Ñı": 9455,
  "Ð½Ð¾Ð²Ð¸Ð´": 9663,
  "Ð½Ð¾Ð²Ð¸Ñĩ": 17454,
  "Ð½Ð¾Ð²Ð¾": 12701,
  "Ð½Ð¾Ð²Ð¾Ð³Ð¾": 39762,
  "Ð½Ð¾Ð²Ð¾Ð´": 26406,
  "Ð½Ð¾Ð²Ð¾Ð¹": 14046,
  "Ð½Ð¾Ð²Ð¾Ð»Ð¾Ñģ": 34730,
  "Ð½Ð¾Ð²Ð¾Ð¼Ñĥ": 37867,
  "Ð½Ð¾Ð²ÑĢÐµÐ¼ÐµÐ½": 28311,
  "Ð½Ð¾Ð²ÑĢÐµÐ¼ÐµÐ½Ð½Ð¾": 4670,
  "Ð½Ð¾Ð²ÑģÐºÐ¸Ð¹": 48904,
  "Ð½Ð¾Ð²Ñĥ": 45207,
  "Ð½Ð¾Ð²Ñĭ": 8657,
  "Ð½Ð¾Ð²ÑĭÐµ": 49616,
  "Ð½Ð¾Ð²ÑĭÐ¹": 39390,
  "Ð½Ð¾Ð²ÑĭÑħ": 48702,
  "Ð½Ð¾Ð²ÑĮ": 4030,
  "Ð½Ð¾Ð³": 3500,
  "Ð½Ð¾Ð³Ð¸Ðµ": 5519,
  "Ð½Ð¾Ð³Ð»Ð°": 23449,
  "Ð½Ð¾Ð³Ð¾": 438,
  "Ð½Ð¾Ð³Ñĥ": 25670,
  "Ð½Ð¾Ð´": 4318,
  "Ð½Ð¾Ð´Ð°ÑĢ": 14006,
  "Ð½Ð¾Ð´Ð¾ÑĢÐ¾Ð¶": 9530,
  "Ð½Ð¾Ð´ÑĥÑĪ": 10734,
  "Ð½Ð¾Ðµ": 541,
  "Ð½Ð¾Ð¶": 6279,
  "Ð½Ð¾Ð¶Ð°": 34418,
  "Ð½Ð¾Ð¶Ðµ": 29071,
  "Ð½Ð¾Ð¶ÐµÑģÑĤÐ²Ð¾": 40980,
  "Ð½Ð¾Ð¶ÐºÐ¾": 16777,
  "Ð½Ð¾Ð·": 5054,
  "Ð½Ð¾Ð·Ð°": 31162,
  "Ð½Ð¾Ð·Ð½Ð°Ñĩ": 19760,
  "Ð½Ð¾Ð·Ð½Ð°ÑĩÐ½Ð¾": 44916,
  "Ð½Ð¾Ð¹": 423,
  "Ð½Ð¾Ðº": 3398,
  "Ð½Ð¾ÐºÐ°": 32223,
  "Ð½Ð¾ÐºÐ¸ÑģÐ»": 31888,
  "Ð½Ð¾ÐºÐ»Ð°ÑģÑģ": 36443,
  "Ð½Ð¾ÐºÐ¾Ð¶": 37817,
  "Ð½Ð¾ÐºÐ¾Ð¼": 20708,
  "Ð½Ð¾ÐºÐ¾Ð¼Ð°Ð½Ð´": 28150,
  "Ð½Ð¾ÐºÑĢÐ¾Ð²": 33357,
  "Ð½Ð¾Ð»ÐµÑĤ": 14495,
  "Ð½Ð¾Ð»Ñĭ": 29873,
  "Ð½Ð¾Ð¼": 570,
  "Ð½Ð¾Ð¼ÐµÑĢ": 49419,
  "Ð½Ð¾Ð¼Ð¾ÑĢ": 16826,
  "Ð½Ð¾Ð¼Ð¾Ñĩ": 15031,
  "Ð½Ð¾Ð¼Ñĥ": 1198,
  "Ð½Ð¾Ð½": 31566,
  "Ð½Ð¾Ð½Ð¸Ð¼": 34532,
  "Ð½Ð¾Ð¾Ð±ÑĢÐ°Ð·": 28380,
  "Ð½Ð¾Ð¿": 4304,
  "Ð½Ð¾Ð¿ÑĢÐ°Ð²": 36383,
  "Ð½Ð¾ÑĢ": 9900,
  "Ð½Ð¾ÑĢÐ°": 14654,
  "Ð½Ð¾ÑĢÐ°Ð¼": 42604,
  "Ð½Ð¾ÑĢÐ¸": 12326,
  "Ð½Ð¾ÑĢÐ¼": 25706,
  "Ð½Ð¾Ñģ": 2386,
  "Ð½Ð¾ÑģÐ°": 38116,
  "Ð½Ð¾ÑģÐ¸": 18610,
  "Ð½Ð¾ÑģÐ¸Ð»": 20575,
  "Ð½Ð¾ÑģÐ¸Ð»Ð¸ÑģÑĮ": 33658,
  "Ð½Ð¾ÑģÐ¸Ð¼": 40714,
  "Ð½Ð¾ÑģÐ¸ÑĤ": 8085,
  "Ð½Ð¾ÑģÐ¸ÑĤÐµ": 48683,
  "Ð½Ð¾ÑģÐ¸ÑĤÐµÐ»ÑĮÐ½Ð¾": 43822,
  "Ð½Ð¾ÑģÐ¸ÑĤÑģÑı": 16933,
  "Ð½Ð¾ÑģÐ¸ÑĤÑĮ": 8779,
  "Ð½Ð¾ÑģÐ¾Ð²": 35422,
  "Ð½Ð¾ÑģÐ¾Ð²Ð°": 41048,
  "Ð½Ð¾ÑģÑĤÐµÐ¹": 4672,
  "Ð½Ð¾ÑģÑĤÐ¸": 637,
  "Ð½Ð¾ÑģÑĤÑĢÐ°Ð½": 43804,
  "Ð½Ð¾ÑģÑĤÑĢÐ¾": 22625,
  "Ð½Ð¾ÑģÑĤÑĮ": 631,
  "Ð½Ð¾ÑģÑĤÑĮÑİ": 1355,
  "Ð½Ð¾ÑģÑĤÑıÐ¼": 32108,
  "Ð½Ð¾ÑģÑĤÑıÐ¼Ð¸": 23554,
  "Ð½Ð¾ÑģÑĤÑıÑħ": 34066,
  "Ð½Ð¾ÑģÑı": 37474,
  "Ð½Ð¾ÑģÑıÑĤ": 49926,
  "Ð½Ð¾ÑĤ": 25391,
  "Ð½Ð¾ÑĤÐ°": 34244,
  "Ð½Ð¾ÑĩÐºÐ°": 31149,
  "Ð½Ð¾ÑĪÐ°": 40824,
  "Ð½Ð¾ÑĪÐµÐ½Ð¸Ðµ": 44732,
  "Ð½Ð¾ÑĪÐµÐ½Ð¸Ñı": 30844,
  "Ð½Ð¾Ñİ": 8712,
  "Ð½Ð¾ÑıÑĢ": 11150,
  "Ð½ÑĢÐ°Ð²": 30485,
  "Ð½Ñģ": 15473,
  "Ð½ÑģÐºÐ¸Ð¹": 26795,
  "Ð½ÑģÐºÐ¾Ð³Ð¾": 28001,
  "Ð½ÑģÐºÐ¾Ð¹": 37488,
  "Ð½ÑĤ": 42684,
  "Ð½Ñĥ": 410,
  "Ð½ÑĥÐ²": 3824,
  "Ð½ÑĥÐ²ÑĪÐµÐ³Ð¾": 49057,
  "Ð½ÑĥÐ²ÑĪÐ¸Ð¹": 43171,
  "Ð½ÑĥÐ²ÑĪÐ¸ÑģÑĮ": 5675,
  "Ð½ÑĥÐ¶Ð´": 5414,
  "Ð½ÑĥÐ¶Ð½Ð¾": 38185,
  "Ð½ÑĥÐ»": 1159,
  "Ð½ÑĥÐ»Ð°": 1892,
  "Ð½ÑĥÐ»Ð°ÑģÑĮ": 2715,
  "Ð½ÑĥÐ»Ð¸": 3988,
  "Ð½ÑĥÐ»Ð¸ÑģÑĮ": 4663,
  "Ð½ÑĥÐ»Ð¾": 7260,
  "Ð½ÑĥÐ»Ð¾ÑģÑĮ": 15497,
  "Ð½ÑĥÐ»ÑģÑı": 1716,
  "Ð½ÑĥÐ½Ðµ": 13139,
  "Ð½ÑĥÑģ": 10542,
  "Ð½ÑĥÑģÑĮ": 12875,
  "Ð½ÑĥÑĤ": 3542,
  "Ð½ÑĥÑĤÐ°": 19053,
  "Ð½ÑĥÑĤÐ°Ñı": 30429,
  "Ð½ÑĥÑĤÐ¾": 27750,
  "Ð½ÑĥÑĤÐ¾Ð³Ð¾": 27198,
  "Ð½ÑĥÑĤÐ¾Ðµ": 43580,
  "Ð½ÑĥÑĤÐ¾Ð¹": 21685,
  "Ð½ÑĥÑĤÐ¾Ð¼": 33834,
  "Ð½ÑĥÑĤÑĢÐµÐ½": 17941,
  "Ð½ÑĥÑĤÑĢÐ¸": 9127,
  "Ð½ÑĥÑĤÑģÑı": 12772,
  "Ð½ÑĥÑĤÑĥÑİ": 29063,
  "Ð½ÑĥÑĤÑĭ": 17341,
  "Ð½ÑĥÑĤÑĭÐµ": 17964,
  "Ð½ÑĥÑĤÑĭÐ¹": 18248,
  "Ð½ÑĥÑĤÑĭÐ¼": 30128,
  "Ð½ÑĥÑĤÑĭÐ¼Ð¸": 34457,
  "Ð½ÑĥÑĤÑĭÑħ": 22682,
  "Ð½ÑĥÑĤÑĮ": 1602,
  "Ð½ÑĥÑĤÑĮÑģÑı": 3573,
  "Ð½ÑĥÑİ": 689,
  "Ð½ÑĨÐµ": 29185,
  "Ð½ÑĨÐµÐ²": 34934,
  "Ð½ÑĩÐµ": 18915,
  "Ð½Ñĭ": 318,
  "Ð½ÑĭÐµ": 443,
  "Ð½ÑĭÐ¹": 450,
  "Ð½ÑĭÐ¼": 562,
  "Ð½ÑĭÐ¼Ð¸": 787,
  "Ð½ÑĭÐ½Ðµ": 13856,
  "Ð½ÑĭÑĢ": 36978,
  "Ð½ÑĭÑħ": 433,
  "Ð½ÑĭÑĩ": 29227,
  "Ð½ÑĭÑĪÐºÐ¾": 22202,
  "Ð½ÑĭÑı": 47013,
  "Ð½ÑĮ": 1060,
  "Ð½ÑĮÐµ": 16373,
  "Ð½ÑĮÐ¸": 45107,
  "Ð½ÑĮÐºÐ°": 45021,
  "Ð½ÑĮÑĤÐµ": 39590,
  "Ð½ÑĮÑĪÐµ": 3415,
  "Ð½ÑĮÑİ": 21259,
  "Ð½ÑĮÑı": 16936,
  "Ð½Ñİ": 1489,
  "Ð½ÑİÐ´ÑĮ": 13975,
  "Ð½ÑİÑİ": 3924,
  "Ð½Ñı": 488,
  "Ð½ÑıÐ²": 21640,
  "Ð½ÑıÐ²ÑĪÐ¸ÑģÑĮ": 38363,
  "Ð½ÑıÐµÐ¼": 39190,
  "Ð½ÑıÐµÑĤ": 5327,
  "Ð½ÑıÐµÑĤÑģÑı": 4960,
  "Ð½ÑıÐ¹ÑĤÐµ": 28480,
  "Ð½ÑıÐº": 15494,
  "Ð½ÑıÐºÐ°": 5988,
  "Ð½ÑıÐºÐ¸": 44573,
  "Ð½ÑıÐºÐ¾Ð²": 36929,
  "Ð½ÑıÐ»": 6798,
  "Ð½ÑıÐ»Ð°": 13220,
  "Ð½ÑıÐ»Ð°ÑģÑĮ": 26213,
  "Ð½ÑıÐ»Ð¸": 11088,
  "Ð½ÑıÐ»Ð¸ÑģÑĮ": 22765,
  "Ð½ÑıÐ»Ð¾": 42121,
  "Ð½ÑıÐ»Ð¾ÑģÑĮ": 37859,
  "Ð½ÑıÐ»ÑģÑı": 20225,
  "Ð½ÑıÐ¼": 19892,
  "Ð½ÑıÐ¼Ð¸": 7547,
  "Ð½ÑıÑĤ": 10463,
  "Ð½ÑıÑĤÐ¸Ðµ": 45574,
  "Ð½ÑıÑĤÐ¾": 34322,
  "Ð½ÑıÑĤÑģÑı": 20074,
  "Ð½ÑıÑĤÑĮ": 2569,
  "Ð½ÑıÑĤÑĮÑģÑı": 14261,
  "Ð½ÑıÑħ": 10443,
  "Ð½ÑıÑİ": 32202,
  "Ð½ÑıÑİÑĤ": 10256,
  "Ð½ÑıÑİÑĤÑģÑı": 12984,
  "Ð½ÑıÑı": 2662,
  "Ð½Ñĳ": 9426,
  "Ð½ÑĳÐ¼": 11308,
  "Ð½ÑĳÑĢ": 38187,
  "Ð½ÑĳÑģ": 18389,
  "Ð½ÑĳÑĤ": 27223,
  "Ð½ÑĳÑĤÑģÑı": 23220,
  "Ð½Ñĸ": 23826,
  "Ð¾": 263,
  "Ð¾Ð": 270,
  "Ð¾Ð¡": 44763,
  "Ð¾Ð°Ð½": 9440,
  "Ð¾Ð±": 349,
  "Ð¾Ð±Ð°": 11392,
  "Ð¾Ð±Ðµ": 6077,
  "Ð¾Ð±ÐµÐ´": 17934,
  "Ð¾Ð±ÐµÐ´Ð°": 30916,
  "Ð¾Ð±ÐµÑģÐ¿Ðµ": 31140,
  "Ð¾Ð±ÐµÑĤÐ¾Ð½": 28955,
  "Ð¾Ð±Ð¸": 24929,
  "Ð¾Ð±Ð¸Ð´": 30284,
  "Ð¾Ð±Ð¸Ð»Ð¸": 13677,
  "Ð¾Ð±Ð¸Ð»ÑĮ": 5081,
  "Ð¾Ð±Ð»Ð°": 7856,
  "Ð¾Ð±Ð»Ð¾Ðº": 45348,
  "Ð¾Ð±Ð¼ÐµÐ½": 30933,
  "Ð¾Ð±Ð½Ð¾": 9983,
  "Ð¾Ð±Ð½Ð¾Ð²": 13032,
  "Ð¾Ð±Ð¾": 18857,
  "Ð¾Ð±Ð¾Ð´": 2115,
  "Ð¾Ð±Ð¾Ð´Ð°": 33494,
  "Ð¾Ð±Ð¾Ð¹": 4219,
  "Ð¾Ð±Ð¾ÑĢ": 22989,
  "Ð¾Ð±Ð¾ÑĢÐ¾": 4513,
  "Ð¾Ð±Ð¾ÑĢÐ¾Ð½Ñĭ": 20867,
  "Ð¾Ð±Ð¾ÑĢÐ¾ÑĤ": 5473,
  "Ð¾Ð±Ð¾ÑĢÐ¾ÑĤÐ°": 42150,
  "Ð¾Ð±Ð¾ÑĢÑĥÐ´": 28460,
  "Ð¾Ð±ÑĢÐ°": 3424,
  "Ð¾Ð±ÑĢÐ°Ð¶": 23398,
  "Ð¾Ð±ÑĢÐ°Ð¶Ð°": 32069,
  "Ð¾Ð±ÑĢÐ°Ð¶ÐµÐ½Ð¸Ðµ": 36881,
  "Ð¾Ð±ÑĢÐ°Ð·": 2085,
  "Ð¾Ð±ÑĢÐ°Ð·Ð¾Ð²Ð°Ð½Ð¸Ðµ": 44123,
  "Ð¾Ð±ÑĢÐ°Ð·Ð¾Ð²Ð°Ð½Ð¸Ñı": 30244,
  "Ð¾Ð±ÑĢÐ°Ð·Ð¾Ð²Ð°ÑĤÐµÐ»ÑĮ": 19268,
  "Ð¾Ð±ÑĢÐ°ÑĤÑĮÑģÑı": 48362,
  "Ð¾Ð±ÑĢÐµÑĤ": 47190,
  "Ð¾Ð±ÑĢÑıÐ´": 45795,
  "Ð¾Ð±Ñĥ": 41070,
  "Ð¾Ð±ÑħÐ¾Ð´": 9821,
  "Ð¾Ð±ÑīÐµ": 1665,
  "Ð¾Ð±ÑīÐµÐ¼": 27901,
  "Ð¾Ð±ÑĬ": 47949,
  "Ð¾Ð±ÑĬÐµÐº": 36756,
  "Ð¾Ð±Ñĭ": 659,
  "Ð¾Ð±ÑĭÑĤÐ¸Ñı": 35033,
  "Ð¾Ð±ÑĭÑĩÐ½Ð¾": 38775,
  "Ð¾Ð±ÑıÐ·Ð°ÑĤÐµÐ»ÑĮÐ½Ð¾": 33418,
  "Ð¾Ð²": 292,
  "Ð¾Ð²Ð°": 401,
  "Ð¾Ð²Ð°Ð²": 12742,
  "Ð¾Ð²Ð°Ð²ÑĪÐ¸Ðµ": 42854,
  "Ð¾Ð²Ð°Ð²ÑĪÐ¸Ð¹": 37945,
  "Ð¾Ð²Ð°Ð²ÑĪÐ¸ÑģÑĮ": 22795,
  "Ð¾Ð²Ð°Ð²ÑĪÐ¸Ñħ": 33504,
  "Ð¾Ð²Ð°Ð»": 2002,
  "Ð¾Ð²Ð°Ð»Ð°": 3520,
  "Ð¾Ð²Ð°Ð»Ð°ÑģÑĮ": 9481,
  "Ð¾Ð²Ð°Ð»Ð¸": 2998,
  "Ð¾Ð²Ð°Ð»Ð¸ÑģÑĮ": 8721,
  "Ð¾Ð²Ð°Ð»Ð¾": 5508,
  "Ð¾Ð²Ð°Ð»Ð¾ÑģÑĮ": 11216,
  "Ð¾Ð²Ð°Ð»ÑģÑı": 5956,
  "Ð¾Ð²Ð°Ð½": 2951,
  "Ð¾Ð²Ð°Ð½Ð°": 8594,
  "Ð¾Ð²Ð°Ð½Ð¸Ðµ": 1646,
  "Ð¾Ð²Ð°Ð½Ð¸ÐµÐ¼": 4925,
  "Ð¾Ð²Ð°Ð½Ð¸Ð¸": 4378,
  "Ð¾Ð²Ð°Ð½Ð¸Ð¹": 4785,
  "Ð¾Ð²Ð°Ð½Ð¸Ñİ": 6239,
  "Ð¾Ð²Ð°Ð½Ð¸Ñı": 1127,
  "Ð¾Ð²Ð°Ð½Ð½Ð°Ñı": 36775,
  "Ð¾Ð²Ð°Ð½Ð½Ð¾Ð³Ð¾": 36623,
  "Ð¾Ð²Ð°Ð½Ð½Ð¾Ðµ": 42938,
  "Ð¾Ð²Ð°Ð½Ð½Ð¾Ð¹": 28646,
  "Ð¾Ð²Ð°Ð½Ð½ÑĭÐµ": 18658,
  "Ð¾Ð²Ð°Ð½Ð½ÑĭÐ¹": 22444,
  "Ð¾Ð²Ð°Ð½Ð½ÑĭÐ¼": 43553,
  "Ð¾Ð²Ð°Ð½Ð½ÑĭÑħ": 17096,
  "Ð¾Ð²Ð°Ð½Ð¾": 9912,
  "Ð¾Ð²Ð°Ð½Ñĭ": 6573,
  "Ð¾Ð²Ð°ÑĢ": 9542,
  "Ð¾Ð²Ð°ÑĢÐ¸": 3783,
  "Ð¾Ð²Ð°ÑĢÐ¸Ñī": 30584,
  "Ð¾Ð²Ð°ÑĢÐ¸ÑīÐ¸": 41260,
  "Ð¾Ð²Ð°ÑĢÑĭ": 43658,
  "Ð¾Ð²Ð°ÑĤ": 3311,
  "Ð¾Ð²Ð°ÑĤÐµÐ»ÐµÐ¹": 14988,
  "Ð¾Ð²Ð°ÑĤÐµÐ»ÐµÐ¼": 41970,
  "Ð¾Ð²Ð°ÑĤÐµÐ»Ð¸": 11929,
  "Ð¾Ð²Ð°ÑĤÐµÐ»ÑĮ": 3157,
  "Ð¾Ð²Ð°ÑĤÐµÐ»ÑĮÐ½Ð¾": 8266,
  "Ð¾Ð²Ð°ÑĤÐµÐ»Ñı": 7304,
  "Ð¾Ð²Ð°ÑĤÐ¾": 12015,
  "Ð¾Ð²Ð°ÑĤÑĭÐµ": 49448,
  "Ð¾Ð²Ð°ÑĤÑĭÐ¹": 34429,
  "Ð¾Ð²Ð°ÑĤÑĮ": 1079,
  "Ð¾Ð²Ð°ÑĤÑĮÑģÑı": 2954,
  "Ð¾Ð²Ð°Ñı": 2110,
  "Ð¾Ð²Ðµ": 11265,
  "Ð¾Ð²ÐµÐ´": 7453,
  "Ð¾Ð²ÐµÐ´Ð¸": 24405,
  "Ð¾Ð²ÐµÐ´ÑĮ": 26612,
  "Ð¾Ð²ÐµÑĢ": 26340,
  "Ð¾Ð²ÐµÑĤ": 8104,
  "Ð¾Ð²ÐµÑĤÑĥ": 10829,
  "Ð¾Ð²ÐµÑĤÑĥÐ¹ÑĤÐµ": 13921,
  "Ð¾Ð²Ð¸": 5523,
  "Ð¾Ð²Ð¸Ð´": 27783,
  "Ð¾Ð²Ð¸ÐºÐ¸": 50026,
  "Ð¾Ð²Ð¸ÐºÐ¾Ð²": 38236,
  "Ð¾Ð²Ð¸ÑĤÐµ": 50232,
  "Ð¾Ð²Ð¸ÑĤÐ¾": 45939,
  "Ð¾Ð²Ð¸Ñĩ": 16805,
  "Ð¾Ð²ÐºÐ°": 39214,
  "Ð¾Ð²ÐºÐ¸": 45226,
  "Ð¾Ð²Ð½Ð°": 49896,
  "Ð¾Ð²Ð¾": 690,
  "Ð¾Ð²Ð¾Ð³Ð¾": 4152,
  "Ð¾Ð²Ð¾Ð´": 36012,
  "Ð¾Ð²Ð¾Ðµ": 6612,
  "Ð¾Ð²Ð¾Ð·": 23867,
  "Ð¾Ð²Ð¾Ð¹": 1177,
  "Ð¾Ð²Ð¾Ð»ÑĮ": 10000,
  "Ð¾Ð²Ð¾Ð¼": 11792,
  "Ð¾Ð²Ð¾Ð¼Ñĥ": 24565,
  "Ð¾Ð²Ð¾ÑĢ": 1169,
  "Ð¾Ð²Ð¾ÑĢÐ°": 4366,
  "Ð¾Ð²Ð¾ÑĢÐµ": 35584,
  "Ð¾Ð²Ð¾ÑĢÐ¸": 958,
  "Ð¾Ð²Ð¾ÑĢÐ¸Ð»": 7393,
  "Ð¾Ð²Ð¾ÑĢÐ¸Ð»Ð°": 15175,
  "Ð¾Ð²Ð¾ÑĢÐ¸Ð»Ð¸": 22670,
  "Ð¾Ð²Ð¾ÑĢÐ¸Ð»Ð¸ÑģÑĮ": 35553,
  "Ð¾Ð²Ð¾ÑĢÐ¸ÑĤ": 38836,
  "Ð¾Ð²Ð¾ÑĢÐ¸ÑĤÑĮ": 6515,
  "Ð¾Ð²Ð¾ÑĢÐ¾": 28548,
  "Ð¾Ð²Ð¾ÑĢÐ¾Ð¶Ð´": 18491,
  "Ð¾Ð²Ð¾ÑĢÐ¾ÑĤ": 28168,
  "Ð¾Ð²Ð¾ÑĢÑĥ": 38731,
  "Ð¾Ð²ÑģÐºÐ°Ñı": 30870,
  "Ð¾Ð²ÑģÐºÐ¸Ðµ": 40819,
  "Ð¾Ð²ÑģÐºÐ¸Ð¹": 15060,
  "Ð¾Ð²ÑģÐºÐ¸Ñħ": 43914,
  "Ð¾Ð²ÑģÐºÐ¾Ð³Ð¾": 20470,
  "Ð¾Ð²ÑģÐºÐ¾Ð¹": 32797,
  "Ð¾Ð²Ñĥ": 15300,
  "Ð¾Ð²ÑĥÑİ": 7501,
  "Ð¾Ð²Ñĭ": 635,
  "Ð¾Ð²ÑĭÐ²Ð°ÑĤÑĮ": 17357,
  "Ð¾Ð²ÑĭÐµ": 1435,
  "Ð¾Ð²ÑĭÐ¹": 1579,
  "Ð¾Ð²ÑĭÐ¼": 2498,
  "Ð¾Ð²ÑĭÐ¼Ð¸": 4544,
  "Ð¾Ð²ÑĭÑħ": 1356,
  "Ð¾Ð²ÑĮ": 9107,
  "Ð¾Ð²ÑĮÐµ": 47633,
  "Ð¾Ð²ÑĮÑı": 37748,
  "Ð¾Ð³": 317,
  "Ð¾Ð³Ð°": 1281,
  "Ð¾Ð³Ð°Ð±Ð°ÑĢÐ¸ÑĤ": 45015,
  "Ð¾Ð³Ð°Ð·": 47353,
  "Ð¾Ð³Ð°Ð½": 19086,
  "Ð¾Ð³Ð°Ñħ": 7342,
  "Ð¾Ð³Ð°Ñı": 26563,
  "Ð¾Ð³Ð´Ð°": 587,
  "Ð¾Ð³Ðµ": 2422,
  "Ð¾Ð³ÐµÐ½": 31264,
  "Ð¾Ð³Ð¸": 818,
  "Ð¾Ð³Ð¸Ð±": 33137,
  "Ð¾Ð³Ð¸Ðµ": 15505,
  "Ð¾Ð³Ð¸Ð¹": 48299,
  "Ð¾Ð³Ð¸Ð¼Ð¸": 16303,
  "Ð¾Ð³Ð¸ÑĤÐµ": 6951,
  "Ð¾Ð³Ð¸Ñħ": 35890,
  "Ð¾Ð³Ð»Ð°": 11783,
  "Ð¾Ð³Ð»Ð°Ñģ": 5112,
  "Ð¾Ð³Ð»Ð°ÑģÐ½Ð¾": 6870,
  "Ð¾Ð³Ð¾": 347,
  "Ð¾Ð³Ð¾Ð²": 8699,
  "Ð¾Ð³Ð¾Ð²Ð¾ÑĢ": 30058,
  "Ð¾Ð³Ð¾Ð´": 6404,
  "Ð¾Ð³Ð¾Ð¹": 13824,
  "Ð¾Ð³Ð¾Ð¼": 15694,
  "Ð¾Ð³Ð¾Ð¾Ð±": 22979,
  "Ð¾Ð³Ð¾ÑĢ": 23928,
  "Ð¾Ð³ÑĢÐ°": 985,
  "Ð¾Ð³ÑĢÐ°Ð´": 8808,
  "Ð¾Ð³ÑĢÐ°Ð´Ð°": 23192,
  "Ð¾Ð³ÑĢÐ°Ð´Ðµ": 32595,
  "Ð¾Ð³ÑĢÐ°Ð¼": 1506,
  "Ð¾Ð³ÑĢÐ°Ð¼Ð¼Ð°": 47184,
  "Ð¾Ð³ÑĢÐ°Ð½Ð¸": 24398,
  "Ð¾Ð³ÑĢÐ°ÑĦ": 3803,
  "Ð¾Ð³ÑĢÐ°ÑĦÐ°": 21532,
  "Ð¾Ð³ÑĢÐ°ÑĦÐ¸": 2484,
  "Ð¾Ð³ÑĢÐ°ÑĦÐ¸Ð¸": 4276,
  "Ð¾Ð³ÑĢÐ°ÑĦÐ¸ÑĩÐµÑģÐºÐ¸Ðµ": 38975,
  "Ð¾Ð³ÑĢÐ°ÑĦÐ¸ÑĩÐµÑģÐºÐ¸Ð¹": 40370,
  "Ð¾Ð³ÑĢÐ°ÑĦÐ¸ÑĩÐµÑģÐºÐ¸Ñħ": 40790,
  "Ð¾Ð³ÑĢÐ°ÑĦÐ¸ÑĩÐµÑģÐºÐ¾Ð³Ð¾": 46457,
  "Ð¾Ð³ÑĢÐ°ÑĦÐ¸ÑĩÐµÑģÐºÐ¾Ð¹": 39780,
  "Ð¾Ð³ÑĢÐ°ÑĦÐ¸Ñİ": 27468,
  "Ð¾Ð³ÑĢÐ°ÑĦÐ¸Ñı": 11139,
  "Ð¾Ð³Ñĥ": 1885,
  "Ð¾Ð³ÑĥÑĢ": 30845,
  "Ð¾Ð´": 313,
  "Ð¾Ð´Ð°": 573,
  "Ð¾Ð´Ð°Ð¼Ð¸": 19209,
  "Ð¾Ð´Ð°ÑĤÐµÐ»ÑĮ": 4372,
  "Ð¾Ð´Ðµ": 8067,
  "Ð¾Ð´ÐµÐ´": 46432,
  "Ð¾Ð´ÐµÐ´Ð¾Ð²Ð¾": 49004,
  "Ð¾Ð´ÐµÐ¹": 20391,
  "Ð¾Ð´ÐµÐ¹ÑģÑĤÐ²": 6288,
  "Ð¾Ð´ÐµÐ»": 33447,
  "Ð¾Ð´ÐµÐ»Ð¸": 35368,
  "Ð¾Ð´ÐµÐ»ÑĮ": 12692,
  "Ð¾Ð´ÐµÑĢÐ¶Ð°": 15607,
  "Ð¾Ð´ÐµÑĢÐ¶Ð°Ð½Ð¸Ðµ": 27758,
  "Ð¾Ð´ÐµÑĤ": 25928,
  "Ð¾Ð´Ð¸": 5357,
  "Ð¾Ð´Ð¸Ð°ÐºÐ°": 36434,
  "Ð¾Ð´Ð¸Ð½": 22624,
  "Ð¾Ð´Ð¸Ð½Ð¾": 42109,
  "Ð¾Ð´Ð½Ð°": 29998,
  "Ð¾Ð´Ð½ÐµÐ²": 47512,
  "Ð¾Ð´Ð½Ð¾": 11989,
  "Ð¾Ð´Ð½Ð¾Ð¹": 49338,
  "Ð¾Ð´Ð¾Ð±": 17794,
  "Ð¾Ð´Ð¾Ð²": 13205,
  "Ð¾Ð´Ð¾Ð·": 30232,
  "Ð¾Ð´Ð¾Ð»": 28745,
  "Ð¾Ð´Ð¾Ð¼": 24586,
  "Ð¾Ð´Ð¾ÑĢ": 21402,
  "Ð¾Ð´ÑģÑĤÐ²Ð°": 41076,
  "Ð¾Ð´Ñĥ": 759,
  "Ð¾Ð´ÑĥÑĪ": 20768,
  "Ð¾Ð´ÑĥÑĪÐ¸": 37698,
  "Ð¾Ð´ÑĥÑĪÐ½Ð¾": 45302,
  "Ð¾Ð´Ñĭ": 4882,
  "Ð¾Ðµ": 625,
  "Ð¾ÐµÑħÐ°Ð»Ð¸": 37691,
  "Ð¾Ð¶": 362,
  "Ð¾Ð¶Ð°": 2823,
  "Ð¾Ð¶Ð°Ð´": 49527,
  "Ð¾Ð¶Ð°Ð¹": 45028,
  "Ð¾Ð¶Ð°Ð»ÑĥÐ¹": 7460,
  "Ð¾Ð¶Ð°ÑĢ": 18697,
  "Ð¾Ð¶Ð´": 1303,
  "Ð¾Ð¶Ð´Ð°": 6958,
  "Ð¾Ð¶Ð´Ðµ": 6741,
  "Ð¾Ð¶Ð´ÐµÐ½Ð¸Ðµ": 5168,
  "Ð¾Ð¶Ð´ÐµÐ½Ð¸ÐµÐ¼": 37922,
  "Ð¾Ð¶Ð´ÐµÐ½Ð¸Ð¸": 9108,
  "Ð¾Ð¶Ð´ÐµÐ½Ð¸Ð¹": 32931,
  "Ð¾Ð¶Ð´ÐµÐ½Ð¸Ñİ": 34733,
  "Ð¾Ð¶Ð´ÐµÐ½Ð¸Ñı": 2853,
  "Ð¾Ð¶Ð´ÐµÑģÑĤÐ²": 38523,
  "Ð¾Ð¶Ð´ÐµÑģÑĤÐ²ÐµÐ½": 23342,
  "Ð¾Ð¶Ð´Ð¸": 30576,
  "Ð¾Ð¶Ð´Ð¸ÑĤÐµ": 46796,
  "Ð¾Ð¶Ð´ÑĮ": 26019,
  "Ð¾Ð¶Ðµ": 923,
  "Ð¾Ð¶ÐµÐ¼": 21624,
  "Ð¾Ð¶ÐµÐ½": 17383,
  "Ð¾Ð¶ÐµÑĤ": 2328,
  "Ð¾Ð¶ÐµÑĤÐµ": 17229,
  "Ð¾Ð¶ÐµÑĪÑĮ": 22315,
  "Ð¾Ð¶Ð¸": 1748,
  "Ð¾Ð¶Ð¸Ð´Ð°Ð½": 4172,
  "Ð¾Ð¶Ð¸Ð´Ð°Ð½Ð½Ð¾": 24053,
  "Ð¾Ð¶Ð¸Ð»Ð°ÑģÑĮ": 20192,
  "Ð¾Ð¶ÐºÐ¸": 35870,
  "Ð¾Ð¶Ð½Ð¸Ðº": 26591,
  "Ð¾Ð¶Ð½Ð¾": 2433,
  "Ð¾Ð¶Ñĥ": 3980,
  "Ð¾Ð¶ÑĥÑģÑĮ": 49763,
  "Ð¾Ð·": 396,
  "Ð¾Ð·Ð°": 3214,
  "Ð¾Ð·Ð°Ð²": 24095,
  "Ð¾Ð·Ð°Ð²Ð¸Ñģ": 46813,
  "Ð¾Ð·Ð°Ð²Ð¾Ð´": 48314,
  "Ð¾Ð·Ð°ÑīÐ¸ÑĤ": 18548,
  "Ð¾Ð·Ð´": 13521,
  "Ð¾Ð·Ðµ": 21022,
  "Ð¾Ð·ÐµÐ¼": 37512,
  "Ð¾Ð·ÐµÑĢ": 33509,
  "Ð¾Ð·ÐµÑĦ": 35313,
  "Ð¾Ð·Ð·": 21362,
  "Ð¾Ð·Ð¸": 3330,
  "Ð¾Ð·Ð¸ÑĤ": 48481,
  "Ð¾Ð·Ð¸ÑĨÐ¸Ñı": 47231,
  "Ð¾Ð·Ð¼Ð¾Ð¶Ð½Ð¾": 34585,
  "Ð¾Ð·Ð½Ð°": 2375,
  "Ð¾Ð·Ð½Ð°ÐºÐ¾Ð¼": 31087,
  "Ð¾Ð·Ð½Ð°Ð½": 29455,
  "Ð¾Ð·Ð½Ð°Ð½Ð¸Ðµ": 18164,
  "Ð¾Ð·Ð½Ð°Ð½Ð¸Ñı": 20937,
  "Ð¾Ð·Ð½Ð°Ñĩ": 28947,
  "Ð¾Ð·Ð½Ð°ÑĩÐ½Ð¾": 14014,
  "Ð¾Ð·Ð¾Ð²": 40786,
  "Ð¾Ð·Ð¾Ð¼": 43902,
  "Ð¾Ð·ÑĢÐµ": 37067,
  "Ð¾Ð·Ñĭ": 7677,
  "Ð¾Ð·Ñı": 2039,
  "Ð¾Ð·ÑıÐ¹": 8351,
  "Ð¾Ð¸": 15418,
  "Ð¾Ð¸Ð´": 34488,
  "Ð¾Ð¹": 323,
  "Ð¾Ð¹Ð³Ñĥ": 48415,
  "Ð¾Ð¹Ð´": 6571,
  "Ð¾Ð¹Ð´ÐµÑĤ": 4832,
  "Ð¾Ð¹Ð´Ð¸": 49086,
  "Ð¾Ð¹Ð´Ð¸ÑĤÐµ": 23704,
  "Ð¾Ð¹Ð´Ñĥ": 46870,
  "Ð¾Ð¹Ð´ÑĥÑĤ": 11337,
  "Ð¾Ð¹Ð´Ñı": 14026,
  "Ð¾Ð¹Ð´ÑĳÑĤ": 14513,
  "Ð¾Ð¹ÑĤÐ¸": 3459,
  "Ð¾Ðº": 370,
  "Ð¾ÐºÐ°": 1235,
  "Ð¾ÐºÐ°Ð·": 36136,
  "Ð¾ÐºÐ°Ð½": 49226,
  "Ð¾ÐºÐ°ÑĢ": 37850,
  "Ð¾ÐºÐ°ÑĩÐµ": 16511,
  "Ð¾ÐºÐµ": 14164,
  "Ð¾ÐºÐ¸": 9948,
  "Ð¾ÐºÐ¸Ð¹": 41779,
  "Ð¾ÐºÐ¸Ð¾": 35238,
  "Ð¾ÐºÐºÐ¾": 33117,
  "Ð¾ÐºÐ»Ð°ÑģÑģ": 27701,
  "Ð¾ÐºÐ¾": 2297,
  "Ð¾ÐºÐ¾Ð²": 31713,
  "Ð¾ÐºÐ¾ÐµÐ½": 41988,
  "Ð¾ÐºÐ¾Ð¹": 2342,
  "Ð¾ÐºÐ¾Ð¹Ð½Ð¾": 31169,
  "Ð¾ÐºÐ¾Ð¹ÑģÑı": 39471,
  "Ð¾ÐºÐ¾Ð»": 23802,
  "Ð¾ÐºÐ¾Ð»Ð¾": 26689,
  "Ð¾ÐºÐ¾Ð¼": 11253,
  "Ð¾ÐºÐ¾Ð½": 8627,
  "Ð¾ÐºÐ¾Ð½ÑĤÑĢ": 49978,
  "Ð¾ÐºÐ¾ÑĢÐµÐ¹": 42905,
  "Ð¾ÐºÑĢÐ°": 2950,
  "Ð¾ÐºÑĢÐ¸Ð½": 35446,
  "Ð¾ÐºÑĢÑĥÐ³": 16620,
  "Ð¾ÐºÑĢÑĥÐ¶": 26601,
  "Ð¾ÐºÑģ": 16182,
  "Ð¾ÐºÑģÐ°": 44610,
  "Ð¾ÐºÑģÐ¸": 21424,
  "Ð¾ÐºÑĥ": 6126,
  "Ð¾ÐºÑĥÐ·Ð½ÐµÑĨ": 44976,
  "Ð¾ÐºÑĥÐ¿": 11367,
  "Ð¾ÐºÑĥÐ¿Ð°": 47442,
  "Ð¾ÐºÑĥÑģÐ¸": 30602,
  "Ð¾Ð»": 304,
  "Ð¾Ð»Ð°": 2037,
  "Ð¾Ð»Ð°Ð³Ð°": 8026,
  "Ð¾Ð»Ð°Ð³Ð°Ñİ": 31852,
  "Ð¾Ð»Ð°Ð´": 11395,
  "Ð¾Ð»Ð°Ð·": 45893,
  "Ð¾Ð»Ð°Ð¹": 24653,
  "Ð¾Ð»Ð³Ð¾": 4985,
  "Ð¾Ð»Ðµ": 720,
  "Ð¾Ð»ÐµÐ±": 21481,
  "Ð¾Ð»ÐµÐ²": 4591,
  "Ð¾Ð»ÐµÐ²Ð°": 14243,
  "Ð¾Ð»ÐµÐµ": 942,
  "Ð¾Ð»ÐµÐ·": 8806,
  "Ð¾Ð»ÐµÐ¹": 13042,
  "Ð¾Ð»ÐµÐ¼": 11434,
  "Ð¾Ð»ÐµÐ½": 11527,
  "Ð¾Ð»ÐµÐ¿": 7355,
  "Ð¾Ð»ÐµÑĤ": 2570,
  "Ð¾Ð»ÐµÑĨ": 45136,
  "Ð¾Ð»Ð¶": 1664,
  "Ð¾Ð»Ð¶ÐµÐ½Ð¸ÑĨÑĭ": 42398,
  "Ð¾Ð»Ð¸": 867,
  "Ð¾Ð»Ð¸Ð¸": 28953,
  "Ð¾Ð»Ð¸Ðº": 20637,
  "Ð¾Ð»Ð¸ÐºÐ°": 45272,
  "Ð¾Ð»Ð¸ÐºÐ¸": 39626,
  "Ð¾Ð»Ð¸ÐºÐ¾Ð²": 50178,
  "Ð¾Ð»Ð¸Ð½Ð°": 22474,
  "Ð¾Ð»Ð¸Ð¾": 43632,
  "Ð¾Ð»Ð¸ÑģÑĮ": 28370,
  "Ð¾Ð»Ð¸ÑĤ": 8942,
  "Ð¾Ð»Ð¸ÑĩÐµÑģÑĤÐ²Ð¾": 12381,
  "Ð¾Ð»Ð¸ÑĩÐ½Ð¾": 47694,
  "Ð¾Ð»ÐºÐ¸": 49726,
  "Ð¾Ð»Ð¾": 1702,
  "Ð¾Ð»Ð¾Ð²": 2669,
  "Ð¾Ð»Ð¾Ð²Ð¸Ð½Ñĥ": 22392,
  "Ð¾Ð»Ð¾Ð³": 2157,
  "Ð¾Ð»Ð¾Ð³Ð°": 12987,
  "Ð¾Ð»Ð¾Ð³Ð°Ð¼Ð¸": 41873,
  "Ð¾Ð»Ð¾Ð³Ð¸": 1282,
  "Ð¾Ð»Ð¾Ð³Ð¸ÐµÐ¹": 27480,
  "Ð¾Ð»Ð¾Ð³Ð¸Ð¸": 2873,
  "Ð¾Ð»Ð¾Ð³Ð¸Ð¹": 7034,
  "Ð¾Ð»Ð¾Ð³Ð¸ÑĩÐµÑģÐºÐ°Ñı": 20024,
  "Ð¾Ð»Ð¾Ð³Ð¸ÑĩÐµÑģÐºÐ¸": 23384,
  "Ð¾Ð»Ð¾Ð³Ð¸ÑĩÐµÑģÐºÐ¸Ðµ": 12161,
  "Ð¾Ð»Ð¾Ð³Ð¸ÑĩÐµÑģÐºÐ¸Ð¹": 14344,
  "Ð¾Ð»Ð¾Ð³Ð¸ÑĩÐµÑģÐºÐ¸Ð¼": 29036,
  "Ð¾Ð»Ð¾Ð³Ð¸ÑĩÐµÑģÐºÐ¸Ð¼Ð¸": 40801,
  "Ð¾Ð»Ð¾Ð³Ð¸ÑĩÐµÑģÐºÐ¸Ñħ": 9998,
  "Ð¾Ð»Ð¾Ð³Ð¸ÑĩÐµÑģÐºÐ¾Ð³Ð¾": 14008,
  "Ð¾Ð»Ð¾Ð³Ð¸ÑĩÐµÑģÐºÐ¾Ðµ": 22706,
  "Ð¾Ð»Ð¾Ð³Ð¸ÑĩÐµÑģÐºÐ¾Ð¹": 13601,
  "Ð¾Ð»Ð¾Ð³Ð¸ÑĩÐµÑģÐºÐ¾Ð¼": 30189,
  "Ð¾Ð»Ð¾Ð³Ð¸ÑĩÐµÑģÐºÑĥÑİ": 37411,
  "Ð¾Ð»Ð¾Ð³Ð¸Ñİ": 19243,
  "Ð¾Ð»Ð¾Ð³Ð¸Ñı": 4678,
  "Ð¾Ð»Ð¾Ð³Ð¾": 30171,
  "Ð¾Ð»Ð¾Ð³Ð¾Ð²": 12400,
  "Ð¾Ð»Ð¾Ð³Ð¾Ð¼": 28929,
  "Ð¾Ð»Ð¾Ð³Ñĥ": 24510,
  "Ð¾Ð»Ð¾Ð´": 1935,
  "Ð¾Ð»Ð¾Ð¶": 2661,
  "Ð¾Ð»Ð¾Ðº": 26576,
  "Ð¾Ð»Ð¾ÐºÐ°": 46157,
  "Ð¾Ð»Ð¾Ð¼": 10044,
  "Ð¾Ð»Ð¾Ð½": 35441,
  "Ð¾Ð»Ð¾Ñģ": 5836,
  "Ð¾Ð»Ð¾ÑĤ": 3409,
  "Ð¾Ð»Ð¾ÑĤÐ¸": 48639,
  "Ð¾Ð»Ð¾ÑĤÐ¾": 21699,
  "Ð¾Ð»Ð¾ÑĤÑĮ": 43129,
  "Ð¾Ð»Ð¾Ñĩ": 33029,
  "Ð¾Ð»ÑģÑı": 33869,
  "Ð¾Ð»Ñĥ": 15126,
  "Ð¾Ð»Ñĭ": 7127,
  "Ð¾Ð»ÑĮ": 380,
  "Ð¾Ð»ÑĮÐ´": 24662,
  "Ð¾Ð»ÑĮÐµ": 33064,
  "Ð¾Ð»ÑĮÐ·": 840,
  "Ð¾Ð»ÑĮÐºÐ¾": 547,
  "Ð¾Ð»ÑĮÐºÑĥ": 24666,
  "Ð¾Ð»ÑĮÐ½Ð°Ñı": 18955,
  "Ð¾Ð»ÑĮÐ½Ð¸ÐºÐ¾Ð²": 49747,
  "Ð¾Ð»ÑĮÐ½Ð¾": 2392,
  "Ð¾Ð»ÑĮÐ½Ð¾Ð³Ð¾": 11054,
  "Ð¾Ð»ÑĮÐ½Ð¾Ðµ": 26042,
  "Ð¾Ð»ÑĮÐ½Ð¾Ð¹": 11457,
  "Ð¾Ð»ÑĮÐ½Ð¾Ð¼": 36900,
  "Ð¾Ð»ÑĮÐ½ÑĥÑİ": 41645,
  "Ð¾Ð»ÑĮÐ½ÑĭÐµ": 11854,
  "Ð¾Ð»ÑĮÐ½ÑĭÐ¹": 11110,
  "Ð¾Ð»ÑĮÐ½ÑĭÐ¼": 35928,
  "Ð¾Ð»ÑĮÐ½ÑĭÑħ": 11403,
  "Ð¾Ð»ÑĮÑģÐºÐ¸Ð¹": 34197,
  "Ð¾Ð»ÑĮÑģÐºÐ¾Ð³Ð¾": 45803,
  "Ð¾Ð»ÑĮÑĦ": 17418,
  "Ð¾Ð»ÑĮÑĦÐ°": 46229,
  "Ð¾Ð»ÑĮÑĪ": 1761,
  "Ð¾Ð»ÑĮÑĪÐµ": 4263,
  "Ð¾Ð»ÑĮÑĪÐµÐµ": 33110,
  "Ð¾Ð»ÑĮÑı": 49652,
  "Ð¾Ð»ÑĮÑıÑĤ": 32773,
  "Ð¾Ð»ÑĮÑıÑĤÑĤÐ¸": 37742,
  "Ð¾Ð»Ñİ": 6411,
  "Ð¾Ð»ÑİÐ±": 20253,
  "Ð¾Ð»ÑİÐ±Ð¸": 21351,
  "Ð¾Ð»Ñı": 2582,
  "Ð¾Ð¼": 307,
  "Ð¾Ð¼Ð°": 4177,
  "Ð¾Ð¼Ð°ÑĤ": 14859,
  "Ð¾Ð¼Ð°ÑĤÐµÑĢÐ¸": 24527,
  "Ð¾Ð¼Ð±Ð¸": 21929,
  "Ð¾Ð¼ÐµÐ½ÑĤ": 45378,
  "Ð¾Ð¼ÐµÑĢ": 12726,
  "Ð¾Ð¼ÐµÑĤ": 4095,
  "Ð¾Ð¼ÐµÑĤÑĢ": 41160,
  "Ð¾Ð¼ÐµÑĤÑĢÐ¸": 43796,
  "Ð¾Ð¼ÐµÑĤÑĢÐ¾Ð²": 40957,
  "Ð¾Ð¼Ð¸": 29864,
  "Ð¾Ð¼Ð¸Ð½Ð°": 2237,
  "Ð¾Ð¼Ð¸Ð½Ð°Ð½Ð¸Ñı": 42015,
  "Ð¾Ð¼Ð¸Ð½Ð°Ñİ": 42007,
  "Ð¾Ð¼Ð½ÐµÐ½Ð½Ð¾": 11993,
  "Ð¾Ð¼Ð¾": 6904,
  "Ð¾Ð¼Ð¾ÑĢ": 43842,
  "Ð¾Ð¼Ð¾Ñī": 18884,
  "Ð¾Ð¼Ñĥ": 870,
  "Ð¾Ð¼Ñĭ": 16375,
  "Ð¾Ð¼Ñı": 8587,
  "Ð¾Ð½": 361,
  "Ð¾Ð½Ð°": 937,
  "Ð¾Ð½Ð°Ð±Ð»ÑİÐ´": 28678,
  "Ð¾Ð½Ð°Ð»": 36003,
  "Ð¾Ð½Ð°Ð»Ð°": 43143,
  "Ð¾Ð½Ð°Ð¼Ð¸": 25451,
  "Ð¾Ð½Ð°Ñħ": 21546,
  "Ð¾Ð½Ð°Ñĩ": 24201,
  "Ð¾Ð½Ð°ÑĩÐ°Ð»Ñĥ": 29734,
  "Ð¾Ð½Ð³": 44999,
  "Ð¾Ð½Ð´": 4634,
  "Ð¾Ð½Ð´ÐµÐ½": 20102,
  "Ð¾Ð½Ð´ÐµÐ½ÑĤ": 18965,
  "Ð¾Ð½Ð´ÐµÐ½ÑĤÐ¾Ð²": 38831,
  "Ð¾Ð½Ð´Ð¾Ð½": 24504,
  "Ð¾Ð½Ðµ": 1010,
  "Ð¾Ð½ÐµÐ·": 25039,
  "Ð¾Ð½ÐµÑĢ": 21068,
  "Ð¾Ð½ÐµÑĨ": 2399,
  "Ð¾Ð½ÐµÑĩÐ½Ð¾": 3119,
  "Ð¾Ð½Ð¸": 2789,
  "Ð¾Ð½ÐºÐ°": 27185,
  "Ð¾Ð½ÐºÐ¸": 28433,
  "Ð¾Ð½Ð½Ð°": 40965,
  "Ð¾Ð½Ð½Ð°Ñı": 43578,
  "Ð¾Ð½Ð½Ð¾": 39679,
  "Ð¾Ð½Ð½Ð¾Ð³Ð¾": 41581,
  "Ð¾Ð½Ð½Ð¾Ð¹": 36101,
  "Ð¾Ð½Ð½ÑĭÐµ": 35895,
  "Ð¾Ð½Ð½ÑĭÐ¹": 26865,
  "Ð¾Ð½Ð½ÑĭÑħ": 40025,
  "Ð¾Ð½Ð¾": 21522,
  "Ð¾Ð½Ð¾Ð²": 2142,
  "Ð¾Ð½Ð¾Ð²Ð°": 24931,
  "Ð¾Ð½Ð¾Ðº": 26048,
  "Ð¾Ð½Ð¾Ð¼": 1367,
  "Ð¾Ð½Ð¾Ñģ": 24494,
  "Ð¾Ð½Ñģ": 20256,
  "Ð¾Ð½ÑģÐºÐ¸Ð¹": 38509,
  "Ð¾Ð½ÑģÐºÐ¾Ð³Ð¾": 34097,
  "Ð¾Ð½ÑģÐºÐ¾Ð¹": 44562,
  "Ð¾Ð½ÑĤ": 6165,
  "Ð¾Ð½ÑĤÐ°": 36425,
  "Ð¾Ð½ÑĤÑĢ": 37242,
  "Ð¾Ð½Ñĥ": 6095,
  "Ð¾Ð½ÑĩÐ°": 46818,
  "Ð¾Ð½Ñĭ": 3065,
  "Ð¾Ð½ÑĮ": 3689,
  "Ð¾Ð½ÑĮÐºÐ¾": 17177,
  "Ð¾Ð½ÑĮÐºÑĥ": 18448,
  "Ð¾Ð½Ñı": 17385,
  "Ð¾Ð¾": 10722,
  "Ð¾Ð¾Ð±ÑĢÐ°Ð·": 47046,
  "Ð¾Ð¾Ð¾Ð¾": 35068,
  "Ð¾Ð¿": 415,
  "Ð¾Ð¿Ð°": 4849,
  "Ð¾Ð¿Ð°Ð´": 22098,
  "Ð¾Ð¿Ð°ÑĢ": 17520,
  "Ð¾Ð¿Ð°ÑĢÐº": 36062,
  "Ð¾Ð¿Ð°Ñģ": 2534,
  "Ð¾Ð¿Ð°ÑģÐ½Ð¾ÑģÑĤÐ¸": 27612,
  "Ð¾Ð¿Ð°ÑģÐ½Ð¾ÑģÑĤÑĮ": 38616,
  "Ð¾Ð¿Ð°ÑĤ": 30501,
  "Ð¾Ð¿Ðµ": 12284,
  "Ð¾Ð¿ÐµÑĢÐ°": 9913,
  "Ð¾Ð¿ÐµÑĢÐµ": 21844,
  "Ð¾Ð¿ÐµÑĢÐµÐ²Ð¾Ð·": 43151,
  "Ð¾Ð¿Ð¸": 6073,
  "Ð¾Ð¿Ð¸Ñģ": 9324,
  "Ð¾Ð¿Ð¸ÑģÐ¸": 14192,
  "Ð¾Ð¿Ð¸ÑģÑĮ": 16733,
  "Ð¾Ð¿Ð»Ð°": 7223,
  "Ð¾Ð¿Ð»Ð°Ð½ÐµÑĤ": 19991,
  "Ð¾Ð¿Ð»Ð°ÑĤÐµÐ»ÑĮ": 27443,
  "Ð¾Ð¿Ð»Ð¾": 36096,
  "Ð¾Ð¿Ð¾": 10328,
  "Ð¾Ð¿Ð¾Ð²": 41914,
  "Ð¾Ð¿Ð¾Ð´": 11863,
  "Ð¾Ð¿Ð¾Ð´Ð¾Ð±": 25094,
  "Ð¾Ð¿Ð¾Ð´ÑĬÐµÐ¼": 38371,
  "Ð¾Ð¿Ð¾Ð»": 1684,
  "Ð¾Ð¿Ð¾Ð»Ð°Ð³Ð°": 42019,
  "Ð¾Ð¿Ð¾Ð»Ðµ": 26432,
  "Ð¾Ð¿Ð¾Ð»Ð¸": 23036,
  "Ð¾Ð¿Ð¾Ð»Ð¾Ð¶": 7013,
  "Ð¾Ð¿Ð¾Ð»ÑĥÑĩ": 34650,
  "Ð¾Ð¿Ð¾Ð»ÑĮ": 10243,
  "Ð¾Ð¿Ð¾Ð»ÑĮÐ·": 46383,
  "Ð¾Ð¿Ð¾Ð»Ñı": 21058,
  "Ð¾Ð¿Ð¾Ð¼": 30301,
  "Ð¾Ð¿Ð¾ÑĢ": 45927,
  "Ð¾Ð¿Ð¾ÑģÑĤÐ°Ð²": 20627,
  "Ð¾Ð¿ÑĢ": 27189,
  "Ð¾Ð¿ÑĢÐ°Ð²": 36215,
  "Ð¾Ð¿ÑĢÐµ": 43384,
  "Ð¾Ð¿ÑĢÐµÐ´ÐµÐ»": 25826,
  "Ð¾Ð¿ÑĢÐµÐºÐ¸": 47048,
  "Ð¾Ð¿ÑĢÐ¸": 5504,
  "Ð¾Ð¿ÑĢÐ¸Ð¼ÐµÑĩÐ°": 15161,
  "Ð¾Ð¿ÑĢÐ¸Ñı": 3693,
  "Ð¾Ð¿ÑĢÐ¸ÑıÑĤ": 10354,
  "Ð¾Ð¿ÑĢÐ¾": 6268,
  "Ð¾Ð¿ÑĢÐ¾Ð²": 15724,
  "Ð¾Ð¿ÑĢÐ¾Ð²Ð¾Ð´": 14288,
  "Ð¾Ð¿ÑĢÐ¾Ð²Ð¾Ð´Ð°": 27595,
  "Ð¾Ð¿ÑĢÐ¾Ð¸Ð·Ð²Ð¾Ð´": 22711,
  "Ð¾Ð¿ÑĢÐ¾Ð»Ð¸ÑĤ": 45269,
  "Ð¾Ð¿ÑĢÐ¾Ñģ": 4890,
  "Ð¾Ð¿ÑĢÐ¾ÑĨÐµÐ½ÑĤ": 41565,
  "Ð¾Ð¿Ñĥ": 9485,
  "Ð¾Ð¿ÑĥÑĤ": 29908,
  "Ð¾Ð¿Ñĭ": 22665,
  "Ð¾Ð¿ÑĭÑĤ": 5270,
  "Ð¾ÐĲ": 38521,
  "Ð¾ÐĲÐŁ": 46220,
  "Ð¾ÐĴ": 45411,
  "Ð¾ÑĢ": 354,
  "Ð¾ÑĢÐ°": 2767,
  "Ð¾ÑĢÐ°Ð´": 17590,
  "Ð¾ÑĢÐ°Ð¼Ð¸": 36206,
  "Ð¾ÑĢÐ°Ð½": 40501,
  "Ð¾ÑĢÐ°Ð½Ð¶Ðµ": 48021,
  "Ð¾ÑĢÐ³": 8035,
  "Ð¾ÑĢÐ³Ð°Ð½Ð¸": 11267,
  "Ð¾ÑĢÐ´": 7532,
  "Ð¾ÑĢÐ´Ð¸": 32822,
  "Ð¾ÑĢÐ´Ð¸Ð½Ð°": 8820,
  "Ð¾ÑĢÐ´Ð¸Ð½Ð¸": 45695,
  "Ð¾ÑĢÐµ": 4817,
  "Ð¾ÑĢÐµÐ½": 13411,
  "Ð¾ÑĢÐ¸": 2652,
  "Ð¾ÑĢÐ¸ÐµÐ½ÑĤÐ¸": 32909,
  "Ð¾ÑĢÐ¸Ñģ": 26697,
  "Ð¾ÑĢÐ¸ÑĤ": 8389,
  "Ð¾ÑĢÐ¸ÑĤÑĮ": 29781,
  "Ð¾ÑĢÐ¸Ñı": 32873,
  "Ð¾ÑĢÐº": 27912,
  "Ð¾ÑĢÐ¼": 13478,
  "Ð¾ÑĢÐ¼Ð¾ÑĤ": 12715,
  "Ð¾ÑĢÐ½ÑĭÐµ": 43271,
  "Ð¾ÑĢÐ½ÑĭÑħ": 41654,
  "Ð¾ÑĢÐ¾": 768,
  "Ð¾ÑĢÐ¾Ð²": 4244,
  "Ð¾ÑĢÐ¾Ð²Ð°": 33085,
  "Ð¾ÑĢÐ¾Ð´": 3770,
  "Ð¾ÑĢÐ¾Ð´Ð°": 13818,
  "Ð¾ÑĢÐ¾Ð¶": 3370,
  "Ð¾ÑĢÐ¾Ð¶Ð½Ð¾": 7870,
  "Ð¾ÑĢÐ¾Ð·": 19687,
  "Ð¾ÑĢÐ¾Ð¼": 5866,
  "Ð¾ÑĢÐ¾Ð½": 30233,
  "Ð¾ÑĢÐ¾ÑĤ": 35930,
  "Ð¾ÑĢÐ¾ÑĤÑĮ": 39562,
  "Ð¾ÑĢÐ¾ÑĤÑĮÑģÑı": 10202,
  "Ð¾ÑĢÐ¾Ñħ": 30572,
  "Ð¾ÑĢÐ¾ÑĪ": 1069,
  "Ð¾ÑĢÐ¾ÑĪÐµÐ½ÐºÐ¾": 14079,
  "Ð¾ÑĢÐ¾ÑĪÐ¾": 4811,
  "Ð¾ÑĢÑĤ": 1797,
  "Ð¾ÑĢÑĤÐ°": 4284,
  "Ð¾ÑĢÑĤÐ¸": 5579,
  "Ð¾ÑĢÑĤÑĥ": 10985,
  "Ð¾ÑĢÑĥ": 3439,
  "Ð¾ÑĢÑĥÐ±": 38814,
  "Ð¾ÑĢÑĥÐ¶": 3377,
  "Ð¾ÑĢÑĥÐ¶Ð¸": 46288,
  "Ð¾ÑĢÑĦ": 31196,
  "Ð¾ÑĢÑĭ": 4671,
  "Ð¾ÑĢÑı": 3187,
  "Ð¾ÑĢÑıÐ´": 6463,
  "Ð¾ÑĢÑıÐ´ÐºÐ°": 32522,
  "Ð¾ÑĢÑıÐ´Ð¾Ðº": 21154,
  "Ð¾ÑĢÑıÐ´Ð¾Ñĩ": 39095,
  "Ð¾Ñģ": 403,
  "Ð¾ÑģÐ°": 7975,
  "Ð¾ÑģÐ°Ð±": 49658,
  "Ð¾ÑģÐ²Ñı": 20204,
  "Ð¾ÑģÐ²ÑıÑī": 42202,
  "Ð¾ÑģÐµ": 20607,
  "Ð¾ÑģÐµÐºÑģÑĥ": 25962,
  "Ð¾ÑģÐµÑĢ": 17884,
  "Ð¾ÑģÐ¸": 5333,
  "Ð¾ÑģÐ¸Ð±Ð¸ÑĢ": 10179,
  "Ð¾ÑģÐ¸ÐºÐ¾Ð¼": 43720,
  "Ð¾ÑģÐ¸Ð¿": 10610,
  "Ð¾ÑģÐ¸Ð¿Ðµ": 35621,
  "Ð¾ÑģÐ¸ÑģÑĤ": 37109,
  "Ð¾ÑģÐº": 1234,
  "Ð¾ÑģÐºÐ¸": 19916,
  "Ð¾ÑģÐºÐ¾Ð»ÑĮÐºÑĥ": 28974,
  "Ð¾ÑģÐºÐ¾Ð¼": 21418,
  "Ð¾ÑģÐºÑĢÐµÑģ": 20981,
  "Ð¾ÑģÐ»Ð°": 17037,
  "Ð¾ÑģÐ»Ð°Ð²": 5984,
  "Ð¾ÑģÐ»ÐµÐ´": 30752,
  "Ð¾ÑģÐ»Ð¾Ð²": 17355,
  "Ð¾ÑģÐ½Ð°Ð±": 15485,
  "Ð¾ÑģÐ½Ð°Ð±Ð¶ÐµÐ½Ð¸Ðµ": 46768,
  "Ð¾ÑģÐ½Ð°Ð±Ð¶ÐµÐ½Ð¸Ñı": 22180,
  "Ð¾ÑģÐ½Ð¾Ð²": 7120,
  "Ð¾ÑģÐ½Ð¾Ð²Ð°": 38319,
  "Ð¾ÑģÐ¾Ð±": 1254,
  "Ð¾ÑģÐ¾Ð±ÐµÐ½Ð½Ð¾": 25340,
  "Ð¾ÑģÐ¾Ð±Ñĭ": 11663,
  "Ð¾ÑģÐ¾Ð²": 32393,
  "Ð¾ÑģÐ¾Ð¼": 31681,
  "Ð¾ÑģÐ¾ÑĦ": 21119,
  "Ð¾ÑģÐ¾ÑĩÐµÑĤÐ°": 25223,
  "Ð¾ÑģÐ¿": 8382,
  "Ð¾ÑģÐ¿Ð°Ð»": 40582,
  "Ð¾ÑģÐ¿Ð¾ÑģÐ¾Ð±": 29262,
  "Ð¾ÑģÑģ": 12461,
  "Ð¾ÑģÑģÐµ": 11849,
  "Ð¾ÑģÑģÐ¸": 909,
  "Ð¾ÑģÑģÐ¸Ð¹": 10170,
  "Ð¾ÑģÑĤ": 4911,
  "Ð¾ÑģÑĤÐ°": 13471,
  "Ð¾ÑģÑĤÐ°Ð²": 17826,
  "Ð¾ÑģÑĤÐ°Ð½Ð¾Ð²": 16376,
  "Ð¾ÑģÑĤÐ¸": 3550,
  "Ð¾ÑģÑĤÐ¾ÑĢÐ¾Ð¶": 30359,
  "Ð¾ÑģÑĤÑĥÐ¿": 37815,
  "Ð¾ÑģÑĤÑĮ": 5449,
  "Ð¾ÑģÑĤÑĮÑİ": 42529,
  "Ð¾ÑģÑĥÐ´": 24407,
  "Ð¾ÑģÑĭ": 14810,
  "Ð¾ÑĤ": 355,
  "Ð¾ÑĤÐ°": 2075,
  "Ð¾ÑĤÐ°Ð»": 45366,
  "Ð¾ÑĤÐ°Ð¼Ð¸": 32654,
  "Ð¾ÑĤÐ²ÐµÑĤ": 1742,
  "Ð¾ÑĤÐ²Ð¾ÑĢ": 11477,
  "Ð¾ÑĤÐ²Ð¾ÑĢÐ¸": 12844,
  "Ð¾ÑĤÐ²ÑĢÐ°": 9571,
  "Ð¾ÑĤÐ´ÐµÐ»": 32264,
  "Ð¾ÑĤÐµ": 2881,
  "Ð¾ÑĤÐµÐºÐ°": 26308,
  "Ð¾ÑĤÐµÑĢÐ°": 12523,
  "Ð¾ÑĤÐµÑĢÐ°Ð¿Ð¸Ð¸": 41746,
  "Ð¾ÑĤÐµÑĢÐ°Ð¿Ð¸Ñı": 45323,
  "Ð¾ÑĤÐµÑĢÐ¸": 32369,
  "Ð¾ÑĤÐµÑħ": 16464,
  "Ð¾ÑĤÐµÑħÐ½": 23083,
  "Ð¾ÑĤÐµÑĩÐµÑģÑĤÐ²ÐµÐ½": 20882,
  "Ð¾ÑĤÐ¸": 7184,
  "Ð¾ÑĤÐºÐ°": 29247,
  "Ð¾ÑĤÐºÑĢÑĭ": 12626,
  "Ð¾ÑĤÐºÑĥÐ´Ð°": 37241,
  "Ð¾ÑĤÐ»Ð°Ð½Ð´": 29854,
  "Ð¾ÑĤÐ½Ð¾": 5260,
  "Ð¾ÑĤÐ¾": 1989,
  "Ð¾ÑĤÐ¾Ð²": 1051,
  "Ð¾ÑĤÐ¾Ð³ÑĢÐ°ÑĦÐ¸": 22123,
  "Ð¾ÑĤÐ¾Ð¹": 8746,
  "Ð¾ÑĤÐ¾Ðº": 17378,
  "Ð¾ÑĤÐ¾Ð¼": 14869,
  "Ð¾ÑĤÐ¾Ð¿": 32846,
  "Ð¾ÑĤÐ¾Ñĩ": 21041,
  "Ð¾ÑĤÑĢÐµÐ±": 4593,
  "Ð¾ÑĤÑĢÐ¾Ð¿": 42106,
  "Ð¾ÑĤÑĥ": 5231,
  "Ð¾ÑĤÑĭ": 2936,
  "Ð¾ÑĤÑı": 11115,
  "Ð¾Ñĥ": 5532,
  "Ð¾ÑĦ": 3964,
  "Ð¾ÑĦÐ°": 44928,
  "Ð¾ÑĦÐ¸": 8410,
  "Ð¾ÑĦÐ¸Ð·": 44784,
  "Ð¾ÑĦÐ¸ÑĨÐ¸Ð°Ð»ÑĮ": 24056,
  "Ð¾ÑĦÑĦ": 32119,
  "Ð¾Ñħ": 5556,
  "Ð¾ÑħÐ¸Ð¼Ð¸": 34553,
  "Ð¾ÑħÐ¾Ð·ÑıÐ¹": 31441,
  "Ð¾ÑħÐ¾ÑĤ": 40733,
  "Ð¾ÑħÑĢÐ°": 11552,
  "Ð¾ÑħÑĢÐ°Ð½": 9773,
  "Ð¾ÑĨÐµÐ½": 19494,
  "Ð¾ÑĨÐµÐ½Ð¸": 25586,
  "Ð¾Ñĩ": 644,
  "Ð¾ÑĩÐ°": 30417,
  "Ð¾ÑĩÐ°Ð¹": 19389,
  "Ð¾ÑĩÐµÐº": 11760,
  "Ð¾ÑĩÐµÐ¼Ñĥ": 2070,
  "Ð¾ÑĩÐµÐ½ÑĮ": 13456,
  "Ð¾ÑĩÐµÑĢ": 39138,
  "Ð¾ÑĩÐµÑĢÐµÐ´": 21332,
  "Ð¾ÑĩÐµÑĢÐµÐ´Ð½Ð¾": 48890,
  "Ð¾ÑĩÐµÑĤ": 11803,
  "Ð¾ÑĩÐµÑĤÐ°": 19420,
  "Ð¾ÑĩÐµÑĤÑģÑı": 14481,
  "Ð¾ÑĩÐ¸": 22155,
  "Ð¾ÑĩÐ¸Ð»": 10460,
  "Ð¾ÑĩÐ¸Ð½": 39629,
  "Ð¾ÑĩÐºÐ°": 5649,
  "Ð¾ÑĩÐºÐ°Ð¼": 43625,
  "Ð¾ÑĩÐºÐ°Ð¼Ð¸": 18221,
  "Ð¾ÑĩÐºÐ°Ñħ": 36112,
  "Ð¾ÑĩÐºÐµ": 12205,
  "Ð¾ÑĩÐºÐ¸": 4872,
  "Ð¾ÑĩÐºÐ¾Ð²": 35499,
  "Ð¾ÑĩÐºÐ¾Ð¹": 15560,
  "Ð¾ÑĩÐºÐ¾Ð¼": 36268,
  "Ð¾ÑĩÐºÑĥ": 7006,
  "Ð¾ÑĩÐ½Ð°Ñı": 12481,
  "Ð¾ÑĩÐ½Ð¾": 6412,
  "Ð¾ÑĩÐ½Ð¾Ð³Ð¾": 11964,
  "Ð¾ÑĩÐ½Ð¾Ðµ": 16746,
  "Ð¾ÑĩÐ½Ð¾Ð¹": 8385,
  "Ð¾ÑĩÐ½Ð¾Ð¼": 31364,
  "Ð¾ÑĩÐ½ÑĥÑİ": 19244,
  "Ð¾ÑĩÐ½ÑĭÐµ": 7753,
  "Ð¾ÑĩÐ½ÑĭÐ¹": 8862,
  "Ð¾ÑĩÐ½ÑĭÐ¼": 18312,
  "Ð¾ÑĩÐ½ÑĭÐ¼Ð¸": 27886,
  "Ð¾ÑĩÐ½ÑĭÑħ": 7869,
  "Ð¾ÑĩÑĥ": 6800,
  "Ð¾ÑĩÑĥÐ²ÑģÑĤÐ²": 48737,
  "Ð¾ÑĩÑĮ": 3548,
  "Ð¾ÑĩÑĮÑİ": 21319,
  "Ð¾ÑĪ": 17760,
  "Ð¾Ñī": 10532,
  "Ð¾ÑīÑĮ": 30063,
  "Ð¾Ñİ": 9134,
  "Ð¾Ñı": 10211,
  "Ð¿": 295,
  "Ð¿Ð°": 574,
  "Ð¿Ð°Ð²": 46609,
  "Ð¿Ð°Ð´": 2230,
  "Ð¿Ð°Ð´Ð°": 8157,
  "Ð¿Ð°Ð´Ð°ÐµÑĤ": 13704,
  "Ð¿Ð°Ð´Ðµ": 15636,
  "Ð¿Ð°Ð´Ñĥ": 33566,
  "Ð¿Ð°ÐµÑĤ": 26700,
  "Ð¿Ð°Ð·": 10530,
  "Ð¿Ð°Ð¹": 29264,
  "Ð¿Ð°Ðº": 23918,
  "Ð¿Ð°Ð»": 14978,
  "Ð¿Ð°Ð»Ð°": 25693,
  "Ð¿Ð°Ð»Ð¸": 28347,
  "Ð¿Ð°Ð»Ð¾": 46860,
  "Ð¿Ð°Ð¼": 37344,
  "Ð¿Ð°Ð¼Ð¸": 11321,
  "Ð¿Ð°Ð½": 7141,
  "Ð¿Ð°Ð½Ð°": 25019,
  "Ð¿Ð°Ð½Ð¸Ð¸": 8585,
  "Ð¿Ð°Ð½Ð¸Ð¹": 36863,
  "Ð¿Ð°Ð½Ð¸Ñı": 5202,
  "Ð¿Ð°Ð½Ñĭ": 35513,
  "Ð¿Ð°ÑĢ": 4359,
  "Ð¿Ð°ÑĢÐ°": 3346,
  "Ð¿Ð°ÑĢÐ°ÑĤ": 6867,
  "Ð¿Ð°ÑĢÐ¸": 39280,
  "Ð¿Ð°ÑĢÐº": 46106,
  "Ð¿Ð°ÑĢÑĤ": 31134,
  "Ð¿Ð°ÑĢÑĤÐ°": 11441,
  "Ð¿Ð°ÑģÐ¸Ð±Ð¾": 4040,
  "Ð¿Ð°ÑĤ": 23769,
  "Ð¿Ð°ÑĤÐ¸": 36303,
  "Ð¿Ð°ÑĤÑĢÐ¸": 28379,
  "Ð¿Ð°ÑĤÑĢÐ¸Ð¾": 46137,
  "Ð¿Ð°ÑĤÑĮ": 14161,
  "Ð¿Ð°Ñħ": 9895,
  "Ð¿Ð°ÑİÑĤ": 35690,
  "Ð¿Ðµ": 1082,
  "Ð¿ÐµÐ²": 8147,
  "Ð¿ÐµÐ´Ð°Ð³Ð¾Ð³Ð¸": 41365,
  "Ð¿ÐµÐ»": 11466,
  "Ð¿ÐµÐ»Ð°": 19650,
  "Ð¿ÐµÐ»Ð¸": 49377,
  "Ð¿ÐµÐ»ÑĮ": 27417,
  "Ð¿ÐµÐ½": 11398,
  "Ð¿ÐµÐ½Ð´Ð¸": 31275,
  "Ð¿ÐµÑĢ": 966,
  "Ð¿ÐµÑĢÐ°": 2371,
  "Ð¿ÐµÑĢÐ°ÑĤÑĥÑĢÐ°": 29868,
  "Ð¿ÐµÑĢÐ²Ð°": 35073,
  "Ð¿ÐµÑĢÐ²ÑĭÐµ": 4194,
  "Ð¿ÐµÑĢÐ²ÑĭÐ¹": 42999,
  "Ð¿ÐµÑĢÐ²ÑĭÑħ": 7338,
  "Ð¿ÐµÑĢÐµ": 6693,
  "Ð¿ÐµÑĢÐµÐ´": 22532,
  "Ð¿ÐµÑĢÐµÐ´Ð¸": 24070,
  "Ð¿ÐµÑĢÐ¸": 33660,
  "Ð¿ÐµÑĢÑĭ": 49819,
  "Ð¿ÐµÑĢÑĮ": 1286,
  "Ð¿ÐµÑĢÑĳÐ´": 16109,
  "Ð¿ÐµÑģ": 35344,
  "Ð¿ÐµÑĤ": 5043,
  "Ð¿ÐµÑĤÐµÐ½ÑĤ": 46523,
  "Ð¿ÐµÑĨ": 17243,
  "Ð¿ÐµÑĩÐ°": 38506,
  "Ð¿ÐµÑĩÐ°ÑĤ": 7880,
  "Ð¿ÐµÑĩÐ°ÑĤÐºÐ°": 39000,
  "Ð¿Ð¸": 876,
  "Ð¿Ð¸Ð°": 13328,
  "Ð¿Ð¸Ð°Ð´Ð°": 47374,
  "Ð¿Ð¸Ð°Ð½Ð¾": 46334,
  "Ð¿Ð¸Ð²": 42421,
  "Ð¿Ð¸Ð¸": 11120,
  "Ð¿Ð¸Ð¹": 8805,
  "Ð¿Ð¸Ðº": 44087,
  "Ð¿Ð¸Ð»": 34688,
  "Ð¿Ð¸Ð»Ð°": 23949,
  "Ð¿Ð¸Ð»Ð°ÑģÑĮ": 28572,
  "Ð¿Ð¸Ð½": 15066,
  "Ð¿Ð¸Ð½Ð°": 22267,
  "Ð¿Ð¸Ð½Ð³": 41415,
  "Ð¿Ð¸Ð½Ñĭ": 38141,
  "Ð¿Ð¸Ð¾Ð½": 25505,
  "Ð¿Ð¸Ð¾Ð½Ð°": 17371,
  "Ð¿Ð¸ÑĢ": 46734,
  "Ð¿Ð¸ÑĢÐ°": 22300,
  "Ð¿Ð¸ÑĢÐ¸": 49251,
  "Ð¿Ð¸Ñģ": 2612,
  "Ð¿Ð¸ÑģÐ°": 8603,
  "Ð¿Ð¸ÑģÐ°Ð»": 27269,
  "Ð¿Ð¸ÑģÐ°Ð»Ð¸": 42131,
  "Ð¿Ð¸ÑģÐ°Ð½Ð¸Ðµ": 14523,
  "Ð¿Ð¸ÑģÐ°Ð½Ð¾": 44454,
  "Ð¿Ð¸ÑģÐ°ÑĤÑĮ": 18708,
  "Ð¿Ð¸ÑģÐ°ÑĤÑĮÑģÑı": 25654,
  "Ð¿Ð¸ÑģÐ¸": 12467,
  "Ð¿Ð¸ÑģÐºÐ°": 35864,
  "Ð¿Ð¸ÑģÐºÐ¸": 40740,
  "Ð¿Ð¸ÑģÐºÐ¾Ð¿": 12725,
  "Ð¿Ð¸ÑģÐºÐ¾Ð¿Ð°": 28611,
  "Ð¿Ð¸ÑģÐ¾Ðº": 18794,
  "Ð¿Ð¸ÑģÑĭ": 7832,
  "Ð¿Ð¸ÑģÑĮ": 7596,
  "Ð¿Ð¸ÑĤ": 1847,
  "Ð¿Ð¸ÑĤÐ°Ð½": 14514,
  "Ð¿Ð¸ÑĪ": 12014,
  "Ð¿Ð¸ÑĪÐ¸": 48505,
  "Ð¿Ð¸ÑĪÐ¸ÑĤÐµ": 20034,
  "Ð¿Ð¸ÑĪÐ¸ÑĤÐµÑģÑĮ": 33265,
  "Ð¿Ð¸Ñİ": 36861,
  "Ð¿Ð¸Ñı": 15685,
  "Ð¿ÐºÐ°": 38638,
  "Ð¿ÐºÐ¸": 19328,
  "Ð¿ÐºÑĥ": 34717,
  "Ð¿Ð»": 29117,
  "Ð¿Ð»Ð°": 2454,
  "Ð¿Ð»Ð°Ð½": 28483,
  "Ð¿Ð»Ð°Ð½Ð¸": 40024,
  "Ð¿Ð»Ð°ÑĤÐ°": 20060,
  "Ð¿Ð»Ðµ": 25226,
  "Ð¿Ð»ÐµÐ½": 46197,
  "Ð¿Ð»Ð¸": 10125,
  "Ð¿Ð»Ð¸ÐºÐ°": 30219,
  "Ð¿Ð»Ð¾": 10968,
  "Ð¿Ð»Ð¾Ð¼": 6297,
  "Ð¿Ð»Ð¾Ñħ": 44068,
  "Ð¿Ð»Ð¾ÑħÐ¾": 36892,
  "Ð¿Ð»Ð¾ÑīÐ°Ð´": 45156,
  "Ð¿Ð»Ñı": 13280,
  "Ð¿Ð»ÑıÑĢ": 36753,
  "Ð¿Ð½Ð¾": 47821,
  "Ð¿Ð¾": 1388,
  "Ð¿Ð¾Ð²": 4308,
  "Ð¿Ð¾Ð²Ð°": 26683,
  "Ð¿Ð¾Ð²ÐµÐ´": 39681,
  "Ð¿Ð¾Ð³": 32272,
  "Ð¿Ð¾Ð´": 1719,
  "Ð¿Ð¾Ð´Ð°": 4297,
  "Ð¿Ð¾Ð´Ð³Ð¾ÑĤÐ¾Ð²": 34358,
  "Ð¿Ð¾Ð´Ð¾Ð±": 32788,
  "Ð¿Ð¾Ð´ÑģÐºÐ°Ð¶Ð¸ÑĤÐµ": 28444,
  "Ð¿Ð¾Ð·": 20433,
  "Ð¿Ð¾Ð·Ð¸": 7693,
  "Ð¿Ð¾Ð¹": 14905,
  "Ð¿Ð¾Ðº": 15502,
  "Ð¿Ð¾ÐºÐ°": 19094,
  "Ð¿Ð¾Ð»": 953,
  "Ð¿Ð¾Ð»Ð¸": 21454,
  "Ð¿Ð¾Ð»Ð¸Ñģ": 49523,
  "Ð¿Ð¾Ð»Ð¸ÑĤ": 27376,
  "Ð¿Ð¾Ð»Ð¸ÑĤÐ¸ÑĩÐµÑģÐº": 14862,
  "Ð¿Ð¾Ð»Ð½Ðµ": 3125,
  "Ð¿Ð¾Ð»Ð½Ð¾Ð¼Ð¾Ñĩ": 16268,
  "Ð¿Ð¾Ð»Ð¾Ð¶": 34347,
  "Ð¿Ð¾Ð»ÑĮ": 40555,
  "Ð¿Ð¾Ð»ÑĮÐ·": 37602,
  "Ð¿Ð¾Ð¼": 3687,
  "Ð¿Ð¾Ð¼Ð¾Ð³Ð¸ÑĤÐµ": 24443,
  "Ð¿Ð¾Ð½": 4249,
  "Ð¿Ð¾Ð½ÑıÑĤÐ½Ð¾": 40154,
  "Ð¿Ð¾Ð¿": 16605,
  "Ð¿Ð¾ÑĢ": 12952,
  "Ð¿Ð¾ÑĢÐ°": 5807,
  "Ð¿Ð¾ÑĢÐ¸": 37215,
  "Ð¿Ð¾ÑĢÑĤ": 18033,
  "Ð¿Ð¾ÑĢÑĤÐ°": 49069,
  "Ð¿Ð¾ÑĢÑĥ": 35632,
  "Ð¿Ð¾Ñģ": 5208,
  "Ð¿Ð¾ÑģÐ»Ðµ": 21017,
  "Ð¿Ð¾ÑģÐ»ÐµÐ´": 19608,
  "Ð¿Ð¾ÑģÐ»ÐµÐ´ÑģÑĤÐ²Ð¸Ð¸": 25538,
  "Ð¿Ð¾ÑģÑĢÐµÐ´": 39938,
  "Ð¿Ð¾ÑģÑĤ": 12354,
  "Ð¿Ð¾ÑģÑĤÐ°": 35049,
  "Ð¿Ð¾ÑģÑĤÐ¾Ð»": 32519,
  "Ð¿Ð¾ÑĤ": 6282,
  "Ð¿Ð¾ÑĤÐ¾Ð¼": 15356,
  "Ð¿Ð¾ÑĤÐ¾Ð¼Ñĥ": 23414,
  "Ð¿Ð¾Ñĩ": 3379,
  "Ð¿Ð¾ÑĩÐµÐ¼Ñĥ": 12447,
  "Ð¿Ð¾ÑĩÐºÐ°": 23563,
  "Ð¿Ð¾ÑĩÐºÐ°Ñħ": 47771,
  "Ð¿Ð¾ÑĩÐºÐ¸": 20268,
  "Ð¿Ð¾ÑĩÐºÑĥ": 35666,
  "Ð¿Ð¾ÑĩÑĤÐ¸": 41725,
  "Ð¿Ð¿": 10543,
  "Ð¿ÑĢ": 29032,
  "Ð¿ÑĢÐ°": 42753,
  "Ð¿ÑĢÐ°Ð²": 1691,
  "Ð¿ÑĢÐ°Ð²Ð´Ð°": 26972,
  "Ð¿ÑĢÐ°Ð²Ð¸Ð»ÑĮÐ½Ð¾": 47802,
  "Ð¿ÑĢÐ°Ð²Ð¸ÑĤÑĮ": 34818,
  "Ð¿ÑĢÐ°Ð²Ð»ÐµÐ½Ð¸Ðµ": 28854,
  "Ð¿ÑĢÐ°Ð²Ð¾": 46284,
  "Ð¿ÑĢÐ°Ð·Ð´": 44668,
  "Ð¿ÑĢÐ°Ðº": 22395,
  "Ð¿ÑĢÐµ": 4075,
  "Ð¿ÑĢÐµÐ´": 8324,
  "Ð¿ÑĢÐµÐ´Ð¿ÑĢÐ¸": 47179,
  "Ð¿ÑĢÐµÐ´ÑģÑĤÐ°Ð²": 43091,
  "Ð¿ÑĢÐµÐ¶Ð½ÐµÐ¼Ñĥ": 7804,
  "Ð¿ÑĢÐµÐ·Ð¸Ð´ÐµÐ½ÑĤ": 28166,
  "Ð¿ÑĢÐµÐ»ÑĮ": 44439,
  "Ð¿ÑĢÐµÐ¼ÑĮÐµÑĢ": 34538,
  "Ð¿ÑĢÐµÑĤÐ°": 25128,
  "Ð¿ÑĢÐ¸": 976,
  "Ð¿ÑĢÐ¸Ð²ÐµÑĤ": 35566,
  "Ð¿ÑĢÐ¸Ð·": 11787,
  "Ð¿ÑĢÐ¸Ð¸Ð¼": 21348,
  "Ð¿ÑĢÐ¸Ð¼ÐµÑĢ": 3593,
  "Ð¿ÑĢÐ¸Ð¼ÐµÑĢÐ½Ð¾": 45733,
  "Ð¿ÑĢÐ¸Ð½": 29512,
  "Ð¿ÑĢÐ¸Ð¿": 20168,
  "Ð¿ÑĢÐ¸ÑıÑĤ": 35501,
  "Ð¿ÑĢÐ¾": 1908,
  "Ð¿ÑĢÐ¾Ð±": 39335,
  "Ð¿ÑĢÐ¾Ð±Ð»ÐµÐ¼": 46869,
  "Ð¿ÑĢÐ¾Ð²": 23608,
  "Ð¿ÑĢÐ¾Ð²Ð¾Ð´": 36097,
  "Ð¿ÑĢÐ¾Ð³ÑĢÐ°Ð¼": 25412,
  "Ð¿ÑĢÐ¾Ð´": 32764,
  "Ð¿ÑĢÐ¾Ð´Ð°": 18334,
  "Ð¿ÑĢÐ¾Ð´Ð°Ð¶Ð¸": 33610,
  "Ð¿ÑĢÐ¾Ð´Ð¾Ð»Ð¶": 41824,
  "Ð¿ÑĢÐ¾Ð´ÑĥÐº": 39490,
  "Ð¿ÑĢÐ¾ÐµÐº": 31217,
  "Ð¿ÑĢÐ¾ÐµÐºÑĤ": 33663,
  "Ð¿ÑĢÐ¾Ð¸Ð·Ð²Ð¾Ð´": 19141,
  "Ð¿ÑĢÐ¾Ðº": 21258,
  "Ð¿ÑĢÐ¾Ð¼": 9006,
  "Ð¿ÑĢÐ¾Ð¼ÑĭÑĪÐ»ÐµÐ½": 30020,
  "Ð¿ÑĢÐ¾Ð½Ð¸ÑĨÐ°": 48428,
  "Ð¿ÑĢÐ¾Ð¿": 22345,
  "Ð¿ÑĢÐ¾Ñģ": 27550,
  "Ð¿ÑĢÐ¾ÑģÑĤÐ¾": 17504,
  "Ð¿ÑĢÐ¾ÑģÑĤÑĢÐ°Ð½": 42205,
  "Ð¿ÑĢÐ¾ÑĤÐ¸Ð²": 16876,
  "Ð¿ÑĢÐ¾ÑĦÐµÑģÑģÐ¸Ð¾Ð½": 42527,
  "Ð¿ÑĢÐ¾ÑĨÐµÑģ": 30840,
  "Ð¿ÑĢÐ¾ÑĩÐµÐ¼": 4170,
  "Ð¿ÑĢÐ¾ÑĪ": 48391,
  "Ð¿ÑĢÑı": 24888,
  "Ð¿Ñģ": 21773,
  "Ð¿ÑģÐ¸Ñħ": 20430,
  "Ð¿ÑĤ": 33386,
  "Ð¿ÑĤÐ¸": 20824,
  "Ð¿ÑĤÐ¾Ð¼": 9067,
  "Ð¿Ñĥ": 962,
  "Ð¿ÑĥÐ»ÑĮ": 32880,
  "Ð¿ÑĥÐ½Ðº": 29723,
  "Ð¿ÑĥÑĢ": 23489,
  "Ð¿ÑĥÑģ": 7819,
  "Ð¿ÑĥÑģÐº": 14189,
  "Ð¿ÑĥÑģÐºÐ°": 42505,
  "Ð¿ÑĥÑģÑĤÐ¸": 40729,
  "Ð¿ÑĥÑģÑĤÑĮ": 38978,
  "Ð¿ÑĥÑģÑĤÑı": 16447,
  "Ð¿ÑĥÑĤÐ°": 3730,
  "Ð¿ÑĥÑĤÐ¸": 40167,
  "Ð¿Ñĭ": 1934,
  "Ð¿ÑĭÐ²Ð°ÑĤÑĮ": 48031,
  "Ð¿ÑıÑĤ": 6454,
  "Ð¿ÑıÑĤÐ¸": 35533,
  "Ð¿ÑıÑĤÑĮ": 27247,
  "Ðģ": 12631,
  "Ðħ": 48414,
  "ÐĨ": 33503,
  "ÐĲ": 552,
  "ÐĲÐ¡": 9355,
  "ÐĲÐ¡Ðĺ": 47514,
  "ÐĲÐ±": 28130,
  "ÐĲÐ²": 8751,
  "ÐĲÐ²Ð¸": 49784,
  "ÐĲÐ²ÑĤ": 47703,
  "ÐĲÐ²ÑĤÐ¾": 43523,
  "ÐĲÐ²ÑĤÐ¾Ð¼": 37371,
  "ÐĲÐ²ÑĤÐ¾ÑĢ": 24810,
  "ÐĲÐ³": 41071,
  "ÐĲÐ³Ð°": 17608,
  "ÐĲÐ´": 17273,
  "ÐĲÐ·": 41856,
  "ÐĲÐ¹": 19867,
  "ÐĲÐº": 13662,
  "ÐĲÐ»": 15073,
  "ÐĲÐ»ÐµÐºÑģ": 12677,
  "ÐĲÐ»ÐµÐºÑģÐ°Ð½Ð´ÑĢ": 21938,
  "ÐĲÐ»ÐµÐºÑģÐµÐ¹": 35367,
  "ÐĲÐ»Ð¸": 32170,
  "ÐĲÐ»ÑĮ": 13672,
  "ÐĲÐ¼": 36353,
  "ÐĲÐ¼ÐµÑĢÐ¸ÐºÐ°Ð½": 30785,
  "ÐĲÐ½": 6864,
  "ÐĲÐ½Ð°": 45496,
  "ÐĲÐ½Ð³": 36156,
  "ÐĲÐ½Ð´": 18795,
  "ÐĲÐ½Ð´Ð¶": 28442,
  "ÐĲÐ½Ð´Ð¶ÐµÐ»Ðµ": 41928,
  "ÐĲÐ½Ð´ÑĢÐµÐ¹": 27054,
  "ÐĲÐ½Ð½Ð°": 33855,
  "ÐĲÐ½ÑĤÐ¸": 47418,
  "ÐĲÐĲ": 10953,
  "ÐĲÐĲÐĲÐĲ": 25178,
  "ÐĲÐĹ": 14123,
  "ÐĲÐĿ": 33582,
  "ÐĲÐŀ": 5564,
  "ÐĲÐł": 14007,
  "ÐĲÑĢ": 7268,
  "ÐĲÑĢÑħ": 32195,
  "ÐĲÑģ": 47672,
  "ÐĲÑĤ": 31781,
  "ÐĲÑħ": 15137,
  "ÐĲÑį": 34111,
  "Ðĳ": 908,
  "ÐĳÐ£": 12076,
  "ÐĳÐ«": 35031,
  "ÐĳÐ¯": 46045,
  "ÐĳÐ°": 15219,
  "ÐĳÐ°Ð±": 32734,
  "ÐĳÐ°Ð¹": 42306,
  "ÐĳÐ°Ð»": 26674,
  "ÐĳÐ°Ð½Ðº": 43398,
  "ÐĳÐ°ÑĢ": 20055,
  "ÐĳÐµ": 26140,
  "ÐĳÐµÐ´": 40094,
  "ÐĳÐµÐ·": 11524,
  "ÐĳÐµÐ»": 13405,
  "ÐĳÐµÐ»ÑĭÐ¹": 48853,
  "ÐĳÐµÐ½": 43654,
  "ÐĳÐµÑĢ": 31267,
  "ÐĳÐµÑĢÐµ": 45240,
  "ÐĳÐµÑģ": 43457,
  "ÐĳÐµÑģÐ¿": 35354,
  "ÐĳÐ¸": 26634,
  "ÐĳÐ¸Ð·Ð½ÐµÑģ": 43937,
  "ÐĳÐ¸ÑĤ": 38739,
  "ÐĳÐ»Ð°": 34603,
  "ÐĳÐ»Ð°Ð³Ð¾Ð´Ð°ÑĢ": 25854,
  "ÐĳÐ»Ð°Ð³Ð¾Ð´Ð°ÑĢÑİ": 43081,
  "ÐĳÐ»Ð°Ð³Ð¾Ð´Ð°ÑĢÑı": 50181,
  "ÐĳÐ»Ð¸Ð½": 48701,
  "ÐĳÐ¾": 19050,
  "ÐĳÐ¾Ð³": 19381,
  "ÐĳÐ¾Ð¶Ðµ": 30035,
  "ÐĳÐ¾Ð»": 43215,
  "ÐĳÐ¾Ð»ÐµÐµ": 31371,
  "ÐĳÐ¾Ð»ÑĮÑĪ": 13643,
  "ÐĳÐ¾Ð»ÑĮÑĪÐ°Ñı": 42445,
  "ÐĳÐ¾Ð»ÑĮÑĪÐµ": 25142,
  "ÐĳÐ¾Ð»ÑĮÑĪÐ¸Ð½ÑģÑĤÐ²Ð¾": 47188,
  "ÐĳÐ¾Ð»ÑĮÑĪÐ¾Ð¹": 35292,
  "ÐĳÐ¾ÑĢ": 37983,
  "ÐĳÐ¾ÑĢÐ¸Ñģ": 47571,
  "ÐĳÐ¾ÑİÑģÑĮ": 46518,
  "ÐĳÐĲ": 16199,
  "ÐĳÐĶÐĶ": 20353,
  "ÐĳÐķ": 24572,
  "ÐĳÐĺ": 18612,
  "ÐĳÐļ": 42637,
  "ÐĳÐŀ": 8963,
  "ÐĳÐŀÐ£": 35823,
  "ÐĳÐł": 19588,
  "ÐĳÑĢÐ°ÑĤ": 45078,
  "ÐĳÑĥ": 30646,
  "ÐĳÑĥÐ´": 11636,
  "ÐĳÑĥÐ´ÐµÑĤ": 29001,
  "ÐĳÑĥÐ´ÑĮ": 30407,
  "ÐĳÑĥÐº": 45091,
  "ÐĳÑĥÑĢ": 50164,
  "ÐĳÑĭ": 8059,
  "ÐĳÑĭÐ²Ð°ÐµÑĤ": 45448,
  "ÐĳÑĭÐ»": 28900,
  "ÐĳÑĭÐ»Ð°": 42916,
  "ÐĳÑĭÐ»Ð¸": 50255,
  "ÐĳÑĭÐ»Ð¾": 23746,
  "ÐĳÑĭÑĤÑĮ": 40686,
  "ÐĴ": 559,
  "ÐĴÐ¡": 9656,
  "ÐĴÐ¢Ðŀ": 36148,
  "ÐĴÐ£": 27769,
  "ÐĴÐ¤": 29463,
  "ÐĴÐ«": 16993,
  "ÐĴÐ«ÐĻ": 48412,
  "ÐĴÐ°": 9856,
  "ÐĴÐ°Ð»": 40780,
  "ÐĴÐ°Ð¼": 12731,
  "ÐĴÐ°ÑĢ": 39352,
  "ÐĴÐ°Ñģ": 24949,
  "ÐĴÐ°ÑģÐ¸Ð»Ð¸": 49596,
  "ÐĴÐ°ÑĪ": 21251,
  "ÐĴÐ°ÑĪÐ°": 38192,
  "ÐĴÐ°ÑĪÐµ": 31701,
  "ÐĴÐ°ÑĪÐ¸": 44896,
  "ÐĴÐ´ÑĢÑĥÐ³": 33672,
  "ÐĴÐµ": 10351,
  "ÐĴÐµÐ´": 46395,
  "ÐĴÐµÐ´ÑĮ": 22261,
  "ÐĴÐµÐ»Ð¸": 17055,
  "ÐĴÐµÑĢ": 12753,
  "ÐĴÐµÑĢÐ°": 47318,
  "ÐĴÐµÑĢÐ½Ð¾": 43936,
  "ÐĴÐµÑģ": 19458,
  "ÐĴÐµÑģÑĮ": 29767,
  "ÐĴÐµÑĤ": 37073,
  "ÐĴÐµÑĩÐµÑĢ": 38750,
  "ÐĴÐµÑĩÐµÑĢÐ¾Ð¼": 38631,
  "ÐĴÐ·": 16722,
  "ÐĴÐ¸": 12340,
  "ÐĴÐ¸Ð´": 16253,
  "ÐĴÐ¸Ð´ÐµÐ¾": 47210,
  "ÐĴÐ¸Ð´Ð¸Ð¼Ð¾": 39458,
  "ÐĴÐ¸Ðº": 26595,
  "ÐĴÐ¸ÐºÑĤÐ¾ÑĢ": 44134,
  "ÐĴÐ¸Ð½": 34013,
  "ÐĴÐ¸ÑĤ": 45677,
  "ÐĴÐ»Ð°": 41595,
  "ÐĴÐ»Ð°Ð´Ð¸": 20907,
  "ÐĴÐ»Ð°Ð´Ð¸Ð¼Ð¸ÑĢ": 26574,
  "ÐĴÐ¼Ðµ": 24726,
  "ÐĴÐ¼ÐµÑģÑĤÐµ": 42373,
  "ÐĴÐ¼ÐµÑģÑĤÐ¾": 41823,
  "ÐĴÐ½ÐµÐ·Ð°Ð¿Ð½Ð¾": 40502,
  "ÐĴÐ½Ð¸Ð¼Ð°Ð½Ð¸Ðµ": 42054,
  "ÐĴÐ¾": 4808,
  "ÐĴÐ¾Ð´": 26662,
  "ÐĴÐ¾Ð·": 7541,
  "ÐĴÐ¾Ð·Ð²ÑĢÐ°": 36229,
  "ÐĴÐ¾Ð·Ð¼Ð¾Ð¶Ð½Ð¾": 15985,
  "ÐĴÐ¾Ð¹": 26607,
  "ÐĴÐ¾Ð¹Ð½Ð°": 40130,
  "ÐĴÐ¾Ð»": 14422,
  "ÐĴÐ¾Ð¾Ð±ÑīÐµ": 18317,
  "ÐĴÐ¾Ð¿ÑĢÐ¾Ñģ": 9867,
  "ÐĴÐ¾ÑĢÐ¾": 42869,
  "ÐĴÐ¾Ñģ": 27981,
  "ÐĴÐ¾ÑģÐ¿": 50184,
  "ÐĴÐ¾ÑģÑĤÐ¾": 26946,
  "ÐĴÐ¾ÑģÑĤÐ¾Ðº": 49116,
  "ÐĴÐ¾ÑĤ": 3545,
  "ÐĴÐ¿ÐµÑĢÐ²ÑĭÐµ": 44298,
  "ÐĴÐ¿ÑĢÐ¾ÑĩÐµÐ¼": 20372,
  "ÐĴÐĲ": 4922,
  "ÐĴÐĲÐ¢Ð¬": 40471,
  "ÐĴÐĲÐ¯": 46006,
  "ÐĴÐĶ": 6104,
  "ÐĴÐķ": 13337,
  "ÐĴÐķÐ¢": 25858,
  "ÐĴÐķÐĿ": 34840,
  "ÐĴÐķÐł": 31470,
  "ÐĴÐĺ": 8630,
  "ÐĴÐļ": 37374,
  "ÐĴÐļÐ¾Ð½ÑĤÐ°ÐºÑĤÐµ": 45359,
  "ÐĴÐĽÐķ": 43337,
  "ÐĴÐľ": 44652,
  "ÐĴÐŀ": 5677,
  "ÐĴÐŀÐĻ": 44081,
  "ÐĴÐŁ": 14944,
  "ÐĴÑĢÐµÐ¼Ñı": 21034,
  "ÐĴÑĢÐ¾Ð´Ðµ": 44814,
  "ÐĴÑģÐµ": 3858,
  "ÐĴÑģÐµÐ³Ð´Ð°": 32782,
  "ÐĴÑģÐµÐ³Ð¾": 30476,
  "ÐĴÑģÐµÐ¼": 19198,
  "ÐĴÑģÐµÑħ": 48017,
  "ÐĴÑģÐºÐ¾ÑĢÐµ": 31953,
  "ÐĴÑģÐ¿Ð¾Ð¼": 38774,
  "ÐĴÑģÑĤÑĢÐµ": 30213,
  "ÐĴÑģÑı": 26613,
  "ÐĴÑģÑĳ": 13597,
  "ÐĴÑĤ": 19832,
  "ÐĴÑĤÐ¾ÑĢÐ°Ñı": 41834,
  "ÐĴÑĤÐ¾ÑĢÐ¾Ð¹": 27642,
  "ÐĴÑĩÐµÑĢÐ°": 21796,
  "ÐĴÑĭ": 2577,
  "ÐĴÑĭÑģ": 41483,
  "ÐĴÑĭÑģÐ¾Ðº": 47069,
  "Ðĵ": 924,
  "ÐĵÐ¡": 27743,
  "ÐĵÐ£": 8839,
  "ÐĵÐ°": 22991,
  "ÐĵÐ°Ð·": 11670,
  "ÐĵÐ°Ð·ÐµÑĤÐ°": 38675,
  "ÐĵÐ°Ð·Ð¿ÑĢÐ¾Ð¼": 20070,
  "ÐĵÐ°Ð»": 42551,
  "ÐĵÐ°ÑĢ": 27439,
  "ÐĵÐ´Ðµ": 7388,
  "ÐĵÐµ": 29658,
  "ÐĵÐµÐ½": 34914,
  "ÐĵÐµÐ½ÐµÑĢÐ°": 33969,
  "ÐĵÐµÑĢ": 18474,
  "ÐĵÐµÑĢÐ¼Ð°Ð½Ð¸Ñı": 40408,
  "ÐĵÐ¸": 37885,
  "ÐĵÐ»Ð°": 31061,
  "ÐĵÐ»Ð°Ð²": 10943,
  "ÐĵÐ»Ð°Ð²Ð°": 8902,
  "ÐĵÐ»Ð°Ð²Ð½Ð°Ñı": 23533,
  "ÐĵÐ»Ð°Ð²Ð½Ð¾Ðµ": 28673,
  "ÐĵÐ»Ð°Ð²Ð½ÑĭÐ¹": 38904,
  "ÐĵÐ»Ð°Ð·Ð°": 40017,
  "ÐĵÐ»Ñı": 44543,
  "ÐĵÐ¾": 44055,
  "ÐĵÐ¾Ð²Ð¾ÑĢ": 24604,
  "ÐĵÐ¾Ð²Ð¾ÑĢÑıÑĤ": 32893,
  "ÐĵÐ¾Ð´": 39153,
  "ÐĵÐ¾Ð»": 21921,
  "ÐĵÐ¾Ð»Ð¾Ñģ": 24841,
  "ÐĵÐ¾Ð»ÑĥÐ±": 45459,
  "ÐĵÐ¾ÑĢ": 18607,
  "ÐĵÐ¾ÑĢÐ¾Ð´": 19818,
  "ÐĵÐ¾Ñģ": 11309,
  "ÐĵÐ¾ÑģÐ¿Ð¾Ð´": 18167,
  "ÐĵÐ¾ÑģÐ¿Ð¾Ð´Ð¸": 29401,
  "ÐĵÐ¾ÑģÐ¿Ð¾Ð´Ð¸Ð½": 43537,
  "ÐĵÐ¾ÑģÑĥÐ´Ð°ÑĢ": 31625,
  "ÐĵÐ¾ÑĤÐ¾Ð²": 43938,
  "ÐĵÐĲ": 10904,
  "ÐĵÐĳ": 16829,
  "ÐĵÐĶÐĲ": 30846,
  "ÐĵÐĺ": 9789,
  "ÐĵÐĺÐĽ": 34360,
  "ÐĵÐļ": 40629,
  "ÐĵÐĽÐĲ": 29078,
  "ÐĵÐĽÐĲÐĴÐĲ": 37976,
  "ÐĵÐŀ": 5708,
  "ÐĵÐłÐĲ": 37378,
  "ÐĵÐŃ": 19715,
  "ÐĵÑĢÐ°": 22557,
  "ÐĵÑĢÐµ": 38434,
  "ÐĵÑĢÐ¸": 32124,
  "ÐĵÑĢÑĥÐ¿Ð¿Ð°": 42777,
  "ÐĵÑĥ": 48292,
  "ÐĵÑĨ": 47731,
  "ÐĶ": 696,
  "ÐĶÐ¡": 15639,
  "ÐĶÐ£": 17671,
  "ÐĶÐ¤": 34783,
  "ÐĶÐ«": 34917,
  "ÐĶÐ¬": 44200,
  "ÐĶÐ°": 2030,
  "ÐĶÐ°Ð²Ð°Ð¹": 23012,
  "ÐĶÐ°Ð²Ð°Ð¹ÑĤÐµ": 26382,
  "ÐĶÐ°Ð²Ð½Ð¾": 40171,
  "ÐĶÐ°Ð¶Ðµ": 16413,
  "ÐĶÐ°Ð¹": 36466,
  "ÐĶÐ°Ð¹ÑĤÐµ": 49366,
  "ÐĶÐ°Ð»ÐµÐµ": 30082,
  "ÐĶÐ°Ð»ÑĮ": 44635,
  "ÐĶÐ°Ð»ÑĮÑĪÐµ": 32636,
  "ÐĶÐ°ÑĢ": 48023,
  "ÐĶÐ²": 49982,
  "ÐĶÐ²Ð°": 18676,
  "ÐĶÐ²Ðµ": 38968,
  "ÐĶÐ²ÐµÑĢÑĮ": 41382,
  "ÐĶÐµ": 11456,
  "ÐĶÐµÐ²": 11262,
  "ÐĶÐµÐ²Ð¾ÑĩÐºÐ°": 48750,
  "ÐĶÐµÐ²Ð¾ÑĩÐºÐ¸": 47327,
  "ÐĶÐµÐ²ÑĥÑĪÐºÐ°": 19960,
  "ÐĶÐµÐ²ÑĥÑĪÐºÐ¸": 35302,
  "ÐĶÐµÐ´": 42129,
  "ÐĶÐµÐ¹ÑģÑĤÐ²": 26129,
  "ÐĶÐµÐ¹ÑģÑĤÐ²Ð¸ÑĤÐµÐ»ÑĮÐ½Ð¾": 35786,
  "ÐĶÐµÐ»": 32518,
  "ÐĶÐµÐ»Ð¾": 23030,
  "ÐĶÐµÐ¼": 38252,
  "ÐĶÐµÐ½ÑĮ": 13689,
  "ÐĶÐµÐ½ÑĮÐ³Ð¸": 37580,
  "ÐĶÐµÑĢ": 45227,
  "ÐĶÐµÑĤ": 20904,
  "ÐĶÐµÑĤÐ¸": 29804,
  "ÐĶÐ¶": 9822,
  "ÐĶÐ¶Ðµ": 46258,
  "ÐĶÐ¶ÐµÐ¹": 31813,
  "ÐĶÐ¶Ð¾Ð½": 37635,
  "ÐĶÐ¸": 12835,
  "ÐĶÐ¸Ð½Ð°Ð¼Ð¾": 25197,
  "ÐĶÐ»Ñı": 5832,
  "ÐĶÐ¼Ð¸ÑĤ": 35193,
  "ÐĶÐ¼Ð¸ÑĤÑĢÐ¸Ð¹": 41700,
  "ÐĶÐ¾": 8510,
  "ÐĶÐ¾Ð±": 9374,
  "ÐĶÐ¾Ð±ÑĢÐ¾": 46490,
  "ÐĶÐ¾Ð±ÑĢÐ¾Ð³Ð¾": 47682,
  "ÐĶÐ¾Ð±ÑĢÐ¾Ðµ": 37752,
  "ÐĶÐ¾Ð±ÑĢÑĭÐ¹": 26598,
  "ÐĶÐ¾Ð²": 37276,
  "ÐĶÐ¾Ðº": 22054,
  "ÐĶÐ¾ÐºÑĤÐ¾ÑĢ": 28982,
  "ÐĶÐ¾Ð»": 32233,
  "ÐĶÐ¾Ð»Ð³Ð¾": 46526,
  "ÐĶÐ¾Ð»Ð¶": 31593,
  "ÐĶÐ¾Ð¼": 13228,
  "ÐĶÐ¾Ð¼Ð°": 44111,
  "ÐĶÐ¾Ð½": 24899,
  "ÐĶÐ¾Ð½Ñĥ": 25245,
  "ÐĶÐ¾ÑĢ": 16466,
  "ÐĶÐ¾ÑĢÐ¾Ð³Ð°": 49607,
  "ÐĶÐĲ": 7179,
  "ÐĶÐĴ": 26849,
  "ÐĶÐĶ": 14013,
  "ÐĶÐķ": 10196,
  "ÐĶÐķÐ¢": 39875,
  "ÐĶÐĺ": 9843,
  "ÐĶÐļ": 44582,
  "ÐĶÐĿ": 43794,
  "ÐĶÐŀ": 9853,
  "ÐĶÐł": 32244,
  "ÐĶÑĢÑĥÐ³": 21000,
  "ÐĶÑĢÑĥÐ³Ð¸Ðµ": 48109,
  "ÐĶÑĢÑĥÐ³Ð¾Ð¹": 48749,
  "ÐĶÑĢÑĥÐ¶": 49420,
  "ÐĶÑĢÑĥÐ·ÑĮÑı": 36041,
  "ÐĶÑĥ": 44062,
  "ÐĶÑĥÐ¼Ð°": 15206,
  "ÐĶÑĥÐ¼Ð°Ñİ": 20362,
  "ÐĶÑį": 43051,
  "ÐĶÑı": 29077,
  "Ðķ": 742,
  "ÐķÐ¡": 8695,
  "ÐķÐ¡Ð¬": 47485,
  "ÐķÐ¢": 5463,
  "ÐķÐ¢Ð¡Ð¯": 45377,
  "ÐķÐ²": 12138,
  "ÐķÐ²Ð³": 39789,
  "ÐķÐ³Ð¾": 13568,
  "ÐķÐ´Ð¸Ð½": 18345,
  "ÐķÐ´Ð¸Ð½Ð°Ñı": 31617,
  "ÐķÐ´Ð¸Ð½Ð¾Ð¹": 34627,
  "ÐķÐµ": 24788,
  "ÐķÐ¹": 35901,
  "ÐķÐºÐ°ÑĤÐµÑĢÐ¸": 44636,
  "ÐķÐ¼Ñĥ": 30257,
  "ÐķÐĴ": 29778,
  "ÐķÐķ": 49907,
  "ÐķÐĻ": 17470,
  "ÐķÐļ": 37049,
  "ÐķÐľ": 11402,
  "ÐķÐĿ": 5328,
  "ÐķÐĿÐ¬": 20151,
  "ÐķÐł": 5143,
  "ÐķÐłÐķ": 24487,
  "ÐķÑģÐ»Ð¸": 2710,
  "ÐķÑģÑĤÐµÑģÑĤÐ²ÐµÐ½Ð½Ð¾": 43726,
  "ÐķÑģÑĤÑĮ": 7668,
  "ÐķÑīÐµ": 9553,
  "ÐķÑīÑĳ": 21966,
  "Ðĸ": 2065,
  "ÐĸÐ°Ð»ÑĮ": 43893,
  "ÐĸÐ°Ð½": 37916,
  "ÐĸÐµÐ»": 29692,
  "ÐĸÐµÐ»Ð°": 44538,
  "ÐĸÐµÐ»ÐµÐ·": 48573,
  "ÐĸÐµÐ½": 14039,
  "ÐĸÐµÐ½Ð°": 48376,
  "ÐĸÐµÐ½ÑīÐ¸Ð½Ð°": 25047,
  "ÐĸÐµÐ½ÑīÐ¸Ð½Ñĭ": 40949,
  "ÐĸÐ¸": 26968,
  "ÐĸÐ¸Ð²": 28320,
  "ÐĸÐ¸Ð·Ð½ÑĮ": 20716,
  "ÐĸÐĲ": 27624,
  "ÐĸÐĶ": 23327,
  "ÐĸÐķ": 18737,
  "ÐĸÐĺ": 23663,
  "ÐĸÐĿÐŀ": 31053,
  "ÐĸÑĥÑĢ": 40929,
  "ÐĹ": 1009,
  "ÐĹÐ¡": 47178,
  "ÐĹÐ£": 33866,
  "ÐĹÐ«": 32705,
  "ÐĹÐ°": 2397,
  "ÐĹÐ°Ð±": 35986,
  "ÐĹÐ°Ð²": 22451,
  "ÐĹÐ°Ð²ÑĤÑĢÐ°": 28881,
  "ÐĹÐ°Ð³": 39110,
  "ÐĹÐ°Ð¹": 46206,
  "ÐĹÐ°Ðº": 13399,
  "ÐĹÐ°ÐºÐ¾Ð½": 28394,
  "ÐĹÐ°Ð¼": 17691,
  "ÐĹÐ°Ð¿": 41252,
  "ÐĹÐ°Ð¿Ð°Ð´": 19807,
  "ÐĹÐ°ÑĤÐµÐ¼": 23827,
  "ÐĹÐ°ÑĤÐ¾": 28125,
  "ÐĹÐ°ÑĩÐµÐ¼": 9961,
  "ÐĹÐ²": 21898,
  "ÐĹÐ²ÐµÐ·Ð´": 46730,
  "ÐĹÐ´ÐµÑģÑĮ": 13235,
  "ÐĹÐ´Ð¾ÑĢ": 47647,
  "ÐĹÐ´ÑĢÐ°Ð²ÑģÑĤÐ²ÑĥÐ¹": 47907,
  "ÐĹÐ´ÑĢÐ°Ð²ÑģÑĤÐ²ÑĥÐ¹ÑĤÐµ": 17335,
  "ÐĹÐµÐ»ÐµÐ½": 36255,
  "ÐĹÐµÐ¼": 26237,
  "ÐĹÐµÐ¼Ð»Ñı": 41183,
  "ÐĹÐµÐ½Ð¸": 40520,
  "ÐĹÐµÐ½Ð¸ÑĤ": 40788,
  "ÐĹÐ½Ð°": 7032,
  "ÐĹÐ½Ð°ÐµÑĤÐµ": 39148,
  "ÐĹÐ½Ð°ÐµÑĪÑĮ": 37614,
  "ÐĹÐ½Ð°ÐºÐ¾Ð¼": 49700,
  "ÐĹÐ½Ð°ÑĩÐ¸ÑĤ": 14101,
  "ÐĹÐ½Ð°Ñİ": 34758,
  "ÐĹÐ¾Ð»Ð¾ÑĤ": 18793,
  "ÐĹÐ¾Ð»Ð¾ÑĤÐ°Ñı": 45749,
  "ÐĹÐ¾Ð»Ð¾ÑĤÐ¾Ð¹": 35127,
  "ÐĹÐĲ": 12202,
  "ÐĹÐĶ": 48390,
  "ÐĹÐĺ": 17379,
  "ÐĹÐĿÐĲ": 47192,
  "ÐĹÐŀ": 15380,
  "Ðĺ": 648,
  "ÐĺÐ¡": 16816,
  "ÐĺÐ²Ð°Ð½": 28114,
  "ÐĺÐ³": 45331,
  "ÐĺÐ³Ð¾ÑĢÑĮ": 41648,
  "ÐĺÐ³ÑĢÐ°": 31683,
  "ÐĺÐ´Ðµ": 31205,
  "ÐĺÐ´Ð¸": 30568,
  "ÐĺÐ·": 4315,
  "ÐĺÐ·Ð²ÐµÑģÑĤ": 40357,
  "ÐĺÐ·Ð²ÐµÑģÑĤÐ¸": 37821,
  "ÐĺÐ·Ð²Ð¸Ð½Ð¸ÑĤÐµ": 40004,
  "ÐĺÐ»Ð¸": 16760,
  "ÐĺÐ¼": 21243,
  "ÐĺÐ¼Ðµ": 35678,
  "ÐĺÐ¼ÐµÐ½Ð½Ð¾": 19706,
  "ÐĺÐ½": 4022,
  "ÐĺÐ½Ð¾Ð³Ð´Ð°": 25420,
  "ÐĺÐ½ÑĤÐµÑĢ": 12246,
  "ÐĺÐ½ÑĤÐµÑĢÐµÑģ": 13531,
  "ÐĺÐ½ÑĤÐµÑĢÐµÑģÐ½Ð¾": 18108,
  "ÐĺÐ½ÑĤÐµÑĢÐ½ÐµÑĤ": 37000,
  "ÐĺÐ½ÑĤÐµÑĢÑĦÐ°ÐºÑģ": 27947,
  "ÐĺÐ½ÑĦÐ¾ÑĢÐ¼Ð°": 27785,
  "ÐĺÐĲ": 9056,
  "ÐĺÐļ": 22917,
  "ÐĺÐĿ": 13760,
  "ÐĺÑĢ": 43606,
  "ÐĺÑģ": 24796,
  "ÐĺÑģÐº": 23154,
  "ÐĺÑģÐºÑĥÑģ": 49268,
  "ÐĺÑģÐ»Ð°Ð¼": 32040,
  "ÐĺÑģÐ¿": 20592,
  "ÐĺÑģÐ¿Ð¾Ð»ÑĮÐ·": 43349,
  "ÐĺÑģÑĤÐ¾ÑĢÐ¸Ñı": 20803,
  "ÐĺÑģÑĤÐ¾ÑĩÐ½Ð¸Ðº": 18995,
  "ÐĺÑĤ": 40093,
  "ÐĺÑĤÐ°Ðº": 12743,
  "ÐĺÑħ": 25202,
  "ÐĻ": 2774,
  "ÐĻÐ¢Ðķ": 47577,
  "ÐĻÐ¾ÑĢ": 10470,
  "ÐĻÐ¾ÑĢÐº": 20517,
  "ÐĻÐ¾ÑĢÐºÐ°": 35549,
  "ÐĻÐ¾ÑĢÐºÐµ": 22309,
  "Ðļ": 580,
  "ÐļÐ¡": 9582,
  "ÐļÐ¢": 31616,
  "ÐļÐ¢Ðŀ": 39159,
  "ÐļÐ£": 14081,
  "ÐļÐ°": 5316,
  "ÐļÐ°Ð²ÐºÐ°Ð·": 39843,
  "ÐļÐ°Ð¶Ð´ÑĭÐ¹": 21788,
  "ÐļÐ°Ð¶ÐµÑĤÑģÑı": 32721,
  "ÐļÐ°Ð·": 21576,
  "ÐļÐ°Ð·Ð°Ð»Ð¾ÑģÑĮ": 47920,
  "ÐļÐ°Ð·Ð°Ñħ": 45125,
  "ÐļÐ°Ðº": 1380,
  "ÐļÐ°ÐºÐ°Ñı": 12047,
  "ÐļÐ°ÐºÐ¸Ðµ": 9532,
  "ÐļÐ°ÐºÐ¸Ð¼": 31345,
  "ÐļÐ°ÐºÐ¾Ð³Ð¾": 41941,
  "ÐļÐ°ÐºÐ¾Ðµ": 16800,
  "ÐļÐ°ÐºÐ¾Ð¹": 8492,
  "ÐļÐ°ÐºÑĥÑİ": 24521,
  "ÐļÐ°Ð»Ð¸": 45759,
  "ÐļÐ°Ð¼": 18344,
  "ÐļÐ°Ð½": 44844,
  "ÐļÐ°Ð¿Ð¸ÑĤÐ°Ð½": 33295,
  "ÐļÐ°ÑĢ": 11822,
  "ÐļÐ°ÑĢÐ°": 39103,
  "ÐļÐ°ÑĤ": 27492,
  "ÐļÐµÐ¼": 42957,
  "ÐļÐ¸": 21542,
  "ÐļÐ¸ÐµÐ²": 37015,
  "ÐļÐ¸ÑĤÐ°Ð¹": 31910,
  "ÐļÐ»Ð°": 42654,
  "ÐļÐ»Ð¸": 37504,
  "ÐļÐ»ÑĥÐ±": 47228,
  "ÐļÐ½Ð¸": 20493,
  "ÐļÐ½Ð¸Ð³Ð°": 33529,
  "ÐļÐ½Ñı": 46757,
  "ÐļÐ¾": 11990,
  "ÐļÐ¾Ð³Ð´Ð°": 3847,
  "ÐļÐ¾Ð³Ð¾": 31967,
  "ÐļÐ¾Ð»": 17116,
  "ÐļÐ¾Ð¼": 6631,
  "ÐļÐ¾Ð¼Ð¼ÐµÐ½ÑĤÐ°": 48366,
  "ÐļÐ¾Ð¼Ð¼ÐµÑĢ": 34734,
  "ÐļÐ¾Ð¼Ð¼ÐµÑĢÑģÐ°Ð½ÑĤ": 44555,
  "ÐļÐ¾Ð¼Ð¿": 29024,
  "ÐļÐ¾Ð¼Ð¿Ð°Ð½Ð¸Ñı": 34036,
  "ÐļÐ¾Ð¼Ñĥ": 25724,
  "ÐļÐ¾Ð½": 7414,
  "ÐļÐ¾Ð½ÐµÑĩÐ½Ð¾": 8304,
  "ÐļÐ¾Ð½ÑĤÐ°ÐºÑĤÐµ": 25667,
  "ÐļÐ¾ÑĢ": 10838,
  "ÐļÐ¾ÑĢÐ¾": 24647,
  "ÐļÐ¾ÑĢÐ¾Ð»ÑĮ": 48012,
  "ÐļÐ¾ÑĢÐ¾ÑĩÐµ": 38500,
  "ÐļÐ¾Ñģ": 31949,
  "ÐļÐ¾ÑĤ": 31772,
  "ÐļÐĲ": 4181,
  "ÐļÐĲÐ¯": 36044,
  "ÐļÐĲÐļ": 45308,
  "ÐļÐķ": 38440,
  "ÐļÐĺ": 6694,
  "ÐļÐĺÐķ": 35428,
  "ÐļÐĺÐĻ": 22846,
  "ÐļÐŀ": 4132,
  "ÐļÐŀÐĴ": 30158,
  "ÐļÐŀÐĵÐŀ": 44807,
  "ÐļÐŀÐĻ": 23675,
  "ÐļÐŀÐľ": 32791,
  "ÐļÐŁ": 46396,
  "ÐļÑĢÐ°": 20043,
  "ÐļÑĢÐ°Ñģ": 12061,
  "ÐļÑĢÐ°ÑģÐ¸": 36257,
  "ÐļÑĢÐ°ÑģÐ½Ð°Ñı": 49061,
  "ÐļÑĢÐ°ÑģÐ½ÑĭÐ¹": 45277,
  "ÐļÑĢÐµ": 32248,
  "ÐļÑĢÐ¸": 25899,
  "ÐļÑĢÐ¾Ð¼Ðµ": 18410,
  "ÐļÑĢÑĥ": 49653,
  "ÐļÑĢÑĥÐ³": 49679,
  "ÐļÑĢÑĭ": 35404,
  "ÐļÑĢÑĭÐ¼": 40197,
  "ÐļÑģÑĤÐ°ÑĤÐ¸": 15345,
  "ÐļÑĤÐ¾": 5153,
  "ÐļÑĥ": 20285,
  "ÐļÑĥÐ±": 33401,
  "ÐļÑĥÐ´Ð°": 13589,
  "ÐļÑĥÐ»ÑĮ": 38462,
  "ÐļÑĥÐ¿": 20104,
  "ÐļÑĥÑĢ": 27135,
  "ÐĽ": 945,
  "ÐĽÐ¡": 40799,
  "ÐĽÐ£": 19119,
  "ÐĽÐ«": 33005,
  "ÐĽÐ¬": 5841,
  "ÐĽÐ¬ÐļÐŀ": 36086,
  "ÐĽÐ¬ÐĿÐŀ": 20791,
  "ÐĽÐ®": 21942,
  "ÐĽÐ¯": 13995,
  "ÐĽÐ°": 16243,
  "ÐĽÐ°Ð´Ð½Ð¾": 15905,
  "ÐĽÐµ": 13406,
  "ÐĽÐµÐ²": 40374,
  "ÐĽÐµÐ³": 26251,
  "ÐĽÐµÐ¹": 42741,
  "ÐĽÐµÐ½Ð¸Ð½": 47786,
  "ÐĽÐµÑģ": 39524,
  "ÐĽÐµÑĤ": 30966,
  "ÐĽÐ¸": 9150,
  "ÐĽÐ¸ÑĤ": 31186,
  "ÐĽÐ¸ÑĤÐµÑĢÐ°": 44921,
  "ÐĽÐ¸ÑĨÐ¾": 45632,
  "ÐĽÐ¸ÑĪÑĮ": 40853,
  "ÐĽÐ¾": 48812,
  "ÐĽÐ¾Ðº": 34757,
  "ÐĽÐ¾ÐºÐ¾Ð¼Ð¾": 41202,
  "ÐĽÐĲ": 5623,
  "ÐĽÐķ": 8239,
  "ÐĽÐķÐĿ": 39515,
  "ÐĽÐĺ": 6296,
  "ÐĽÐŀ": 5997,
  "ÐĽÐŀÐĴÐķ": 47824,
  "ÐĽÑĥ": 31048,
  "ÐĽÑĥÑĩ": 10417,
  "ÐĽÑĥÑĩÑĪÐµ": 18862,
  "ÐĽÑĥÑĩÑĪÐ¸Ð¹": 32723,
  "ÐĽÑİ": 9698,
  "ÐĽÑİÐ±": 9762,
  "ÐĽÑİÐ±Ð»Ñİ": 45320,
  "ÐĽÑİÐ±Ð¾Ð²ÑĮ": 24498,
  "ÐĽÑİÐ´Ð¸": 16923,
  "Ðľ": 678,
  "ÐľÐ¡": 11551,
  "ÐľÐ£": 17325,
  "ÐľÐ¤": 30974,
  "ÐľÐ«": 28044,
  "ÐľÐ¯": 48497,
  "ÐľÐ°": 7284,
  "ÐľÐ°Ð³": 45252,
  "ÐľÐ°Ð¹": 20109,
  "ÐľÐ°Ðº": 22790,
  "ÐľÐ°ÐºÑģÐ¸Ð¼": 33873,
  "ÐľÐ°Ð»": 18851,
  "ÐľÐ°Ð»Ð¾": 41652,
  "ÐľÐ°Ð»ÑĮ": 24663,
  "ÐľÐ°Ð»ÑĮÑĩÐ¸Ðº": 45068,
  "ÐľÐ°Ð¼": 40228,
  "ÐľÐ°Ð¼Ð°": 20342,
  "ÐľÐ°Ð½": 20300,
  "ÐľÐ°Ð½ÑģÐ¸Ð¹": 46035,
  "ÐľÐ°ÑĢ": 11788,
  "ÐľÐ°ÑĢÐ¸": 22635,
  "ÐľÐ°ÑĢÐ¸Ñı": 39436,
  "ÐľÐ°ÑĢÐº": 39581,
  "ÐľÐ°ÑģÑĤÐµÑĢ": 30888,
  "ÐľÐ°ÑĤ": 25730,
  "ÐľÐ°ÑĤÐµÑĢÐ¸": 37391,
  "ÐľÐ°ÑĤÑĮ": 37479,
  "ÐľÐµ": 10315,
  "ÐľÐµÐ³Ð°": 48628,
  "ÐľÐµÐ´": 20668,
  "ÐľÐµÐ´Ð¸": 35306,
  "ÐľÐµÐ¶Ð´Ñĥ": 17453,
  "ÐľÐµÐ¶Ð´ÑĥÐ½Ð°ÑĢÐ¾Ð´": 38195,
  "ÐľÐµÐ»": 45073,
  "ÐľÐµÐ½Ñı": 14154,
  "ÐľÐµÑĢ": 34167,
  "ÐľÐµÑģÑĤÐ¾": 45295,
  "ÐľÐµÑĤ": 18185,
  "ÐľÐµÑĩ": 37605,
  "ÐľÐ¸": 11723,
  "ÐľÐ¸Ðº": 48576,
  "ÐľÐ¸Ð»": 33054,
  "ÐľÐ¸Ð½": 20831,
  "ÐľÐ¸Ð½Ð¸": 32019,
  "ÐľÐ¸ÑĢ": 19583,
  "ÐľÐ¸Ñģ": 42965,
  "ÐľÐ¸ÑģÑģ": 40793,
  "ÐľÐ¸ÑģÑĤÐµÑĢ": 33785,
  "ÐľÐ¸ÑħÐ°": 34037,
  "ÐľÐ¸ÑħÐ°Ð¸Ð»": 37442,
  "ÐľÐ½Ðµ": 5371,
  "ÐľÐ½Ð¾Ð³Ð¸Ðµ": 26903,
  "ÐľÐ½Ð¾Ð³Ð¾": 22355,
  "ÐľÐ¾": 6847,
  "ÐľÐ¾Ð³": 31512,
  "ÐľÐ¾Ð³Ñĥ": 32572,
  "ÐľÐ¾Ðµ": 42671,
  "ÐľÐ¾Ð¶ÐµÑĤ": 8020,
  "ÐľÐ¾Ð¶ÐµÑĤÐµ": 48433,
  "ÐľÐ¾Ð¶Ð½Ð¾": 7049,
  "ÐľÐ¾Ð¸": 12462,
  "ÐľÐ¾Ð¹": 13350,
  "ÐľÐ¾Ð»": 21044,
  "ÐľÐ¾Ð»Ð¾Ð´": 16775,
  "ÐľÐ¾Ð»Ð¾Ð´Ð¾Ð¹": 42680,
  "ÐľÐ¾Ð½": 29967,
  "ÐľÐ¾ÑĢ": 23931,
  "ÐľÐ¾Ñģ": 49274,
  "ÐľÐ¾ÑģÐº": 8889,
  "ÐľÐ¾ÑģÐºÐ²Ð°": 13520,
  "ÐľÐ¾ÑģÐºÐ¾Ð²ÑģÐºÐ¸Ð¹": 47275,
  "ÐľÐ¾Ñı": 17867,
  "ÐľÐĲ": 6903,
  "ÐľÐĴ": 33982,
  "ÐľÐĴÐĶ": 35254,
  "ÐľÐķ": 17735,
  "ÐľÐķÐĿ": 25284,
  "ÐľÐķÐł": 38047,
  "ÐľÐĺ": 4369,
  "ÐľÐļ": 22954,
  "ÐľÐľ": 36475,
  "ÐľÐŀ": 6982,
  "ÐľÐŀÐ¡ÐļÐĴÐĲ": 47073,
  "ÐľÐŁ": 22806,
  "ÐľÑĥ": 19465,
  "ÐľÑĥÐ¶": 10934,
  "ÐľÑĥÐ¶ÑĩÐ¸Ð½Ð°": 21346,
  "ÐľÑĥÐ¶ÑĩÐ¸Ð½Ñĭ": 33580,
  "ÐľÑĥÐ·": 47575,
  "ÐľÑĭ": 3592,
  "ÐĿ": 558,
  "ÐĿÐ¡": 16513,
  "ÐĿÐ¢": 17472,
  "ÐĿÐ£": 19286,
  "ÐĿÐ«": 7201,
  "ÐĿÐ«Ð¥": 30678,
  "ÐĿÐ«Ðķ": 21030,
  "ÐĿÐ«ÐĻ": 16554,
  "ÐĿÐ¬": 38037,
  "ÐĿÐ¯": 24406,
  "ÐĿÐ°": 1487,
  "ÐĿÐ°Ð±": 43103,
  "ÐĿÐ°Ð²": 50193,
  "ÐĿÐ°Ð²ÐµÑĢÐ½Ð¾Ðµ": 21962,
  "ÐĿÐ°Ð´": 23400,
  "ÐĿÐ°Ð´Ðµ": 19826,
  "ÐĿÐ°Ð´ÐµÑİÑģÑĮ": 30307,
  "ÐĿÐ°Ð´Ð¾": 12365,
  "ÐĿÐ°Ð·": 26203,
  "ÐĿÐ°Ð¹": 29483,
  "ÐĿÐ°ÐºÐ¾Ð½ÐµÑĨ": 18325,
  "ÐĿÐ°Ð¼": 17221,
  "ÐĿÐ°Ð¿": 40958,
  "ÐĿÐ°Ð¿Ð¾Ð¼": 38234,
  "ÐĿÐ°Ð¿ÑĢÐ¸Ð¼ÐµÑĢ": 28918,
  "ÐĿÐ°ÑĢÐ¾Ð´": 21985,
  "ÐĿÐ°Ñģ": 20635,
  "ÐĿÐ°ÑģÐºÐ¾Ð»ÑĮÐºÐ¾": 35567,
  "ÐĿÐ°ÑģÑĤÐ¾Ñı": 39207,
  "ÐĿÐ°ÑĨÐ¸Ð¾Ð½": 30827,
  "ÐĿÐ°Ñĩ": 25399,
  "ÐĿÐ°ÑĩÐ°Ð»Ð¾": 47375,
  "ÐĿÐ°ÑĪ": 17271,
  "ÐĿÐ°ÑĪÐ°": 30173,
  "ÐĿÐ°ÑĪÐ¸": 29280,
  "ÐĿÐµ": 1683,
  "ÐĿÐµÐ²": 24013,
  "ÐĿÐµÐ´": 26448,
  "ÐĿÐµÐ´Ð°Ð²Ð½Ð¾": 46138,
  "ÐĿÐµÐ·": 44703,
  "ÐĿÐµÐºÐ¾ÑĤÐ¾ÑĢÑĭÐµ": 29852,
  "ÐĿÐµÐ»ÑĮÐ·Ñı": 34691,
  "ÐĿÐµÐ¼": 18034,
  "ÐĿÐµÐ¼Ð½Ð¾Ð³Ð¾": 35324,
  "ÐĿÐµÐ¾Ð±ÑħÐ¾Ð´": 46391,
  "ÐĿÐµÑģ": 18693,
  "ÐĿÐµÑģÐºÐ¾Ð»ÑĮÐºÐ¾": 26132,
  "ÐĿÐµÑģÐ¼Ð¾ÑĤÑĢÑı": 26410,
  "ÐĿÐµÑĤ": 3589,
  "ÐĿÐµÑĥÐ¶ÐµÐ»Ð¸": 23724,
  "ÐĿÐ¸": 6425,
  "ÐĿÐ¸Ðº": 7385,
  "ÐĿÐ¸ÐºÐ°Ðº": 21061,
  "ÐĿÐ¸ÐºÐ¾Ð³Ð´Ð°": 27775,
  "ÐĿÐ¸ÐºÐ¾Ð»Ð°Ð¹": 34823,
  "ÐĿÐ¸ÐºÑĤÐ¾": 25448,
  "ÐĿÐ¸ÑĩÐµÐ³Ð¾": 12056,
  "ÐĿÐ¾": 2552,
  "ÐĿÐ¾Ð²": 19752,
  "ÐĿÐ¾Ð²Ð°Ñı": 28751,
  "ÐĿÐ¾Ð²Ð¾": 14073,
  "ÐĿÐ¾Ð²Ð¾ÑģÑĤÐ¸": 17262,
  "ÐĿÐ¾Ð²ÑĭÐµ": 38043,
  "ÐĿÐ¾Ð²ÑĭÐ¹": 21637,
  "ÐĿÐ¾ÑĢ": 38140,
  "ÐĿÐ¾ÑĢÐ¼": 27812,
  "ÐĿÐ¾ÑĢÐ¼Ð°Ð»ÑĮÐ½Ð¾": 43657,
  "ÐĿÐ¾ÑĩÑĮ": 43366,
  "ÐĿÐĲ": 4758,
  "ÐĿÐĲÐ¯": 20227,
  "ÐĿÐĵ": 12839,
  "ÐĿÐĶ": 18816,
  "ÐĿÐĶÐł": 34761,
  "ÐĿÐķ": 10003,
  "ÐĿÐķÐ¡": 32371,
  "ÐĿÐķÐ¡ÐļÐŀ": 42455,
  "ÐĿÐķÐ¢": 39599,
  "ÐĿÐĺ": 3632,
  "ÐĿÐĺÐ¯": 15915,
  "ÐĿÐĺÐķ": 10746,
  "ÐĿÐĺÐĺ": 29544,
  "ÐĿÐĺÐĻ": 47194,
  "ÐĿÐĺÐļ": 34559,
  "ÐĿÐĺÐľÐĲ": 32668,
  "ÐĿÐĺÐľÐĲÐĿÐĺÐķ": 46063,
  "ÐĿÐļ": 11900,
  "ÐĿÐŀ": 3705,
  "ÐĿÐŀÐ¡Ð¢Ð¬": 49985,
  "ÐĿÐŀÐĴ": 28473,
  "ÐĿÐŀÐĵÐŀ": 27105,
  "ÐĿÐŀÐķ": 29614,
  "ÐĿÐŀÐĻ": 25062,
  "ÐĿÐŁ": 45702,
  "ÐĿÐł": 9611,
  "ÐĿÑĥ": 2809,
  "ÐĿÑĥÐ¶": 25575,
  "ÐĿÑĥÐ¶Ð½Ð°": 44659,
  "ÐĿÑĥÐ¶Ð½Ð¾": 19338,
  "ÐĿÑĮÑİ": 37805,
  "Ðŀ": 539,
  "ÐŀÐ¡": 45606,
  "ÐŀÐ±": 4465,
  "ÐŀÐ±Ð°": 49573,
  "ÐŀÐ±Ðµ": 40162,
  "ÐŀÐ±ÑĢÐ°": 23389,
  "ÐŀÐ±ÑĢÐ°Ð·": 36329,
  "ÐŀÐ±ÑĬ": 41662,
  "ÐŀÐ±ÑĬÑıÑģ": 49277,
  "ÐŀÐ±Ñĭ": 24462,
  "ÐŀÐ±ÑĭÑĩÐ½Ð¾": 37575,
  "ÐŀÐ±Ñı": 37508,
  "ÐŀÐ³": 25022,
  "ÐŀÐ´": 5560,
  "ÐŀÐ´Ð¸Ð½": 14731,
  "ÐŀÐ´Ð½Ð°": 15956,
  "ÐŀÐ´Ð½Ð°Ð¶Ð´Ñĭ": 24531,
  "ÐŀÐ´Ð½Ð°ÐºÐ¾": 10326,
  "ÐŀÐ´Ð½Ð¸Ð¼": 46820,
  "ÐŀÐ´Ð½Ð¾": 39592,
  "ÐŀÐ¹": 20346,
  "ÐŀÐº": 17302,
  "ÐŀÐºÐ°": 44338,
  "ÐŀÐºÐ¾Ð»Ð¾": 45005,
  "ÐŀÐ»ÐµÐ³": 43225,
  "ÐŀÐ»Ð¸Ð¼": 41381,
  "ÐŀÐ»ÑĮ": 29411,
  "ÐŀÐ»ÑĮÐ³Ð°": 49694,
  "ÐŀÐ¼": 45495,
  "ÐŀÐ½": 2946,
  "ÐŀÐ½Ð°": 4457,
  "ÐŀÐ½Ð¸": 7071,
  "ÐŀÐ½Ð¾": 41425,
  "ÐŀÐ¿": 11184,
  "ÐŀÐ¿ÐµÑĢÐ°": 41470,
  "ÐŀÐ¿ÑıÑĤÑĮ": 27477,
  "ÐŀÐĳ": 37549,
  "ÐŀÐļ": 47182,
  "ÐŀÐĿ": 27964,
  "ÐŀÐŀ": 18141,
  "ÐŀÐŀÐŀ": 49797,
  "ÐŀÑĢ": 15362,
  "ÐŀÑĢÐ³Ð°Ð½Ð¸": 37870,
  "ÐŀÑĢÐ¸Ð³Ð¸Ð½Ð°Ð»": 16908,
  "ÐŀÑģ": 8609,
  "ÐŀÑģÐºÐ°ÑĢ": 50088,
  "ÐŀÑģÐ½Ð¾Ð²": 22828,
  "ÐŀÑģÐ¾Ð±": 24981,
  "ÐŀÑģÐ¾Ð±ÐµÐ½Ð½Ð¾": 42610,
  "ÐŀÑģÑĤ": 26179,
  "ÐŀÑģÑĤÐ°": 37940,
  "ÐŀÑģÑĤÐ°Ð²": 42915,
  "ÐŀÑĤ": 3062,
  "ÐŀÑĤÐ²ÐµÑĤ": 19133,
  "ÐŀÑĤÐµÑĨ": 25464,
  "ÐŀÑĤÐºÑĢÑĭ": 21089,
  "ÐŀÑĤÐºÑĥÐ´Ð°": 20307,
  "ÐŀÑĤÐ»Ð¸ÑĩÐ½Ð¾": 39611,
  "ÐŀÑĤÐ½Ð¾": 47775,
  "ÐŀÑĦÐ¸ÑĨÐ¸Ð°Ð»ÑĮ": 44187,
  "ÐŀÑħ": 26950,
  "ÐŀÑħÐ¾ÑĤ": 46514,
  "ÐŀÑĩÐµÐ½ÑĮ": 10762,
  "ÐŁ": 556,
  "ÐŁÐ¡": 19486,
  "ÐŁÐ£": 16736,
  "ÐŁÐ¦": 21271,
  "ÐŁÐ°": 9735,
  "ÐŁÐ°Ð²": 35360,
  "ÐŁÐ°Ð¼": 47822,
  "ÐŁÐ°Ð½": 47693,
  "ÐŁÐ°Ð¿Ð°": 33734,
  "ÐŁÐ°ÑĢ": 14474,
  "ÐŁÐ°ÑĢÐ°": 31244,
  "ÐŁÐ°ÑĢÐµÐ½ÑĮ": 41053,
  "ÐŁÐ°ÑĢÐ¸": 46531,
  "ÐŁÐ°ÑĤÑĢÐ¸": 48630,
  "ÐŁÐµ": 23118,
  "ÐŁÐµÑĢ": 6587,
  "ÐŁÐµÑĢÐ²Ð°Ñı": 30141,
  "ÐŁÐµÑĢÐ²Ð¾Ðµ": 34112,
  "ÐŁÐµÑĢÐ²ÑĭÐµ": 41660,
  "ÐŁÐµÑĢÐ²ÑĭÐ¹": 18545,
  "ÐŁÐµÑĢÐ²ÑĭÐ¼": 44765,
  "ÐŁÐµÑĢÐµ": 9317,
  "ÐŁÐµÑĢÐµÐ²Ð¾Ð´": 50176,
  "ÐŁÐµÑĢÐµÐ´": 19517,
  "ÐŁÐµÑģ": 37252,
  "ÐŁÐµÑĤ": 4438,
  "ÐŁÐµÑĤÐµÑĢÐ±ÑĥÑĢ": 5074,
  "ÐŁÐµÑĤÐµÑĢÐ±ÑĥÑĢÐ³": 9031,
  "ÐŁÐµÑĤÐµÑĢÐ±ÑĥÑĢÐ³Ð°": 14666,
  "ÐŁÐµÑĤÐµÑĢÐ±ÑĥÑĢÐ³Ðµ": 13683,
  "ÐŁÐ¸": 16016,
  "ÐŁÐ¸ÑģÑĮ": 39341,
  "ÐŁÐ¸ÑĤ": 36643,
  "ÐŁÐ»Ð°": 19865,
  "ÐŁÐ»Ð°Ð½": 38046,
  "ÐŁÐ»Ð¾": 35183,
  "ÐŁÐ¾": 2610,
  "ÐŁÐ¾Ð±": 44418,
  "ÐŁÐ¾Ð²": 17386,
  "ÐŁÐ¾Ð³": 26425,
  "ÐŁÐ¾Ð´": 3898,
  "ÐŁÐ¾Ð´Ð°": 44092,
  "ÐŁÐ¾Ð´ÑĢÐ¾Ð±Ð½ÐµÐµ": 38258,
  "ÐŁÐ¾Ð´ÑģÐºÐ°Ð¶Ð¸ÑĤÐµ": 12100,
  "ÐŁÐ¾Ð´Ñĥ": 45716,
  "ÐŁÐ¾Ð¶Ð°Ð»ÑĥÐ¹": 21758,
  "ÐŁÐ¾Ð¶Ð°Ð»ÑĥÐ¹ÑģÑĤÐ°": 30577,
  "ÐŁÐ¾Ð·": 15752,
  "ÐŁÐ¾Ð·Ð´ÑĢÐ°Ð²": 42712,
  "ÐŁÐ¾Ð¹": 26035,
  "ÐŁÐ¾Ðº": 26014,
  "ÐŁÐ¾ÐºÐ°": 10333,
  "ÐŁÐ¾Ð»": 7698,
  "ÐŁÐ¾Ð»Ð¸": 34223,
  "ÐŁÐ¾Ð»Ð¾Ð¶": 41519,
  "ÐŁÐ¾Ð»ÑĮ": 44922,
  "ÐŁÐ¾Ð¼": 6215,
  "ÐŁÐ¾Ð¼Ð¸Ð¼Ð¾": 45905,
  "ÐŁÐ¾Ð¼Ð¾Ð³Ð¸ÑĤÐµ": 10113,
  "ÐŁÐ¾Ð½": 15313,
  "ÐŁÐ¾Ð½ÑıÑĤÐ½Ð¾": 32431,
  "ÐŁÐ¾Ð¿": 16650,
  "ÐŁÐ¾Ð¿ÑĢÐ¾Ð±": 31390,
  "ÐŁÐ¾ÑĢ": 44495,
  "ÐŁÐ¾ÑĢÐ°": 43581,
  "ÐŁÐ¾ÑĢÑĤ": 36732,
  "ÐŁÐ¾Ñģ": 3697,
  "ÐŁÐ¾ÑģÐºÐ¾Ð»ÑĮÐºÑĥ": 35184,
  "ÐŁÐ¾ÑģÐ»Ðµ": 6916,
  "ÐŁÐ¾ÑģÐ»ÐµÐ´": 15363,
  "ÐŁÐ¾ÑģÐ»ÐµÐ´Ð½Ð¸Ðµ": 46557,
  "ÐŁÐ¾ÑģÐ»ÐµÐ´Ð½Ð¸Ð¹": 38499,
  "ÐŁÐ¾ÑģÐ¼Ð¾ÑĤÑĢÐµÑĤÑĮ": 43866,
  "ÐŁÐ¾ÑģÐ¼Ð¾ÑĤÑĢÐ¸ÑĤÐµ": 49794,
  "ÐŁÐ¾ÑģÐ¾Ð²ÐµÑĤÑĥÐ¹ÑĤÐµ": 21630,
  "ÐŁÐ¾ÑĤ": 6816,
  "ÐŁÐ¾ÑĤÐ¾Ð¼": 13796,
  "ÐŁÐ¾ÑĤÐ¾Ð¼Ñĥ": 12985,
  "ÐŁÐ¾ÑħÐ¾Ð¶Ðµ": 28248,
  "ÐŁÐ¾Ñĩ": 18364,
  "ÐŁÐ¾ÑĩÐµÐ¼Ñĥ": 3539,
  "ÐŁÐ¾ÑĩÑĤÐ¸": 33646,
  "ÐŁÐ¾ÑįÑĤÐ¾Ð¼Ñĥ": 18720,
  "ÐŁÐĲ": 16644,
  "ÐŁÐķÐł": 45697,
  "ÐŁÐĺ": 18378,
  "ÐŁÐļ": 14762,
  "ÐŁÐĽ": 38323,
  "ÐŁÐĽÐĲ": 31819,
  "ÐŁÐŀ": 7425,
  "ÐŁÐŁ": 15864,
  "ÐŁÐł": 21653,
  "ÐŁÐłÐĲ": 50019,
  "ÐŁÐłÐķ": 43213,
  "ÐŁÐłÐĺ": 43707,
  "ÐŁÐłÐŀ": 21136,
  "ÐŁÑĢ": 33644,
  "ÐŁÑĢÐ°Ð²": 7868,
  "ÐŁÑĢÐ°Ð²Ð´Ð°": 15484,
  "ÐŁÑĢÐ°Ð²Ð¸Ð»ÑĮÐ½Ð¾": 36698,
  "ÐŁÑĢÐ°Ð·Ð´": 48482,
  "ÐŁÑĢÐ°Ðº": 40561,
  "ÐŁÑĢÐµ": 8878,
  "ÐŁÑĢÐµÐ´": 8995,
  "ÐŁÑĢÐµÐ´ÑģÑĤÐ°Ð²": 38937,
  "ÐŁÑĢÐµÐ¶Ð´Ðµ": 30751,
  "ÐŁÑĢÐµÐ·Ð¸Ð´ÐµÐ½ÑĤ": 30053,
  "ÐŁÑĢÐ¸": 2675,
  "ÐŁÑĢÐ¸Ð²ÐµÑĤ": 13750,
  "ÐŁÑĢÐ¸Ð·Ð½Ð°": 46688,
  "ÐŁÑĢÐ¸Ð¼ÐµÑĢÐ½Ð¾": 48274,
  "ÐŁÑĢÐ¸Ð¼ÐµÑĩÐ°": 49191,
  "ÐŁÑĢÐ¸Ð½": 31393,
  "ÐŁÑĢÐ¾": 3538,
  "ÐŁÑĢÐ¾Ð±": 43945,
  "ÐŁÑĢÐ¾Ð±Ð»ÐµÐ¼": 23321,
  "ÐŁÑĢÐ¾Ð±Ð»ÐµÐ¼Ð°": 34957,
  "ÐŁÑĢÐ¾Ð±Ð»ÐµÐ¼Ñĭ": 48256,
  "ÐŁÑĢÐ¾Ð²": 31818,
  "ÐŁÑĢÐ¾Ð³": 45190,
  "ÐŁÑĢÐ¾Ð³ÑĢÐ°Ð¼": 37889,
  "ÐŁÑĢÐ¾Ð´": 34649,
  "ÐŁÑĢÐ¾Ð´Ð°": 38531,
  "ÐŁÑĢÐ¾Ð´Ð¾Ð»Ð¶": 24825,
  "ÐŁÑĢÐ¾Ð´Ð¾Ð»Ð¶ÐµÐ½Ð¸Ðµ": 45238,
  "ÐŁÑĢÐ¾ÐµÐºÑĤ": 42624,
  "ÐŁÑĢÐ¾Ð¸Ð·Ð²Ð¾Ð´": 47955,
  "ÐŁÑĢÐ¾Ð¹": 44362,
  "ÐŁÑĢÐ¾Ðº": 31791,
  "ÐŁÑĢÐ¾Ð¼": 50001,
  "ÐŁÑĢÐ¾Ð¿": 49059,
  "ÐŁÑĢÐ¾Ñģ": 32598,
  "ÐŁÑĢÐ¾ÑģÑĤÐ¸": 39952,
  "ÐŁÑĢÐ¾ÑģÑĤÐ¸ÑĤÐµ": 33648,
  "ÐŁÑĢÐ¾ÑģÑĤÐ¾": 16957,
  "ÐŁÑĢÐ¾ÑĤÐ¸Ð²": 46539,
  "ÐŁÑĢÐ¾ÑĪÐ»Ð¾": 43367,
  "ÐŁÑĢÐ¾ÑĪÑĥ": 30791,
  "ÐŁÑģÐ¸Ñħ": 34760,
  "ÐŁÑĥ": 8509,
  "ÐŁÑĥÑģÑĤÑĮ": 18466,
  "ÐŁÑĥÑĤÐµÑĪÐµ": 44389,
  "ÐŁÑĥÑĤÐ¸Ð½": 28250,
  "ÐŁÑĥÑĤÑĮ": 49935,
  "ÐŁÑıÑĤ": 35395,
  "ÐŁÑıÑĤÑĮ": 43706,
  "Ðł": 701,
  "ÐłÂµ": 44355,
  "ÐłÐ¡": 20534,
  "ÐłÐ¢": 23037,
  "ÐłÐ£": 8531,
  "ÐłÐ¤": 16036,
  "ÐłÐ«": 20816,
  "ÐłÐ¯": 38471,
  "ÐłÐ°": 6314,
  "ÐłÐ°Ð±Ð¾ÑĤ": 36167,
  "ÐłÐ°Ð±Ð¾ÑĤÐ°": 28747,
  "ÐłÐ°Ð´": 46455,
  "ÐłÐ°Ð´Ð¸": 29438,
  "ÐłÐ°Ð·": 5214,
  "ÐłÐ°Ð·Ð²Ðµ": 25868,
  "ÐłÐ°Ð·Ð²Ð¸ÑĤÐ¸Ðµ": 45133,
  "ÐłÐ°Ð·ÑĥÐ¼ÐµÐµÑĤÑģÑı": 28828,
  "ÐłÐ°Ð¹": 39659,
  "ÐłÐ°Ð½": 33410,
  "ÐłÐ°Ð½ÑĮÑĪÐµ": 37949,
  "ÐłÐ°Ñģ": 13282,
  "ÐłÐ°ÑģÐ¿": 27567,
  "ÐłÐ°ÑģÑģ": 36966,
  "ÐłÐ°ÑģÑģÐºÐ°": 37157,
  "ÐłÐµ": 7421,
  "ÐłÐµÐ±": 25659,
  "ÐłÐµÐ±ÑıÑĤ": 47157,
  "ÐłÐµÐ±ÑıÑĤÐ°": 35668,
  "ÐłÐµÐ²": 49001,
  "ÐłÐµÐ³Ð¸": 41045,
  "ÐłÐµÐ´": 39322,
  "ÐłÐµÐ·": 25590,
  "ÐłÐµÐ·ÑĥÐ»ÑĮÑĤÐ°": 48464,
  "ÐłÐµÐ¹": 40088,
  "ÐłÐµÐ¼": 48074,
  "ÐłÐµÑĪ": 44781,
  "ÐłÐ¸": 33260,
  "ÐłÐ¸Ð¼": 49128,
  "ÐłÐ¸Ñģ": 25823,
  "ÐłÐ¾": 26407,
  "ÐłÐ¾Ð±": 32005,
  "ÐłÐ¾Ð´": 13980,
  "ÐłÐ¾Ð´Ð¸Ð»ÑģÑı": 45013,
  "ÐłÐ¾Ð·": 43809,
  "ÐłÐ¾Ð¼": 24973,
  "ÐłÐ¾Ð¼Ð°Ð½": 41756,
  "ÐłÐ¾Ñģ": 19831,
  "ÐłÐ¾ÑģÑģÐ¸": 7612,
  "ÐłÐ¾ÑģÑģÐ¸Ð¸": 50241,
  "ÐłÐ¾ÑģÑģÐ¸Ð¹": 18147,
  "ÐłÐ¾ÑģÑģÐ¸Ð¹ÑģÐºÐ°Ñı": 45599,
  "ÐłÐ¾ÑģÑģÐ¸Ð¹ÑģÐºÐ¸Ð¹": 46634,
  "ÐłÐ¾ÑģÑģÐ¸Ñı": 11546,
  "ÐłÐ¾ÑģÑĤ": 40263,
  "ÐłÐ¾ÑģÑĤÐ¾Ð²": 49225,
  "ÐłÐĲ": 4093,
  "ÐłÐĲÐĿ": 43895,
  "ÐłÐĵ": 24468,
  "ÐłÐķ": 7534,
  "ÐłÐĺ": 5904,
  "ÐłÐļ": 26664,
  "ÐłÐľÐĲ": 49404,
  "ÐłÐŀ": 3583,
  "ÐłÐŀÐĴ": 32558,
  "ÐłÐŀÐĶ": 50126,
  "ÐłÐŁ": 45264,
  "ÐłÐł": 49100,
  "ÐłÑ": 30217,
  "ÐłÑĥ": 18398,
  "ÐłÑĥÐ±": 34280,
  "ÐłÑĥÐºÐ¾Ð²Ð¾Ð´": 46855,
  "ÐłÑĥÑģ": 9874,
  "ÐłÑĥÑģÑģÐºÐ°Ñı": 37472,
  "ÐłÑĥÑģÑģÐºÐ¸Ðµ": 43330,
  "ÐłÑĥÑģÑģÐºÐ¸Ð¹": 27041,
  "ÐłÑĭ": 20734,
  "ÐłÑı": 30957,
  "ÐłÑıÐ´Ð¾Ð¼": 43513,
  "ÐłÑĳ": 47398,
  "ÐłÑķ": 36665,
  "ÐŃ": 1269,
  "ÐŃÐ¡": 11319,
  "ÐŃÐ¹": 19875,
  "ÐŃÐº": 10898,
  "ÐŃÐºÐ¾Ð½Ð¾Ð¼": 37099,
  "ÐŃÐºÑģÐ¿": 21338,
  "ÐŃÐ»ÐµÐºÑĤ": 31579,
  "ÐŃÐ»ÑĮ": 34449,
  "ÐŃÐ¼": 45727,
  "ÐŃÐ½": 34834,
  "ÐŃÐ½ÐµÑĢ": 30802,
  "ÐŃÐļ": 27399,
  "ÐŃÐŁ": 39131,
  "ÐŃÑĢ": 44523,
  "ÐŃÑĤÐ°": 17398,
  "ÐŃÑĤÐ¸": 20483,
  "ÐŃÑĤÐ¾": 2451,
  "ÐŃÑĤÐ¾ÑĤ": 14077,
  "ÐŃÑħ": 33234,
  "Ñ": 147,
  "Ñ£": 7866,
  "ÑĢ": 271,
  "ÑĢÐ°": 289,
  "ÑĢÐ°Ð±": 1779,
  "ÑĢÐ°Ð±Ð°ÑĤÑĭ": 4275,
  "ÑĢÐ°Ð±Ð¾": 19950,
  "ÑĢÐ°Ð±Ð¾ÑĤ": 1454,
  "ÑĢÐ°Ð±Ð¾ÑĤÐ°": 14042,
  "ÑĢÐ°Ð±Ð¾ÑĤÐ°ÐµÑĤ": 36778,
  "ÑĢÐ°Ð±Ð¾ÑĤÐ°ÑĤÑĮ": 12095,
  "ÑĢÐ°Ð±Ð¾ÑĤÐ¸": 29784,
  "ÑĢÐ°Ð±Ð¾ÑĤÐºÐ°": 13543,
  "ÑĢÐ°Ð±Ð¾ÑĤÐºÐ¸": 13175,
  "ÑĢÐ°Ð²": 508,
  "ÑĢÐ°Ð²Ð°": 6988,
  "ÑĢÐ°Ð²Ð¸": 2184,
  "ÑĢÐ°Ð²Ð¸Ð²": 44809,
  "ÑĢÐ°Ð²Ð¸Ð»Ð°": 13454,
  "ÑĢÐ°Ð²Ð¸Ð»Ð°ÑģÑĮ": 8686,
  "ÑĢÐ°Ð²Ð¸Ð»Ð¸": 22813,
  "ÑĢÐ°Ð²Ð¸Ð»Ð¸ÑģÑĮ": 11727,
  "ÑĢÐ°Ð²Ð¸Ð»Ð¾ÑģÑĮ": 44237,
  "ÑĢÐ°Ð²Ð¸ÑĤÑģÑı": 34983,
  "ÑĢÐ°Ð²Ð¸ÑĤÑĮ": 5403,
  "ÑĢÐ°Ð²Ð¸ÑĤÑĮÑģÑı": 7837,
  "ÑĢÐ°Ð²Ð¸ÑĪÑĮÑģÑı": 39428,
  "ÑĢÐ°Ð²Ð»Ð¸": 20823,
  "ÑĢÐ°Ð²Ð½Ðµ": 41709,
  "ÑĢÐ°Ð²Ð½Ð¸": 16251,
  "ÑĢÐ°Ð²Ð½Ð¾": 46583,
  "ÑĢÐ°Ð²Ð¾": 5982,
  "ÑĢÐ°Ð²ÑĪÐ¸ÑģÑĮ": 23058,
  "ÑĢÐ°Ð³": 17489,
  "ÑĢÐ°Ð³Ð¸": 27941,
  "ÑĢÐ°Ð´": 11588,
  "ÑĢÐ°Ð´Ð¸": 10735,
  "ÑĢÐ°Ð´Ð¾": 35083,
  "ÑĢÐ°Ð¶": 899,
  "ÑĢÐ°Ð¶Ð°": 3790,
  "ÑĢÐ°Ð¶Ð°ÐµÑĤ": 9950,
  "ÑĢÐ°Ð¶Ð´": 7423,
  "ÑĢÐ°Ð¶Ð´Ð°": 20565,
  "ÑĢÐ°Ð¶Ð´Ð°Ð½": 11411,
  "ÑĢÐ°Ð¶Ð´Ð°Ð½Ðµ": 40291,
  "ÑĢÐ°Ð¶Ðµ": 36324,
  "ÑĢÐ°Ð¶ÐµÐ½Ð¸Ðµ": 3793,
  "ÑĢÐ°Ð¶ÐµÐ½Ð¸Ñı": 3990,
  "ÑĢÐ°Ð¶Ð¸": 16278,
  "ÑĢÐ°Ð·": 616,
  "ÑĢÐ°Ð·Ð°": 32958,
  "ÑĢÐ°Ð·Ð²ÐµÐ´": 22114,
  "ÑĢÐ°Ð·Ð²Ð¸ÑĤ": 18996,
  "ÑĢÐ°Ð·Ð²Ð¸ÑĤÐ¸Ñı": 30972,
  "ÑĢÐ°Ð·Ð´": 2353,
  "ÑĢÐ°Ð·Ð´ÐµÐ»": 6661,
  "ÑĢÐ°Ð·Ð´Ð¾": 4687,
  "ÑĢÐ°Ð·Ð¸Ð¹": 30405,
  "ÑĢÐ°Ð·Ð¼ÐµÑĢ": 33980,
  "ÑĢÐ°Ð·Ð½Ð¾Ð¼Ñĥ": 19816,
  "ÑĢÐ°Ð·Ñĥ": 1609,
  "ÑĢÐ°Ð·ÑĥÐ¼": 16362,
  "ÑĢÐ°Ð·ÑĥÐ¼Ðµ": 12449,
  "ÑĢÐ°Ð¸Ð»ÑĮ": 16215,
  "ÑĢÐ°Ð¹": 5182,
  "ÑĢÐ°Ð¹ÑģÑı": 45362,
  "ÑĢÐ°Ð¹ÑĤÐµÑģÑĮ": 32375,
  "ÑĢÐ°Ðº": 951,
  "ÑĢÐ°ÐºÐ¾Ð½": 40909,
  "ÑĢÐ°ÐºÑĤÐµÑĢ": 23031,
  "ÑĢÐ°ÐºÑĤÐµÑĢÐ¸": 21388,
  "ÑĢÐ°Ð»": 7069,
  "ÑĢÐ°Ð»Ð°": 14573,
  "ÑĢÐ°Ð»Ð°ÑģÑĮ": 42141,
  "ÑĢÐ°Ð»Ð¸": 11174,
  "ÑĢÐ°Ð»Ð¸ÑģÑĮ": 36873,
  "ÑĢÐ°Ð»ÑģÑı": 27986,
  "ÑĢÐ°Ð»ÑĮ": 1897,
  "ÑĢÐ°Ð»ÑĮÐ½Ð°Ñı": 34604,
  "ÑĢÐ°Ð»ÑĮÐ½Ð¾": 38901,
  "ÑĢÐ°Ð»ÑĮÐ½Ð¾Ð³Ð¾": 41221,
[...]
